{
  "0": "\u0000",
  "1": "\u0001",
  "2": "\u0002",
  "3": "\u0003",
  "4": "\u0004",
  "5": "\u0005",
  "6": "\u0006",
  "7": "\u0007",
  "8": "\b",
  "9": "\t",
  "10": "\n",
  "11": "\u000b",
  "12": "\f",
  "13": "\r",
  "14": "\u000e",
  "15": "\u000f",
  "16": "\u0010",
  "17": "\u0011",
  "18": "\u0012",
  "19": "\u0013",
  "20": "\u0014",
  "21": "\u0015",
  "22": "\u0016",
  "23": "\u0017",
  "24": "\u0018",
  "25": "\u0019",
  "26": "\u001a",
  "27": "\u001b",
  "28": "\u001c",
  "29": "\u001d",
  "30": "\u001e",
  "31": "\u001f",
  "32": " ",
  "33": "!",
  "34": "\"",
  "35": "#",
  "36": "$",
  "37": "%",
  "38": "&",
  "39": "'",
  "40": "(",
  "41": ")",
  "42": "*",
  "43": "+",
  "44": ",",
  "45": "-",
  "46": ".",
  "47": "/",
  "48": "0",
  "49": "1",
  "50": "2",
  "51": "3",
  "52": "4",
  "53": "5",
  "54": "6",
  "55": "7",
  "56": "8",
  "57": "9",
  "58": ":",
  "59": ";",
  "60": "<",
  "61": "=",
  "62": ">",
  "63": "?",
  "64": "@",
  "65": "A",
  "66": "B",
  "67": "C",
  "68": "D",
  "69": "E",
  "70": "F",
  "71": "G",
  "72": "H",
  "73": "I",
  "74": "J",
  "75": "K",
  "76": "L",
  "77": "M",
  "78": "N",
  "79": "O",
  "80": "P",
  "81": "Q",
  "82": "R",
  "83": "S",
  "84": "T",
  "85": "U",
  "86": "V",
  "87": "W",
  "88": "X",
  "89": "Y",
  "90": "Z",
  "91": "[",
  "92": "\\",
  "93": "]",
  "94": "^",
  "95": "_",
  "96": "`",
  "97": "a",
  "98": "b",
  "99": "c",
  "100": "d",
  "101": "e",
  "102": "f",
  "103": "g",
  "104": "h",
  "105": "i",
  "106": "j",
  "107": "k",
  "108": "l",
  "109": "m",
  "110": "n",
  "111": "o",
  "112": "p",
  "113": "q",
  "114": "r",
  "115": "s",
  "116": "t",
  "117": "u",
  "118": "v",
  "119": "w",
  "120": "x",
  "121": "y",
  "122": "z",
  "123": "{",
  "124": "|",
  "125": "}",
  "126": "~",
  "127": "",
  "128": "�",
  "129": "�",
  "130": "�",
  "131": "�",
  "132": "�",
  "133": "�",
  "134": "�",
  "135": "�",
  "136": "�",
  "137": "�",
  "138": "�",
  "139": "�",
  "140": "�",
  "141": "�",
  "142": "�",
  "143": "�",
  "144": "�",
  "145": "�",
  "146": "�",
  "147": "�",
  "148": "�",
  "149": "�",
  "150": "�",
  "151": "�",
  "152": "�",
  "153": "�",
  "154": "�",
  "155": "�",
  "156": "�",
  "157": "�",
  "158": "�",
  "159": "�",
  "160": "�",
  "161": "�",
  "162": "�",
  "163": "�",
  "164": "�",
  "165": "�",
  "166": "�",
  "167": "�",
  "168": "�",
  "169": "�",
  "170": "�",
  "171": "�",
  "172": "�",
  "173": "�",
  "174": "�",
  "175": "�",
  "176": "�",
  "177": "�",
  "178": "�",
  "179": "�",
  "180": "�",
  "181": "�",
  "182": "�",
  "183": "�",
  "184": "�",
  "185": "�",
  "186": "�",
  "187": "�",
  "188": "�",
  "189": "�",
  "190": "�",
  "191": "�",
  "192": "�",
  "193": "�",
  "194": "�",
  "195": "�",
  "196": "�",
  "197": "�",
  "198": "�",
  "199": "�",
  "200": "�",
  "201": "�",
  "202": "�",
  "203": "�",
  "204": "�",
  "205": "�",
  "206": "�",
  "207": "�",
  "208": "�",
  "209": "�",
  "210": "�",
  "211": "�",
  "212": "�",
  "213": "�",
  "214": "�",
  "215": "�",
  "216": "�",
  "217": "�",
  "218": "�",
  "219": "�",
  "220": "�",
  "221": "�",
  "222": "�",
  "223": "�",
  "224": "�",
  "225": "�",
  "226": "�",
  "227": "�",
  "228": "�",
  "229": "�",
  "230": "�",
  "231": "�",
  "232": "�",
  "233": "�",
  "234": "�",
  "235": "�",
  "236": "�",
  "237": "�",
  "238": "�",
  "239": "�",
  "240": "�",
  "241": "�",
  "242": "�",
  "243": "�",
  "244": "�",
  "245": "�",
  "246": "�",
  "247": "�",
  "248": "�",
  "249": "�",
  "250": "�",
  "251": "�",
  "252": "�",
  "253": "�",
  "254": "�",
  "255": "�",
  "256": " t",
  "257": "he",
  "258": " a",
  "259": "ou",
  "260": " s",
  "261": " m",
  "262": "in",
  "263": " w",
  "264": "re",
  "265": "ha",
  "266": "nd",
  "267": " the",
  "268": " b",
  "269": "is",
  "270": "or",
  "271": " f",
  "272": "er",
  "273": "ll",
  "274": "it",
  "275": "on",
  "276": " d",
  "277": " c",
  "278": "es",
  "279": "en",
  "280": " n",
  "281": " l",
  "282": " y",
  "283": " th",
  "284": "ar",
  "285": " h",
  "286": " o",
  "287": " to",
  "288": " you",
  "289": " p",
  "290": "hat",
  "291": " I",
  "292": " he",
  "293": "ve",
  "294": "ot",
  "295": "st",
  "296": " and",
  "297": "ow",
  "298": "ing",
  "299": "an",
  "300": " of",
  "301": "om",
  "302": " g",
  "303": "at",
  "304": " be",
  "305": "se",
  "306": " my",
  "307": " in",
  "308": "ce",
  "309": " ha",
  "310": "le",
  "311": "ay",
  "312": "ld",
  "313": "ir",
  "314": "et",
  "315": "ed",
  "316": "ut",
  "317": " me",
  "318": "im",
  "319": "ith",
  "320": "'s",
  "321": " not",
  "322": "ch",
  "323": " that",
  "324": " is",
  "325": "gh",
  "326": "And",
  "327": " for",
  "328": "ke",
  "329": " u",
  "330": "our",
  "331": " we",
  "332": "oo",
  "333": "ill",
  "334": " e",
  "335": "her",
  "336": " with",
  "337": "ent",
  "338": " it",
  "339": " your",
  "340": "ad",
  "341": "ri",
  "342": " thou",
  "343": " st",
  "344": "'d",
  "345": " k",
  "346": "ome",
  "347": " his",
  "348": "ght",
  "349": "EN",
  "350": "ord",
  "351": "id",
  "352": "The",
  "353": "as",
  "354": " re",
  "355": " have",
  "356": "IN",
  "357": "ly",
  "358": "ra",
  "359": " li",
  "360": " him",
  "361": "ur",
  "362": " this",
  "363": "al",
  "364": "IO",
  "365": " so",
  "366": " as",
  "367": " de",
  "368": " on",
  "369": "ore",
  "370": "ro",
  "371": "AR",
  "372": "hi",
  "373": "ould",
  "374": "ood",
  "375": "ck",
  "376": "ain",
  "377": "ver",
  "378": "est",
  "379": " thy",
  "380": " sha",
  "381": "ess",
  "382": "ea",
  "383": " do",
  "384": " will",
  "385": "am",
  "386": " no",
  "387": " but",
  "388": "us",
  "389": "and",
  "390": "US",
  "391": "if",
  "392": " se",
  "393": "ge",
  "394": "Th",
  "395": " all",
  "396": "ake",
  "397": " su",
  "398": "To",
  "399": " her",
  "400": "ru",
  "401": "ion",
  "402": "th",
  "403": " an",
  "404": "ter",
  "405": "ard",
  "406": " lo",
  "407": "han",
  "408": "ell",
  "409": "ear",
  "410": " sp",
  "411": " thee",
  "412": " our",
  "413": " fa",
  "414": " shall",
  "415": " by",
  "416": "UC",
  "417": "il",
  "418": " are",
  "419": "ING",
  "420": " C",
  "421": "rom",
  "422": " ne",
  "423": "ho",
  "424": " kn",
  "425": "AN",
  "426": " R",
  "427": "That",
  "428": " v",
  "429": "ER",
  "430": "OR",
  "431": "ast",
  "432": "ct",
  "433": "ous",
  "434": " what",
  "435": "ight",
  "436": " sh",
  "437": "ul",
  "438": " '",
  "439": "ET",
  "440": "ant",
  "441": "ES",
  "442": " up",
  "443": "sel",
  "444": "qu",
  "445": "But",
  "446": "art",
  "447": " good",
  "448": "row",
  "449": "ine",
  "450": "ath",
  "451": " lord",
  "452": "hich",
  "453": "nt",
  "454": "ust",
  "455": "'ll",
  "456": "one",
  "457": " pr",
  "458": " com",
  "459": " at",
  "460": " man",
  "461": " M",
  "462": "What",
  "463": " whe",
  "464": " E",
  "465": "KING",
  "466": " am",
  "467": "end",
  "468": "ic",
  "469": " con",
  "470": "ble",
  "471": "ry",
  "472": "ong",
  "473": "ie",
  "474": "ive",
  "475": " bl",
  "476": " from",
  "477": "ven",
  "478": " G",
  "479": "For",
  "480": " she",
  "481": "em",
  "482": " go",
  "483": "are",
  "484": " more",
  "485": "IC",
  "486": "out",
  "487": " them",
  "488": "au",
  "489": " was",
  "490": "oth",
  "491": "other",
  "492": "He",
  "493": " sir",
  "494": "ol",
  "495": " now",
  "496": " L",
  "497": " hat",
  "498": " if",
  "499": "ost",
  "500": "LO",
  "501": "ind",
  "502": " there",
  "503": " would",
  "504": " know",
  "505": " can",
  "506": "ers",
  "507": "IUS",
  "508": "ep",
  "509": "self",
  "510": "ARD",
  "511": "ather",
  "512": "fe",
  "513": "ond",
  "514": "res",
  "515": "ate",
  "516": " say",
  "517": " here",
  "518": " love",
  "519": " sw",
  "520": " their",
  "521": " br",
  "522": " or",
  "523": "pp",
  "524": " S",
  "525": "--",
  "526": "all",
  "527": " than",
  "528": " then",
  "529": " king",
  "530": " us",
  "531": " O",
  "532": " B",
  "533": " they",
  "534": " ar",
  "535": "od",
  "536": "My",
  "537": " let",
  "538": " un",
  "539": "ig",
  "540": " wor",
  "541": "ure",
  "542": "ink",
  "543": " H",
  "544": "ort",
  "545": " V",
  "546": "hy",
  "547": "ame",
  "548": "fore",
  "549": "As",
  "550": " may",
  "551": "el",
  "552": " qu",
  "553": " come",
  "554": "ook",
  "555": "Whe",
  "556": "ish",
  "557": "LI",
  "558": " well",
  "559": "KE",
  "560": "ves",
  "561": " j",
  "562": " one",
  "563": " hath",
  "564": "irst",
  "565": "You",
  "566": " make",
  "567": "reat",
  "568": "ak",
  "569": "gain",
  "570": " must",
  "571": "ound",
  "572": "ng",
  "573": " gra",
  "574": " were",
  "575": " ho",
  "576": "ci",
  "577": " see",
  "578": " like",
  "579": "ue",
  "580": "eak",
  "581": "TIO",
  "582": " should",
  "583": "ity",
  "584": " pro",
  "585": " P",
  "586": " sa",
  "587": " mad",
  "588": "um",
  "589": " pl",
  "590": " father",
  "591": "RO",
  "592": "AU",
  "593": " had",
  "594": " did",
  "595": "pe",
  "596": "ime",
  "597": " upon",
  "598": "ice",
  "599": "ON",
  "600": " too",
  "601": "ence",
  "602": " W",
  "603": "ward",
  "604": "ist",
  "605": " death",
  "606": "own",
  "607": " en",
  "608": "man",
  "609": "ose",
  "610": "un",
  "611": "IS",
  "612": "ful",
  "613": "nce",
  "614": " r",
  "615": " po",
  "616": " speak",
  "617": "de",
  "618": "entle",
  "619": " out",
  "620": "io",
  "621": "pt",
  "622": " which",
  "623": "ICH",
  "624": " fri",
  "625": "OL",
  "626": "DU",
  "627": " again",
  "628": "DUKE",
  "629": " how",
  "630": "EL",
  "631": " A",
  "632": "ick",
  "633": " tru",
  "634": " heart",
  "635": " yet",
  "636": " hand",
  "637": "CA",
  "638": "Thou",
  "639": "very",
  "640": "ICHARD",
  "641": "ENTIO",
  "642": "With",
  "643": "ign",
  "644": " some",
  "645": "ance",
  "646": " who",
  "647": "Which",
  "648": "If",
  "649": " when",
  "650": "ies",
  "651": " mar",
  "652": "ire",
  "653": " mine",
  "654": " hon",
  "655": "har",
  "656": "orn",
  "657": " off",
  "658": "ince",
  "659": "INC",
  "660": " Y",
  "661": "In",
  "662": "ack",
  "663": " son",
  "664": " dis",
  "665": " al",
  "666": "'t",
  "667": "We",
  "668": "uch",
  "669": "wn",
  "670": " hea",
  "671": "First",
  "672": "oy",
  "673": " time",
  "674": " hear",
  "675": "AB",
  "676": "ec",
  "677": " such",
  "678": "ness",
  "679": "LA",
  "680": " brother",
  "681": "Of",
  "682": " blood",
  "683": "ither",
  "684": " ab",
  "685": "UE",
  "686": "Why",
  "687": " these",
  "688": "No",
  "689": " give",
  "690": " fo",
  "691": " day",
  "692": " II",
  "693": " ear",
  "694": " RICHARD",
  "695": " ro",
  "696": "TER",
  "697": "ise",
  "698": " ex",
  "699": " life",
  "700": "This",
  "701": "eet",
  "702": " tell",
  "703": "So",
  "704": " look",
  "705": " think",
  "706": "UCH",
  "707": "oul",
  "708": " word",
  "709": " ey",
  "710": " where",
  "711": "ag",
  "712": "age",
  "713": "een",
  "714": "ther",
  "715": "GLO",
  "716": " take",
  "717": "UCES",
  "718": " friend",
  "719": "GLOUCES",
  "720": "GLOUCESTER",
  "721": "ef",
  "722": "erv",
  "723": "ady",
  "724": "rown",
  "725": " des",
  "726": "ings",
  "727": "ave",
  "728": "not",
  "729": " gentle",
  "730": "urse",
  "731": " ri",
  "732": "How",
  "733": "RY",
  "734": "ase",
  "735": "QUE",
  "736": "way",
  "737": "INCENTIO",
  "738": "QUEEN",
  "739": " lea",
  "740": "tis",
  "741": " OF",
  "742": " art",
  "743": " most",
  "744": "Where",
  "745": " honour",
  "746": "LAN",
  "747": " much",
  "748": " sl",
  "749": " war",
  "750": " fl",
  "751": "urn",
  "752": " made",
  "753": "ment",
  "754": "Now",
  "755": " hast",
  "756": " tw",
  "757": " fear",
  "758": " T",
  "759": " bet",
  "760": "ENRY",
  "761": "aught",
  "762": "Is",
  "763": "LE",
  "764": "ber",
  "765": "ff",
  "766": " God",
  "767": "ough",
  "768": "ved",
  "769": " bre",
  "770": "cc",
  "771": "ower",
  "772": " never",
  "773": " VINCENTIO",
  "774": " K",
  "775": "Be",
  "776": "ap",
  "777": "igh",
  "778": " great",
  "779": " fair",
  "780": "Who",
  "781": "ee",
  "782": "tle",
  "783": " men",
  "784": "orrow",
  "785": " cou",
  "786": " new",
  "787": " Rome",
  "788": "aster",
  "789": "uke",
  "790": "iz",
  "791": "old",
  "792": "ORK",
  "793": " part",
  "794": "ation",
  "795": "INIUS",
  "796": "ss",
  "797": "ree",
  "798": "ide",
  "799": "Or",
  "800": " call",
  "801": "ple",
  "802": " any",
  "803": " heaven",
  "804": " ad",
  "805": " comm",
  "806": "It",
  "807": "Your",
  "808": " stand",
  "809": " cannot",
  "810": " true",
  "811": "DW",
  "812": " name",
  "813": " been",
  "814": "ears",
  "815": "DWARD",
  "816": " cl",
  "817": " pre",
  "818": " sweet",
  "819": ",--",
  "820": " doth",
  "821": " pray",
  "822": "hing",
  "823": "PET",
  "824": "UM",
  "825": " noble",
  "826": "LUC",
  "827": "MEN",
  "828": "TH",
  "829": " own",
  "830": " ple",
  "831": "ass",
  "832": " D",
  "833": "ouse",
  "834": " per",
  "835": "Ay",
  "836": "Come",
  "837": "ull",
  "838": "There",
  "839": " wr",
  "840": " done",
  "841": "ife",
  "842": "aw",
  "843": " tr",
  "844": " way",
  "845": " other",
  "846": " head",
  "847": " mean",
  "848": "li",
  "849": "red",
  "850": "When",
  "851": "dward",
  "852": " nor",
  "853": "EO",
  "854": "MEO",
  "855": " sc",
  "856": " soul",
  "857": " pres",
  "858": "ROMEO",
  "859": "ace",
  "860": "ving",
  "861": " night",
  "862": " bear",
  "863": "ENIUS",
  "864": "aint",
  "865": " Cl",
  "866": " world",
  "867": "MENENIUS",
  "868": "ger",
  "869": " before",
  "870": "ause",
  "871": " both",
  "872": " queen",
  "873": "per",
  "874": "Then",
  "875": "aughter",
  "876": "RUCH",
  "877": "ock",
  "878": " chi",
  "879": "Here",
  "880": "PETRUCH",
  "881": "PETRUCHIO",
  "882": " very",
  "883": "OM",
  "884": "able",
  "885": " dead",
  "886": "TES",
  "887": " ra",
  "888": "By",
  "889": "ite",
  "890": " ke",
  "891": "Than",
  "892": "the",
  "893": " F",
  "894": "ab",
  "895": "les",
  "896": " down",
  "897": "to",
  "898": " app",
  "899": " myself",
  "900": " cont",
  "901": "GR",
  "902": "HA",
  "903": " wh",
  "904": " rem",
  "905": " Lord",
  "906": " arm",
  "907": " thus",
  "908": "IOLAN",
  "909": "ilt",
  "910": "ORIOLAN",
  "911": "ORIOLANUS",
  "912": "CORIOLANUS",
  "913": "Sec",
  "914": " leave",
  "915": "Second",
  "916": " being",
  "917": "ction",
  "918": " Edward",
  "919": "Nor",
  "920": "sw",
  "921": " unt",
  "922": "ress",
  "923": " grace",
  "924": "less",
  "925": " beg",
  "926": " eyes",
  "927": "BA",
  "928": "land",
  "929": " mother",
  "930": "ran",
  "931": " ma",
  "932": " old",
  "933": " im",
  "934": "INA",
  "935": " EDWARD",
  "936": "itiz",
  "937": "itizen",
  "938": "ps",
  "939": " long",
  "940": " ever",
  "941": " Mar",
  "942": " live",
  "943": " child",
  "944": "Let",
  "945": "me",
  "946": " wife",
  "947": "She",
  "948": " away",
  "949": " rep",
  "950": " III",
  "951": " wom",
  "952": " poor",
  "953": " friends",
  "954": "come",
  "955": "for",
  "956": "wick",
  "957": " af",
  "958": " might",
  "959": "nder",
  "960": " stay",
  "961": "eace",
  "962": "ks",
  "963": "oud",
  "964": " die",
  "965": "atch",
  "966": "led",
  "967": " J",
  "968": " ru",
  "969": "arwick",
  "970": " comes",
  "971": " cons",
  "972": " crown",
  "973": "ows",
  "974": " many",
  "975": " pe",
  "976": "Tis",
  "977": "hall",
  "978": "ison",
  "979": " le",
  "980": " YORK",
  "981": "lo",
  "982": "uck",
  "983": "iss",
  "984": " house",
  "985": " har",
  "986": " thought",
  "987": " rest",
  "988": "ISAB",
  "989": "ELLA",
  "990": "ISABELLA",
  "991": "ian",
  "992": "erc",
  "993": " cour",
  "994": " ent",
  "995": "RAN",
  "996": " lie",
  "997": "che",
  "998": " set",
  "999": "JU",
  "1000": "well",
  "1001": "ors",
  "1002": "atter",
  "1003": "LIET",
  "1004": "ONTES",
  "1005": " Warwick",
  "1006": "LEONTES",
  "1007": "JULIET",
  "1008": "Nay",
  "1009": "int",
  "1010": "ittle",
  "1011": " daughter",
  "1012": " gone",
  "1013": " better",
  "1014": "MI",
  "1015": "rant",
  "1016": "ought",
  "1017": " prince",
  "1018": "DY",
  "1019": "His",
  "1020": " tong",
  "1021": " wit",
  "1022": " nothing",
  "1023": "CE",
  "1024": "VOL",
  "1025": "ENCE",
  "1026": "LADY",
  "1027": "BR",
  "1028": "TA",
  "1029": "cl",
  "1030": "ied",
  "1031": " keep",
  "1032": "Go",
  "1033": "Well",
  "1034": "ces",
  "1035": "ious",
  "1036": "os",
  "1037": " sle",
  "1038": " res",
  "1039": "hard",
  "1040": " news",
  "1041": "SIC",
  "1042": "ft",
  "1043": "ier",
  "1044": " tri",
  "1045": " mo",
  "1046": "ret",
  "1047": "ont",
  "1048": " those",
  "1049": " gri",
  "1050": "ool",
  "1051": "une",
  "1052": "SICINIUS",
  "1053": "Not",
  "1054": " little",
  "1055": " lords",
  "1056": " against",
  "1057": "ford",
  "1058": " best",
  "1059": " hour",
  "1060": " hence",
  "1061": "ardon",
  "1062": "akes",
  "1063": "lse",
  "1064": " acc",
  "1065": "sed",
  "1066": " face",
  "1067": "ult",
  "1068": " foll",
  "1069": "On",
  "1070": "ew",
  "1071": "ud",
  "1072": "ark",
  "1073": " young",
  "1074": " end",
  "1075": "ork",
  "1076": " thing",
  "1077": " still",
  "1078": " kind",
  "1079": "ield",
  "1080": "ST",
  "1081": " pri",
  "1082": " pur",
  "1083": "alk",
  "1084": "Thy",
  "1085": " comp",
  "1086": "LUCIO",
  "1087": "ale",
  "1088": "ins",
  "1089": "ert",
  "1090": " put",
  "1091": " power",
  "1092": " IV",
  "1093": "ichard",
  "1094": " two",
  "1095": " cha",
  "1096": " himself",
  "1097": "Pro",
  "1098": "iness",
  "1099": " first",
  "1100": " peace",
  "1101": " gu",
  "1102": " else",
  "1103": "ried",
  "1104": " dear",
  "1105": "cious",
  "1106": "Sir",
  "1107": "ail",
  "1108": "ty",
  "1109": "ason",
  "1110": "hile",
  "1111": " sub",
  "1112": " unto",
  "1113": "ile",
  "1114": "ray",
  "1115": " till",
  "1116": " sm",
  "1117": "uty",
  "1118": "RI",
  "1119": "ZAB",
  "1120": "ect",
  "1121": " tra",
  "1122": " bid",
  "1123": " back",
  "1124": " dre",
  "1125": " hus",
  "1126": "ETH",
  "1127": " ELI",
  "1128": " therefore",
  "1129": " earth",
  "1130": " words",
  "1131": " count",
  "1132": "ZABETH",
  "1133": " ELIZABETH",
  "1134": "Have",
  "1135": "band",
  "1136": "ius",
  "1137": "men",
  "1138": "ople",
  "1139": "yal",
  "1140": " find",
  "1141": " could",
  "1142": " tongue",
  "1143": "orse",
  "1144": " lady",
  "1145": " thine",
  "1146": " need",
  "1147": " York",
  "1148": "HENRY",
  "1149": "get",
  "1150": "tw",
  "1151": " tre",
  "1152": " fell",
  "1153": "enry",
  "1154": " high",
  "1155": " forth",
  "1156": " hope",
  "1157": "MER",
  "1158": "St",
  "1159": "lp",
  "1160": " home",
  "1161": "vere",
  "1162": "eth",
  "1163": " seem",
  "1164": "eech",
  "1165": " Romeo",
  "1166": " husband",
  "1167": "CL",
  "1168": " duke",
  "1169": " right",
  "1170": " What",
  "1171": "GE",
  "1172": "WAR",
  "1173": "WIC",
  "1174": "fort",
  "1175": "rer",
  "1176": " ban",
  "1177": "uth",
  "1178": " though",
  "1179": " VI",
  "1180": "WARWIC",
  "1181": "WARWICK",
  "1182": "UT",
  "1183": "ach",
  "1184": "ix",
  "1185": " mind",
  "1186": " bra",
  "1187": "ister",
  "1188": " che",
  "1189": " char",
  "1190": "hip",
  "1191": " HENRY",
  "1192": " people",
  "1193": "Nurse",
  "1194": "ds",
  "1195": "ged",
  "1196": " Citizen",
  "1197": "ren",
  "1198": "They",
  "1199": " Henry",
  "1200": "HAM",
  "1201": "IAN",
  "1202": "LET",
  "1203": "PU",
  "1204": "eed",
  "1205": " bri",
  "1206": " chan",
  "1207": " law",
  "1208": " Richard",
  "1209": " show",
  "1210": " conf",
  "1211": " hands",
  "1212": "PULET",
  "1213": "EY",
  "1214": "be",
  "1215": " master",
  "1216": " why",
  "1217": " co",
  "1218": " cause",
  "1219": " gl",
  "1220": " once",
  "1221": " said",
  "1222": " imp",
  "1223": "Good",
  "1224": "MIO",
  "1225": "Shall",
  "1226": " bod",
  "1227": " none",
  "1228": "ousin",
  "1229": " joy",
  "1230": "ervant",
  "1231": "All",
  "1232": "bt",
  "1233": " fort",
  "1234": " bring",
  "1235": "Yet",
  "1236": " dou",
  "1237": "ates",
  "1238": " every",
  "1239": "UCKING",
  "1240": "BRUT",
  "1241": "UCKINGHAM",
  "1242": "BRUTUS",
  "1243": "BRO",
  "1244": "BUCKINGHAM",
  "1245": "From",
  "1246": "TRAN",
  "1247": "iet",
  "1248": " mist",
  "1249": " pass",
  "1250": "ird",
  "1251": " light",
  "1252": "INGBRO",
  "1253": "ESS",
  "1254": " BOL",
  "1255": "TRANIO",
  "1256": "INGBROKE",
  "1257": " BOLINGBROKE",
  "1258": "Do",
  "1259": "Will",
  "1260": "lt",
  "1261": "vost",
  "1262": " wo",
  "1263": " nat",
  "1264": " thr",
  "1265": " royal",
  "1266": "swer",
  "1267": "PER",
  "1268": "TIS",
  "1269": "cle",
  "1270": " tears",
  "1271": "its",
  "1272": " came",
  "1273": "ary",
  "1274": " MAR",
  "1275": " whose",
  "1276": " please",
  "1277": "lf",
  "1278": "vy",
  "1279": "ory",
  "1280": " pardon",
  "1281": "roke",
  "1282": " An",
  "1283": "Cl",
  "1284": "GAR",
  "1285": "NE",
  "1286": "pose",
  "1287": " bes",
  "1288": " boy",
  "1289": " full",
  "1290": "arry",
  "1291": " heard",
  "1292": " happ",
  "1293": " dev",
  "1294": " just",
  "1295": " wrong",
  "1296": " present",
  "1297": " MARGAR",
  "1298": " MARGARET",
  "1299": "ATH",
  "1300": "eel",
  "1301": " since",
  "1302": " mis",
  "1303": "ens",
  "1304": " land",
  "1305": " last",
  "1306": " ere",
  "1307": " state",
  "1308": " place",
  "1309": "MIL",
  "1310": "bl",
  "1311": "sand",
  "1312": " meet",
  "1313": " under",
  "1314": " kill",
  "1315": " after",
  "1316": "HOR",
  "1317": "cent",
  "1318": " sorrow",
  "1319": "ition",
  "1320": " care",
  "1321": " thousand",
  "1322": "esty",
  "1323": "ANGE",
  "1324": "ORD",
  "1325": " hold",
  "1326": "GRE",
  "1327": "ANGELO",
  "1328": "CU",
  "1329": "Our",
  "1330": " help",
  "1331": "ARINA",
  "1332": "arence",
  "1333": " whom",
  "1334": " follow",
  "1335": "KATH",
  "1336": "day",
  "1337": " far",
  "1338": " less",
  "1339": " hither",
  "1340": "ceive",
  "1341": "irt",
  "1342": " weep",
  "1343": " shame",
  "1344": "selves",
  "1345": "cius",
  "1346": " enem",
  "1347": " about",
  "1348": " eye",
  "1349": "KATHARINA",
  "1350": "iol",
  "1351": " fal",
  "1352": " fool",
  "1353": "ons",
  "1354": " pat",
  "1355": "urde",
  "1356": " sun",
  "1357": " answer",
  "1358": "air",
  "1359": " ch",
  "1360": "asure",
  "1361": " fall",
  "1362": " maid",
  "1363": "LUS",
  "1364": "Un",
  "1365": "Up",
  "1366": "ount",
  "1367": " bus",
  "1368": " cousin",
  "1369": "thy",
  "1370": "ESCA",
  "1371": " hate",
  "1372": " gracious",
  "1373": " gentleman",
  "1374": " King",
  "1375": " grief",
  "1376": "ESCALUS",
  "1377": "An",
  "1378": "ject",
  "1379": "ove",
  "1380": " makes",
  "1381": " into",
  "1382": "imes",
  "1383": " stri",
  "1384": "Hath",
  "1385": "iv",
  "1386": "ild",
  "1387": " stre",
  "1388": " Eng",
  "1389": " woman",
  "1390": "DUCH",
  "1391": " turn",
  "1392": " hum",
  "1393": " bel",
  "1394": "alt",
  "1395": " dost",
  "1396": " comfort",
  "1397": "ices",
  "1398": " coun",
  "1399": " Duke",
  "1400": " court",
  "1401": " sleep",
  "1402": "urderer",
  "1403": "DUCHESS",
  "1404": "Lord",
  "1405": "pher",
  "1406": " talk",
  "1407": "itor",
  "1408": " over",
  "1409": " body",
  "1410": "morrow",
  "1411": " wilt",
  "1412": " bu",
  "1413": " gr",
  "1414": "ute",
  "1415": "gelo",
  "1416": "deed",
  "1417": " Marcius",
  "1418": " i",
  "1419": "IA",
  "1420": "ience",
  "1421": "ised",
  "1422": " bed",
  "1423": " fault",
  "1424": " att",
  "1425": "ieve",
  "1426": " prove",
  "1427": " play",
  "1428": "CAMIL",
  "1429": " Clarence",
  "1430": "CAMILLO",
  "1431": "God",
  "1432": "ere",
  "1433": "ily",
  "1434": " sound",
  "1435": " dra",
  "1436": "ans",
  "1437": "omet",
  "1438": " inst",
  "1439": " wel",
  "1440": "ade",
  "1441": " ret",
  "1442": " deed",
  "1443": " thank",
  "1444": "TEN",
  "1445": " ser",
  "1446": " bo",
  "1447": " fight",
  "1448": " indeed",
  "1449": "illain",
  "1450": "hold",
  "1451": " vo",
  "1452": " sword",
  "1453": " Angelo",
  "1454": "HORTEN",
  "1455": " false",
  "1456": "HORTENS",
  "1457": "FRI",
  "1458": "Sh",
  "1459": " use",
  "1460": " even",
  "1461": " sovere",
  "1462": " another",
  "1463": " grave",
  "1464": " adv",
  "1465": "Provost",
  "1466": " fellow",
  "1467": "Upon",
  "1468": "HORTENSIO",
  "1469": "FRIAR",
  "1470": ",'",
  "1471": "PTIS",
  "1472": "eal",
  "1473": " cur",
  "1474": " has",
  "1475": " em",
  "1476": "ury",
  "1477": "pect",
  "1478": "BAPTIS",
  "1479": " banish",
  "1480": " fortune",
  "1481": "BAPTISTA",
  "1482": "CUS",
  "1483": "COM",
  "1484": "TOL",
  "1485": "YCUS",
  "1486": "pl",
  "1487": "pen",
  "1488": "ouch",
  "1489": " merc",
  "1490": " matter",
  "1491": " want",
  "1492": " reven",
  "1493": " ass",
  "1494": " send",
  "1495": " prison",
  "1496": "fect",
  "1497": "AUTOL",
  "1498": " rather",
  "1499": " country",
  "1500": " doubt",
  "1501": "COMINIUS",
  "1502": "AUTOLYCUS",
  "1503": ".'",
  "1504": "Are",
  "1505": "Even",
  "1506": "More",
  "1507": " wish",
  "1508": " years",
  "1509": " reason",
  "1510": " lies",
  "1511": " only",
  "1512": "ARENCE",
  "1513": "Third",
  "1514": " virt",
  "1515": " truth",
  "1516": " But",
  "1517": "Would",
  "1518": "ior",
  "1519": "ms",
  "1520": "of",
  "1521": "rance",
  "1522": " dan",
  "1523": " pers",
  "1524": "any",
  "1525": " breath",
  "1526": " arms",
  "1527": " dream",
  "1528": "CLARENCE",
  "1529": "pherd",
  "1530": "BEN",
  "1531": "MAR",
  "1532": "NOR",
  "1533": "dd",
  "1534": "der",
  "1535": " sent",
  "1536": "ener",
  "1537": " gi",
  "1538": " stra",
  "1539": " shalt",
  "1540": " disc",
  "1541": "VOLIO",
  "1542": "Clown",
  "1543": " business",
  "1544": "BENVOLIO",
  "1545": "Al",
  "1546": "At",
  "1547": "PRO",
  "1548": "SPER",
  "1549": "by",
  "1550": "hed",
  "1551": " sen",
  "1552": " prom",
  "1553": " holy",
  "1554": " enough",
  "1555": "erving",
  "1556": " command",
  "1557": "UMIO",
  "1558": "GRUMIO",
  "1559": "PROSPER",
  "1560": "PROSPERO",
  "1561": "ia",
  "1562": "ken",
  "1563": " sea",
  "1564": " wind",
  "1565": "itt",
  "1566": " cra",
  "1567": " lay",
  "1568": "ars",
  "1569": " pity",
  "1570": "ator",
  "1571": " bea",
  "1572": " hang",
  "1573": " stran",
  "1574": " sold",
  "1575": " spir",
  "1576": " fare",
  "1577": " proud",
  "1578": " Murderer",
  "1579": " swear",
  "1580": " content",
  "1581": "MERCU",
  "1582": "MERCUTIO",
  "1583": "ike",
  "1584": " dare",
  "1585": "eter",
  "1586": " lives",
  "1587": " dep",
  "1588": " sec",
  "1589": " villain",
  "1590": "gainst",
  "1591": " Kate",
  "1592": "LUCENTIO",
  "1593": " remem",
  "1594": " nature",
  "1595": " welcome",
  "1596": "POM",
  "1597": "Tw",
  "1598": "com",
  "1599": "unt",
  "1600": " tend",
  "1601": "ham",
  "1602": " free",
  "1603": " gre",
  "1604": " get",
  "1605": " int",
  "1606": " within",
  "1607": " kiss",
  "1608": "ester",
  "1609": " Come",
  "1610": " gods",
  "1611": " saw",
  "1612": " madam",
  "1613": "LAND",
  "1614": " happy",
  "1615": " sovereign",
  "1616": "POMP",
  "1617": "LINA",
  "1618": "PAU",
  "1619": "apt",
  "1620": " serv",
  "1621": " sister",
  "1622": " somet",
  "1623": "hal",
  "1624": " foul",
  "1625": " city",
  "1626": "vers",
  "1627": "Were",
  "1628": " beseech",
  "1629": "PAULINA",
  "1630": "YORK",
  "1631": "ient",
  "1632": "use",
  "1633": "ery",
  "1634": " den",
  "1635": " yield",
  "1636": " three",
  "1637": " oath",
  "1638": " yours",
  "1639": "onder",
  "1640": "ague",
  "1641": " break",
  "1642": " means",
  "1643": " subject",
  "1644": "gether",
  "1645": "GREMIO",
  "1646": "POMPEY",
  "1647": " Nor",
  "1648": "NIA",
  "1649": "OLI",
  "1650": "POLI",
  "1651": "XEN",
  "1652": "balt",
  "1653": "ybalt",
  "1654": " aw",
  "1655": " mer",
  "1656": " while",
  "1657": " born",
  "1658": " things",
  "1659": " horse",
  "1660": "anc",
  "1661": "usic",
  "1662": "ANT",
  "1663": " bloody",
  "1664": " looks",
  "1665": "eft",
  "1666": "UMNIA",
  "1667": "like",
  "1668": "ches",
  "1669": "VOLUMNIA",
  "1670": "POLIXEN",
  "1671": "POLIXENES",
  "1672": "GON",
  "1673": "Her",
  "1674": "rong",
  "1675": "up",
  "1676": "ues",
  "1677": " tem",
  "1678": " win",
  "1679": " wound",
  "1680": " fire",
  "1681": "enger",
  "1682": " yourself",
  "1683": " supp",
  "1684": " spo",
  "1685": " faith",
  "1686": "INGS",
  "1687": " Serving",
  "1688": " maj",
  "1689": "STINGS",
  "1690": " traitor",
  "1691": "centio",
  "1692": " Servingman",
  "1693": "RENCE",
  "1694": "Say",
  "1695": "bs",
  "1696": "broke",
  "1697": "rem",
  "1698": " dru",
  "1699": " lam",
  "1700": "essenger",
  "1701": " LAU",
  "1702": " mark",
  "1703": " common",
  "1704": "HASTINGS",
  "1705": " children",
  "1706": "ertain",
  "1707": " mistress",
  "1708": " LAURENCE",
  "1709": "BY",
  "1710": "BER",
  "1711": " cond",
  "1712": " beat",
  "1713": " requ",
  "1714": " def",
  "1715": " val",
  "1716": " uncle",
  "1717": "Therefore",
  "1718": "form",
  "1719": " majesty",
  "1720": "CLI",
  "1721": "FF",
  "1722": "Look",
  "1723": "Was",
  "1724": " aff",
  "1725": " sin",
  "1726": " met",
  "1727": " late",
  "1728": " left",
  "1729": " told",
  "1730": " soon",
  "1731": " seen",
  "1732": " save",
  "1733": " days",
  "1734": "UMBER",
  "1735": "THUMBER",
  "1736": " woe",
  "1737": " England",
  "1738": "NORTHUMBER",
  "1739": " tender",
  "1740": "CLIFF",
  "1741": "NORTHUMBERLAND",
  "1742": "ID",
  "1743": "Take",
  "1744": "bed",
  "1745": "ever",
  "1746": "ring",
  "1747": "ten",
  "1748": " sight",
  "1749": " mon",
  "1750": " gener",
  "1751": "ides",
  "1752": "idow",
  "1753": " does",
  "1754": "Though",
  "1755": " return",
  "1756": " mercy",
  "1757": " farewell",
  "1758": " AN",
  "1759": "ac",
  "1760": "dom",
  "1761": "mp",
  "1762": "hes",
  "1763": " sit",
  "1764": " sad",
  "1765": "rel",
  "1766": " deep",
  "1767": "ters",
  "1768": " gold",
  "1769": "unes",
  "1770": " marry",
  "1771": " heavy",
  "1772": " foot",
  "1773": " warrant",
  "1774": " Jul",
  "1775": " purpose",
  "1776": " through",
  "1777": " danger",
  "1778": " ANNE",
  "1779": " ill",
  "1780": "Ah",
  "1781": "Did",
  "1782": "Give",
  "1783": "PR",
  "1784": "aim",
  "1785": "ict",
  "1786": "mer",
  "1787": "so",
  "1788": "und",
  "1789": "vent",
  "1790": " cho",
  "1791": " cold",
  "1792": " nurse",
  "1793": " together",
  "1794": " grow",
  "1795": "ours",
  "1796": "ifford",
  "1797": " sure",
  "1798": "earn",
  "1799": "CAPULET",
  "1800": "ignior",
  "1801": "INCE",
  "1802": " deser",
  "1803": "ments",
  "1804": "PRINCE",
  "1805": "az",
  "1806": "aid",
  "1807": "ca",
  "1808": "oint",
  "1809": " times",
  "1810": "oriol",
  "1811": "ingbroke",
  "1812": "ceed",
  "1813": " without",
  "1814": "enty",
  "1815": " ask",
  "1816": "ross",
  "1817": "ush",
  "1818": " lost",
  "1819": "arewell",
  "1820": "olingbroke",
  "1821": " pluck",
  "1822": " report",
  "1823": " liege",
  "1824": " believe",
  "1825": " spirit",
  "1826": "ling",
  "1827": "sh",
  "1828": "xt",
  "1829": " air",
  "1830": " age",
  "1831": "outh",
  "1832": " wat",
  "1833": " heir",
  "1834": "ets",
  "1835": "ains",
  "1836": " thyself",
  "1837": "ift",
  "1838": " loss",
  "1839": " Mont",
  "1840": " says",
  "1841": " Bolingbroke",
  "1842": "Whose",
  "1843": "One",
  "1844": " strange",
  "1845": "ALO",
  "1846": "Had",
  "1847": "ial",
  "1848": "no",
  "1849": "ner",
  "1850": " bat",
  "1851": " cry",
  "1852": " learn",
  "1853": "ced",
  "1854": " suff",
  "1855": "aking",
  "1856": " ears",
  "1857": " haste",
  "1858": " Clifford",
  "1859": " entreat",
  "1860": " devil",
  "1861": " ground",
  "1862": "Should",
  "1863": " person",
  "1864": " Juliet",
  "1865": "Like",
  "1866": "Wh",
  "1867": "ges",
  "1868": "night",
  "1869": " mur",
  "1870": "ined",
  "1871": " fly",
  "1872": " toward",
  "1873": " past",
  "1874": "oman",
  "1875": "let",
  "1876": " fast",
  "1877": " vis",
  "1878": "aud",
  "1879": " Lu",
  "1880": " point",
  "1881": " friar",
  "1882": " disp",
  "1883": " slain",
  "1884": " betw",
  "1885": " France",
  "1886": "ixt",
  "1887": " justice",
  "1888": " straight",
  "1889": " remember",
  "1890": " ord",
  "1891": "APULET",
  "1892": "FL",
  "1893": "FID",
  "1894": "IZ",
  "1895": "May",
  "1896": "Some",
  "1897": " sil",
  "1898": "ina",
  "1899": " bold",
  "1900": " curse",
  "1901": " near",
  "1902": "ution",
  "1903": " strong",
  "1904": "These",
  "1905": " CAPULET",
  "1906": "ORIZ",
  "1907": " worthy",
  "1908": " quick",
  "1909": "AUFID",
  "1910": "entleman",
  "1911": " trust",
  "1912": " alone",
  "1913": " desire",
  "1914": " instru",
  "1915": " beauty",
  "1916": " service",
  "1917": "FLORIZ",
  "1918": "AUFIDIUS",
  "1919": "FLORIZEL",
  "1920": "Can",
  "1921": "SE",
  "1922": "Tell",
  "1923": "VER",
  "1924": "gs",
  "1925": "ning",
  "1926": "ship",
  "1927": "with",
  "1928": " touch",
  "1929": " found",
  "1930": "ithe",
  "1931": " Is",
  "1932": "adam",
  "1933": " ready",
  "1934": "ION",
  "1935": " brought",
  "1936": "ured",
  "1937": " poss",
  "1938": " Tybalt",
  "1939": " run",
  "1940": " hard",
  "1941": " enemy",
  "1942": " revenge",
  "1943": " general",
  "1944": "audio",
  "1945": " Here",
  "1946": "!'",
  "1947": "Ha",
  "1948": "ible",
  "1949": "vo",
  "1950": " woo",
  "1951": " duty",
  "1952": "enator",
  "1953": " grant",
  "1954": " inf",
  "1955": "cept",
  "1956": " itself",
  "1957": "amill",
  "1958": " lose",
  "1959": "aunt",
  "1960": " knows",
  "1961": " canst",
  "1962": " Senator",
  "1963": "inks",
  "1964": "umber",
  "1965": " married",
  "1966": " thoughts",
  "1967": " charge",
  "1968": " You",
  "1969": "Against",
  "1970": "Bec",
  "1971": "CIUS",
  "1972": "RICHARD",
  "1973": "Sp",
  "1974": "cester",
  "1975": "eep",
  "1976": "gu",
  "1977": "lou",
  "1978": "sue",
  "1979": "ua",
  "1980": " morn",
  "1981": " wear",
  "1982": "riage",
  "1983": " read",
  "1984": " deli",
  "1985": " speed",
  "1986": " quar",
  "1987": " prof",
  "1988": " twenty",
  "1989": " stands",
  "1990": "BAST",
  "1991": "Shepherd",
  "1992": "ched",
  "1993": " hours",
  "1994": " confess",
  "1995": " streng",
  "1996": "SEBAST",
  "1997": "ithee",
  "1998": "SEBASTIAN",
  "1999": " N",
  "2000": "OW",
  "2001": "cess",
  "2002": " mock",
  "2003": " fur",
  "2004": " fore",
  "2005": " field",
  "2006": "ones",
  "2007": " div",
  "2008": " car",
  "2009": " youth",
  "2010": " post",
  "2011": " hell",
  "2012": "ingham",
  "2013": " half",
  "2014": "oop",
  "2015": "Thus",
  "2016": " Ri",
  "2017": "olk",
  "2018": "fection",
  "2019": " Hast",
  "2020": " jud",
  "2021": "ump",
  "2022": " exec",
  "2023": " fearful",
  "2024": " counsel",
  "2025": "amillo",
  "2026": "BION",
  "2027": "Com",
  "2028": "DEL",
  "2029": "Till",
  "2030": "most",
  "2031": "pare",
  "2032": " ter",
  "2033": " min",
  "2034": " wret",
  "2035": " bos",
  "2036": " par",
  "2037": " behold",
  "2038": " inc",
  "2039": " each",
  "2040": "ads",
  "2041": " rec",
  "2042": " del",
  "2043": " Coriol",
  "2044": "ols",
  "2045": " work",
  "2046": "ortal",
  "2047": " hearts",
  "2048": " marriage",
  "2049": " desp",
  "2050": " Claudio",
  "2051": "itizens",
  "2052": "uckingham",
  "2053": " resol",
  "2054": "MARCIUS",
  "2055": " Montague",
  "2056": "loucester",
  "2057": "BIONDEL",
  "2058": " bosom",
  "2059": "BIONDELLO",
  "2060": " The",
  "2061": "Away",
  "2062": "MON",
  "2063": "Madam",
  "2064": "bly",
  "2065": "folk",
  "2066": "iers",
  "2067": "now",
  "2068": " tit",
  "2069": " ten",
  "2070": " tale",
  "2071": " bound",
  "2072": " dam",
  "2073": " cut",
  "2074": "ench",
  "2075": " ye",
  "2076": " open",
  "2077": "rah",
  "2078": "alm",
  "2079": " Cap",
  "2080": " short",
  "2081": " known",
  "2082": " Buckingham",
  "2083": " seek",
  "2084": " harm",
  "2085": " company",
  "2086": " guilt",
  "2087": " highness",
  "2088": " strike",
  "2089": " attend",
  "2090": " serve",
  "2091": " murder",
  "2092": " Hastings",
  "2093": " ve",
  "2094": " He",
  "2095": " AU",
  "2096": "Farewell",
  "2097": "HER",
  "2098": "OP",
  "2099": "chan",
  "2100": "hood",
  "2101": " ag",
  "2102": " sat",
  "2103": " side",
  "2104": " whi",
  "2105": " watch",
  "2106": "rest",
  "2107": "ished",
  "2108": " feel",
  "2109": " dish",
  "2110": " dist",
  "2111": "ents",
  "2112": "ander",
  "2113": " suit",
  "2114": " loving",
  "2115": "ONIO",
  "2116": " honest",
  "2117": " heavens",
  "2118": " trib",
  "2119": "MERLE",
  "2120": " draw",
  "2121": " voices",
  "2122": " something",
  "2123": "ANTONIO",
  "2124": " strength",
  "2125": " AUMERLE",
  "2126": "Marry",
  "2127": "Pray",
  "2128": "See",
  "2129": "ZALO",
  "2130": "fid",
  "2131": "ging",
  "2132": " act",
  "2133": " sake",
  "2134": " wast",
  "2135": " wonder",
  "2136": " widow",
  "2137": " bit",
  "2138": " cor",
  "2139": " sto",
  "2140": " stir",
  "2141": " Gentleman",
  "2142": " Gloucester",
  "2143": " Lanc",
  "2144": " didst",
  "2145": " gentlemen",
  "2146": " cloud",
  "2147": " women",
  "2148": "ethinks",
  "2149": " enemies",
  "2150": "GONZALO",
  "2151": " Lancaster",
  "2152": "Unt",
  "2153": "ives",
  "2154": "su",
  "2155": " sing",
  "2156": " music",
  "2157": "rew",
  "2158": " breat",
  "2159": " dr",
  "2160": " pra",
  "2161": " pie",
  "2162": " pale",
  "2163": " gates",
  "2164": "oose",
  "2165": "race",
  "2166": "ils",
  "2167": " Camillo",
  "2168": " next",
  "2169": " knew",
  "2170": " coming",
  "2171": " thanks",
  "2172": " close",
  "2173": " pleasure",
  "2174": " souls",
  "2175": "ianca",
  "2176": " course",
  "2177": " enter",
  "2178": " withal",
  "2179": " brave",
  "2180": " chee",
  "2181": "ceived",
  "2182": " title",
  "2183": "DIO",
  "2184": "fter",
  "2185": "ne",
  "2186": "vour",
  "2187": "you",
  "2188": " ty",
  "2189": " wa",
  "2190": " bur",
  "2191": " fit",
  "2192": "oward",
  "2193": " gar",
  "2194": " become",
  "2195": "etch",
  "2196": "etru",
  "2197": " forg",
  "2198": " weak",
  "2199": " either",
  "2200": " lips",
  "2201": "rust",
  "2202": "els",
  "2203": " jest",
  "2204": " plain",
  "2205": "AUDIO",
  "2206": " abs",
  "2207": " pret",
  "2208": "claim",
  "2209": " grie",
  "2210": "CLAUDIO",
  "2211": " change",
  "2212": "MIONE",
  "2213": " Norfolk",
  "2214": "CLIFFORD",
  "2215": " suffer",
  "2216": " deliver",
  "2217": "HERMIONE",
  "2218": " Th",
  "2219": "DA",
  "2220": "EDWARD",
  "2221": "LORD",
  "2222": "Most",
  "2223": "cher",
  "2224": "kes",
  "2225": "ses",
  "2226": "ufid",
  "2227": " sk",
  "2228": " same",
  "2229": " sick",
  "2230": " sign",
  "2231": " wis",
  "2232": " wall",
  "2233": "ready",
  "2234": "isf",
  "2235": " cast",
  "2236": "irth",
  "2237": "chio",
  "2238": " forb",
  "2239": " forget",
  "2240": "oof",
  "2241": "ries",
  "2242": " reg",
  "2243": "urp",
  "2244": "east",
  "2245": " ven",
  "2246": " themselves",
  "2247": " Bianca",
  "2248": " worse",
  "2249": " Pom",
  "2250": " took",
  "2251": " poison",
  "2252": " along",
  "2253": " rich",
  "2254": " breast",
  "2255": "ranio",
  "2256": " consul",
  "2257": "RANDA",
  "2258": "MIRANDA",
  "2259": "twas",
  "2260": "twere",
  "2261": " cheer",
  "2262": " patience",
  "2263": " merry",
  "2264": " order",
  "2265": "etruchio",
  "2266": "ufidius",
  "2267": "HN",
  "2268": "Messenger",
  "2269": "OHN",
  "2270": "SA",
  "2271": "SON",
  "2272": "Servant",
  "2273": "lst",
  "2274": "oin",
  "2275": "ting",
  "2276": " mouth",
  "2277": " wed",
  "2278": " bad",
  "2279": " book",
  "2280": " four",
  "2281": " du",
  "2282": " If",
  "2283": " gave",
  "2284": "chm",
  "2285": " issue",
  "2286": "ash",
  "2287": " liber",
  "2288": "vern",
  "2289": " self",
  "2290": "ions",
  "2291": "rows",
  "2292": "ally",
  "2293": " office",
  "2294": " already",
  "2295": "Being",
  "2296": " move",
  "2297": " virtue",
  "2298": " given",
  "2299": " battle",
  "2300": " Hereford",
  "2301": " morning",
  "2302": " further",
  "2303": "Make",
  "2304": "Since",
  "2305": "mber",
  "2306": "nk",
  "2307": "pes",
  "2308": "rist",
  "2309": "she",
  "2310": "uous",
  "2311": "used",
  "2312": " ta",
  "2313": " ac",
  "2314": "oun",
  "2315": " wise",
  "2316": " burn",
  "2317": "orge",
  "2318": " frown",
  "2319": " feast",
  "2320": " dire",
  "2321": "esh",
  "2322": " lad",
  "2323": " pay",
  "2324": "anus",
  "2325": " gro",
  "2326": "ats",
  "2327": " red",
  "2328": " soft",
  "2329": "each",
  "2330": " succ",
  "2331": "icer",
  "2332": " black",
  "2333": " goes",
  "2334": " sworn",
  "2335": " Signior",
  "2336": "elcome",
  "2337": " prop",
  "2338": " sons",
  "2339": " foe",
  "2340": " ext",
  "2341": " Tower",
  "2342": "Before",
  "2343": " trou",
  "2344": " begg",
  "2345": " begin",
  "2346": " consent",
  "2347": "dden",
  "2348": " soldiers",
  "2349": " request",
  "2350": " Lucentio",
  "2351": " between",
  "2352": " quarrel",
  "2353": " satisf",
  "2354": "chmond",
  "2355": " For",
  "2356": "AS",
  "2357": "Call",
  "2358": "IR",
  "2359": "Must",
  "2360": "NT",
  "2361": "Re",
  "2362": "Sw",
  "2363": "Such",
  "2364": "gare",
  "2365": "ires",
  "2366": "ures",
  "2367": "ung",
  "2368": "uff",
  "2369": "hem",
  "2370": " servant",
  "2371": " bar",
  "2372": " dro",
  "2373": " dark",
  "2374": " cr",
  "2375": " case",
  "2376": " thri",
  "2377": "aris",
  "2378": "ots",
  "2379": "stand",
  "2380": "owers",
  "2381": "irm",
  "2382": " loves",
  "2383": " Ch",
  "2384": "ends",
  "2385": " bless",
  "2386": "empt",
  "2387": " thence",
  "2388": " worth",
  "2389": " Aufidius",
  "2390": "CATES",
  "2391": " exp",
  "2392": "awd",
  "2393": " presence",
  "2394": " priv",
  "2395": "Unless",
  "2396": "Alas",
  "2397": " wounds",
  "2398": " dangerous",
  "2399": "Because",
  "2400": "garet",
  "2401": "CATESBY",
  "2402": "LY",
  "2403": "oll",
  "2404": "that",
  "2405": " sigh",
  "2406": " ble",
  "2407": "ona",
  "2408": "onour",
  "2409": " hot",
  "2410": " got",
  "2411": " inter",
  "2412": " und",
  "2413": " ev",
  "2414": " sum",
  "2415": " neither",
  "2416": " vict",
  "2417": "emn",
  "2418": " Lond",
  "2419": " Sir",
  "2420": " Vols",
  "2421": "cient",
  "2422": " wars",
  "2423": " flatter",
  "2424": " mighty",
  "2425": " respect",
  "2426": " dread",
  "2427": " bride",
  "2428": " brief",
  "2429": " throne",
  "2430": " voice",
  "2431": " emb",
  "2432": "aptist",
  "2433": " deny",
  "2434": " spoke",
  "2435": " water",
  "2436": " visit",
  "2437": " London",
  "2438": " est",
  "2439": "Both",
  "2440": "BIAN",
  "2441": "JOHN",
  "2442": "Lest",
  "2443": "Rome",
  "2444": "REY",
  "2445": "Yes",
  "2446": "eorge",
  "2447": "ip",
  "2448": "iant",
  "2449": "mand",
  "2450": "ught",
  "2451": " mal",
  "2452": " mortal",
  "2453": " bow",
  "2454": " bab",
  "2455": " fra",
  "2456": "ern",
  "2457": " hur",
  "2458": " town",
  "2459": " often",
  "2460": " having",
  "2461": "right",
  "2462": "ided",
  "2463": " sudden",
  "2464": "rum",
  "2465": " ancient",
  "2466": " speech",
  "2467": " vow",
  "2468": " George",
  "2469": " loved",
  "2470": " kings",
  "2471": " Baptist",
  "2472": " worship",
  "2473": "LIA",
  "2474": " Paris",
  "2475": " safe",
  "2476": "ired",
  "2477": "ainted",
  "2478": "BAL",
  "2479": " Margaret",
  "2480": " princely",
  "2481": "BRA",
  "2482": " chamber",
  "2483": " seems",
  "2484": "bey",
  "2485": " buy",
  "2486": " deeds",
  "2487": "Whom",
  "2488": "VERS",
  "2489": " Richmond",
  "2490": " bitter",
  "2491": "BIANCA",
  "2492": " Thou",
  "2493": " This",
  "2494": "BOW",
  "2495": "Welcome",
  "2496": "king",
  "2497": "ls",
  "2498": "lish",
  "2499": "mb",
  "2500": "rt",
  "2501": "sp",
  "2502": "ura",
  "2503": " fres",
  "2504": " fetch",
  "2505": " col",
  "2506": " cross",
  "2507": " coward",
  "2508": "essed",
  "2509": " lim",
  "2510": " pen",
  "2511": "otion",
  "2512": "ated",
  "2513": "urch",
  "2514": " knock",
  "2515": "antage",
  "2516": "oney",
  "2517": " prot",
  "2518": " GAU",
  "2519": " Lady",
  "2520": " Saint",
  "2521": " Servant",
  "2522": " kingdom",
  "2523": " Pl",
  "2524": " sac",
  "2525": "ELBOW",
  "2526": " heads",
  "2527": " scorn",
  "2528": " rage",
  "2529": " appear",
  "2530": " lead",
  "2531": " witness",
  "2532": "RIVERS",
  "2533": " patient",
  "2534": " promise",
  "2535": " lament",
  "2536": " valiant",
  "2537": " Isab",
  "2538": "Speak",
  "2539": " success",
  "2540": " Baptista",
  "2541": " GAUNT",
  "2542": " KING",
  "2543": " ign",
  "2544": "Bes",
  "2545": "Ere",
  "2546": "GUE",
  "2547": "Hold",
  "2548": "TY",
  "2549": "cy",
  "2550": "coun",
  "2551": "nown",
  "2552": "sper",
  "2553": "will",
  "2554": "xford",
  "2555": " action",
  "2556": " bro",
  "2557": " bawd",
  "2558": "ities",
  "2559": " cle",
  "2560": " creat",
  "2561": " cap",
  "2562": " lack",
  "2563": " throw",
  "2564": " ow",
  "2565": " opp",
  "2566": " gall",
  "2567": " forward",
  "2568": " eat",
  "2569": " kins",
  "2570": "Their",
  "2571": "iff",
  "2572": " ang",
  "2573": " viol",
  "2574": "antag",
  "2575": " prin",
  "2576": " prithee",
  "2577": " My",
  "2578": " wash",
  "2579": "ortens",
  "2580": "aken",
  "2581": " Petruchio",
  "2582": " offer",
  "2583": " least",
  "2584": " slave",
  "2585": " flesh",
  "2586": " Tranio",
  "2587": " prepare",
  "2588": " prayers",
  "2589": "then",
  "2590": " appro",
  "2591": "TAGUE",
  "2592": " triump",
  "2593": " moon",
  "2594": " compl",
  "2595": "itted",
  "2596": " tribunes",
  "2597": " drink",
  "2598": " Christ",
  "2599": "Romeo",
  "2600": "ortensio",
  "2601": " id",
  "2602": "Yea",
  "2603": "bit",
  "2604": "but",
  "2605": "ees",
  "2606": "joy",
  "2607": "ler",
  "2608": "oor",
  "2609": "ohem",
  "2610": "vest",
  "2611": " sur",
  "2612": " mid",
  "2613": "ines",
  "2614": " fie",
  "2615": " dest",
  "2616": " nay",
  "2617": " thither",
  "2618": " hide",
  "2619": "athar",
  "2620": " beast",
  "2621": "ley",
  "2622": " reb",
  "2623": "raw",
  "2624": "als",
  "2625": "alth",
  "2626": "cks",
  "2627": "thumber",
  "2628": "host",
  "2629": "asters",
  "2630": "feit",
  "2631": "aked",
  "2632": "pey",
  "2633": " almost",
  "2634": "ully",
  "2635": " scar",
  "2636": " small",
  "2637": " presently",
  "2638": " faults",
  "2639": " depart",
  "2640": " secret",
  "2641": " subjects",
  "2642": " defend",
  "2643": " possess",
  "2644": "atharina",
  "2645": "thumberland",
  "2646": "Con",
  "2647": "DI",
  "2648": "GI",
  "2649": "IEL",
  "2650": "Pl",
  "2651": "VIR",
  "2652": "Whi",
  "2653": "aul",
  "2654": "hind",
  "2655": "ying",
  "2656": " tear",
  "2657": " wert",
  "2658": "rey",
  "2659": " ben",
  "2660": " base",
  "2661": " birth",
  "2662": " fill",
  "2663": " fond",
  "2664": " lab",
  "2665": "arl",
  "2666": " pain",
  "2667": "inger",
  "2668": " bec",
  "2669": " form",
  "2670": " eas",
  "2671": " stru",
  "2672": " living",
  "2673": "rue",
  "2674": "though",
  "2675": " goodly",
  "2676": " whence",
  "2677": " GREY",
  "2678": " usurp",
  "2679": "cience",
  "2680": " trump",
  "2681": " hearing",
  "2682": " slaughter",
  "2683": " perform",
  "2684": " writ",
  "2685": "perate",
  "2686": "ledge",
  "2687": "Stay",
  "2688": "Stand",
  "2689": " chance",
  "2690": "PERDI",
  "2691": " virtuous",
  "2692": " quickly",
  "2693": "MONTAGUE",
  "2694": " damn",
  "2695": "ural",
  "2696": "ohemia",
  "2697": "GILIA",
  "2698": "VIRGILIA",
  "2699": "PERDITA",
  "2700": " ut",
  "2701": "Ab",
  "2702": "Doth",
  "2703": "Peace",
  "2704": "SET",
  "2705": "SLY",
  "2706": "ding",
  "2707": "eem",
  "2708": "gg",
  "2709": "iest",
  "2710": "over",
  "2711": "oss",
  "2712": "ror",
  "2713": "your",
  "2714": "ze",
  "2715": " tor",
  "2716": " ay",
  "2717": " match",
  "2718": " mild",
  "2719": " wild",
  "2720": "read",
  "2721": "isure",
  "2722": " fier",
  "2723": "ony",
  "2724": " ca",
  "2725": " certain",
  "2726": "arn",
  "2727": " pu",
  "2728": " pit",
  "2729": "ingly",
  "2730": "sem",
  "2731": " inj",
  "2732": " ins",
  "2733": " inno",
  "2734": "eds",
  "2735": "edant",
  "2736": " ur",
  "2737": " shad",
  "2738": "Think",
  "2739": " knee",
  "2740": " kneel",
  "2741": "astard",
  "2742": "ustom",
  "2743": " blows",
  "2744": " St",
  "2745": " Oxford",
  "2746": " quiet",
  "2747": " proceed",
  "2748": " Paul",
  "2749": " hadst",
  "2750": " offence",
  "2751": " adm",
  "2752": " pleas",
  "2753": "force",
  "2754": " affection",
  "2755": " slew",
  "2756": "IANA",
  "2757": " lawful",
  "2758": " glad",
  "2759": "bling",
  "2760": " weeping",
  "2761": "MARIANA",
  "2762": " soldier",
  "2763": " awhile",
  "2764": " deserved",
  "2765": " execution",
  "2766": " Coriolanus",
  "2767": " guilty",
  "2768": " pretty",
  "2769": " Pompey",
  "2770": " angry",
  "2771": "Fa",
  "2772": "Mar",
  "2773": "Master",
  "2774": "PAR",
  "2775": "RA",
  "2776": "VINCENTIO",
  "2777": "awn",
  "2778": "dge",
  "2779": "fully",
  "2780": "gue",
  "2781": "ked",
  "2782": "med",
  "2783": "ual",
  "2784": "vol",
  "2785": "zen",
  "2786": " ap",
  "2787": " shi",
  "2788": " sho",
  "2789": " med",
  "2790": " mod",
  "2791": " walk",
  "2792": " fam",
  "2793": " fled",
  "2794": "eness",
  "2795": " year",
  "2796": " ob",
  "2797": " occ",
  "2798": " hap",
  "2799": " measure",
  "2800": " forsw",
  "2801": "adua",
  "2802": " reign",
  "2803": " doom",
  "2804": "ames",
  "2805": " nob",
  "2806": "rupt",
  "2807": " ourselves",
  "2808": " favour",
  "2809": " neck",
  "2810": " shows",
  "2811": "ended",
  "2812": " blow",
  "2813": " govern",
  "2814": " wouldst",
  "2815": " letters",
  "2816": " unc",
  "2817": " unk",
  "2818": " worst",
  "2819": " speaks",
  "2820": " march",
  "2821": " Katharina",
  "2822": "ighb",
  "2823": " greater",
  "2824": " leisure",
  "2825": "osition",
  "2826": " treason",
  "2827": " English",
  "2828": " banishment",
  "2829": " sense",
  "2830": "remio",
  "2831": " condemn",
  "2832": "ointed",
  "2833": " dishonour",
  "2834": " clouds",
  "2835": " breathe",
  "2836": " forbid",
  "2837": " liberty",
  "2838": " ladies",
  "2839": " trouble",
  "2840": "rumio",
  "2841": " Isabel",
  "2842": "counter",
  "2843": "antagen",
  "2844": "PARIS",
  "2845": " X",
  "2846": ":'",
  "2847": "Int",
  "2848": "Out",
  "2849": "Too",
  "2850": "While",
  "2851": "aves",
  "2852": "acle",
  "2853": "dle",
  "2854": "house",
  "2855": "rim",
  "2856": "rous",
  "2857": " sort",
  "2858": " morrow",
  "2859": " won",
  "2860": " dry",
  "2861": " cru",
  "2862": " lan",
  "2863": " list",
  "2864": " laid",
  "2865": "aring",
  "2866": " obey",
  "2867": " held",
  "2868": "vel",
  "2869": "ster",
  "2870": "ators",
  "2871": " behind",
  "2872": "set",
  "2873": " note",
  "2874": " stor",
  "2875": "ider",
  "2876": " ref",
  "2877": " lived",
  "2878": "urs",
  "2879": " aside",
  "2880": " dog",
  "2881": " noise",
  "2882": " seat",
  "2883": "iles",
  "2884": " vain",
  "2885": " Merc",
  "2886": " Bohemia",
  "2887": " letter",
  "2888": " join",
  "2889": "ounds",
  "2890": " prosper",
  "2891": " rough",
  "2892": " above",
  "2893": "ize",
  "2894": " remain",
  "2895": " longer",
  "2896": " womb",
  "2897": " needs",
  "2898": " choose",
  "2899": " church",
  "2900": " prisoner",
  "2901": " second",
  "2902": " temp",
  "2903": " golden",
  "2904": "undred",
  "2905": " dispatch",
  "2906": " piece",
  "2907": " fresh",
  "2908": " ignor",
  "2909": " because",
  "2910": "antagenet",
  "2911": " Now",
  "2912": "!--",
  "2913": "Am",
  "2914": "De",
  "2915": "DOR",
  "2916": "EW",
  "2917": "En",
  "2918": "Hark",
  "2919": "LAR",
  "2920": "Pr",
  "2921": "Su",
  "2922": "TIUS",
  "2923": "bb",
  "2924": "ban",
  "2925": "cal",
  "2926": "ffect",
  "2927": "him",
  "2928": "iled",
  "2929": "ny",
  "2930": "ts",
  "2931": "under",
  "2932": "ulet",
  "2933": " tent",
  "2934": " sch",
  "2935": " sus",
  "2936": " saint",
  "2937": " mut",
  "2938": "inius",
  "2939": " big",
  "2940": " broke",
  "2941": " bones",
  "2942": " fat",
  "2943": " fine",
  "2944": " five",
  "2945": "erle",
  "2946": "itors",
  "2947": " drown",
  "2948": " citizens",
  "2949": " len",
  "2950": " low",
  "2951": " lust",
  "2952": " lau",
  "2953": " threat",
  "2954": " hundred",
  "2955": " obed",
  "2956": " pet",
  "2957": "vey",
  "2958": "ang",
  "2959": " oft",
  "2960": " bend",
  "2961": " bell",
  "2962": " ind",
  "2963": "ceit",
  "2964": "lease",
  "2965": "ety",
  "2966": " effect",
  "2967": " yourselves",
  "2968": " stood",
  "2969": " stain",
  "2970": " steel",
  "2971": " steal",
  "2972": "ords",
  "2973": "asion",
  "2974": " revere",
  "2975": " sole",
  "2976": "ARIEL",
  "2977": "ease",
  "2978": " knees",
  "2979": "ular",
  "2980": "icious",
  "2981": " conqu",
  "2982": "ieu",
  "2983": " blessed",
  "2984": " Gaunt",
  "2985": " Gremio",
  "2986": " shed",
  "2987": " Let",
  "2988": " LEW",
  "2989": " swift",
  "2990": " Hortensio",
  "2991": " grand",
  "2992": " proclaim",
  "2993": " Pr",
  "2994": " Padua",
  "2995": " saf",
  "2996": "ume",
  "2997": " Watch",
  "2998": "istress",
  "2999": " exc",
  "3000": " desperate",
  "3001": " slander",
  "3002": " precious",
  "3003": " bears",
  "3004": " appare",
  "3005": " conscience",
  "3006": " entertain",
  "3007": "ontent",
  "3008": " pride",
  "3009": "Sirrah",
  "3010": "uthor",
  "3011": " glory",
  "3012": " double",
  "3013": "atesby",
  "3014": " woes",
  "3015": "posed",
  "3016": " lands",
  "3017": " sentence",
  "3018": " Northumberland",
  "3019": " drunk",
  "3020": " towards",
  "3021": " Capulet",
  "3022": "Unto",
  "3023": " forgot",
  "3024": " wisdom",
  "3025": " venge",
  "3026": "Sweet",
  "3027": " victory",
  "3028": " kinsman",
  "3029": " XI",
  "3030": "LARTIUS",
  "3031": " LEWIS",
  "3032": " Watchman",
  "3033": ";'",
  "3034": "Bel",
  "3035": "Could",
  "3036": "Hear",
  "3037": "MP",
  "3038": "Me",
  "3039": "Pardon",
  "3040": "Pedant",
  "3041": "RTIS",
  "3042": "bray",
  "3043": "den",
  "3044": "gment",
  "3045": "hn",
  "3046": "iance",
  "3047": "ohn",
  "3048": "pir",
  "3049": "ude",
  "3050": "vail",
  "3051": "which",
  "3052": "head",
  "3053": " author",
  "3054": " sour",
  "3055": " mount",
  "3056": " methinks",
  "3057": " money",
  "3058": " masters",
  "3059": "rent",
  "3060": "rence",
  "3061": " fe",
  "3062": " fru",
  "3063": " fought",
  "3064": " few",
  "3065": " died",
  "3066": " deter",
  "3067": " capt",
  "3068": " pun",
  "3069": "owbray",
  "3070": " hair",
  "3071": "irl",
  "3072": " eld",
  "3073": " stud",
  "3074": "estion",
  "3075": " doing",
  "3076": "iful",
  "3077": " seal",
  "3078": "ility",
  "3079": " Ca",
  "3080": "cted",
  "3081": "ETER",
  "3082": " manner",
  "3083": " Earl",
  "3084": " Go",
  "3085": " Grumio",
  "3086": " knowledge",
  "3087": "umerle",
  "3088": " enjoy",
  "3089": " ran",
  "3090": " Ant",
  "3091": "Within",
  "3092": " alive",
  "3093": " abro",
  "3094": "ways",
  "3095": " honours",
  "3096": " warm",
  "3097": "ations",
  "3098": " deadly",
  "3099": " kept",
  "3100": " contr",
  "3101": " contin",
  "3102": " army",
  "3103": " lordship",
  "3104": " guest",
  "3105": " guess",
  "3106": "CURTIS",
  "3107": " promised",
  "3108": "comes",
  "3109": "eeper",
  "3110": " wretched",
  "3111": " despair",
  "3112": " cheeks",
  "3113": "SAMP",
  "3114": " labour",
  "3115": " struck",
  "3116": "Faith",
  "3117": " determ",
  "3118": "SAMPSON",
  "3119": "'re",
  "3120": ":--",
  "3121": "BU",
  "3122": "Br",
  "3123": "Citizens",
  "3124": "Dis",
  "3125": "EX",
  "3126": "Either",
  "3127": "IGON",
  "3128": "bury",
  "3129": "ey",
  "3130": "good",
  "3131": "mit",
  "3132": "take",
  "3133": " try",
  "3134": " teach",
  "3135": " aid",
  "3136": "ounce",
  "3137": " sim",
  "3138": "reed",
  "3139": " bastard",
  "3140": "orious",
  "3141": "llow",
  "3142": "ited",
  "3143": " dance",
  "3144": " corn",
  "3145": " cred",
  "3146": " cried",
  "3147": " pal",
  "3148": " hel",
  "3149": " health",
  "3150": "stant",
  "3151": "utio",
  "3152": "ourn",
  "3153": " liest",
  "3154": " deg",
  "3155": " demand",
  "3156": " shake",
  "3157": "eaven",
  "3158": "ament",
  "3159": " sever",
  "3160": " herself",
  "3161": " spent",
  "3162": " Master",
  "3163": " Mowbray",
  "3164": " whether",
  "3165": " among",
  "3166": " shepherd",
  "3167": "othing",
  "3168": "ppy",
  "3169": " unp",
  "3170": " unw",
  "3171": " How",
  "3172": " quoth",
  "3173": " prov",
  "3174": "umb",
  "3175": " plant",
  "3176": " Will",
  "3177": " Why",
  "3178": " encounter",
  "3179": "osed",
  "3180": " rot",
  "3181": " officer",
  "3182": " brothers",
  "3183": " early",
  "3184": " honourable",
  "3185": " flowers",
  "3186": "LEY",
  "3187": " calls",
  "3188": " white",
  "3189": " remed",
  "3190": " moved",
  "3191": " account",
  "3192": "ewis",
  "3193": " kindred",
  "3194": " priest",
  "3195": " guard",
  "3196": " charity",
  "3197": " understand",
  "3198": " foolish",
  "3199": " humble",
  "3200": " counter",
  "3201": " dreams",
  "3202": " greet",
  "3203": "ANTIGON",
  "3204": " valour",
  "3205": " judge",
  "3206": " wretch",
  "3207": " beggar",
  "3208": " summer",
  "3209": " triumph",
  "3210": " cruel",
  "3211": "BURY",
  "3212": "ANTIGONUS",
  "3213": " And",
  "3214": "Bet",
  "3215": "Fear",
  "3216": "Lo",
  "3217": "Mine",
  "3218": "Made",
  "3219": "TCLIFF",
  "3220": "True",
  "3221": "fall",
  "3222": "mon",
  "3223": "rison",
  "3224": "heart",
  "3225": "ining",
  "3226": " wail",
  "3227": "orthy",
  "3228": " fart",
  "3229": " faint",
  "3230": "ites",
  "3231": " din",
  "3232": " dwell",
  "3233": " yea",
  "3234": " thro",
  "3235": " hung",
  "3236": " pack",
  "3237": " ga",
  "3238": " gent",
  "3239": "leep",
  "3240": " force",
  "3241": " weary",
  "3242": " stone",
  "3243": " stars",
  "3244": "ask",
  "3245": "roy",
  "3246": " butcher",
  "3247": "ify",
  "3248": " seven",
  "3249": " anon",
  "3250": " ours",
  "3251": " Com",
  "3252": " neighb",
  "3253": " Roman",
  "3254": " vie",
  "3255": "ief",
  "3256": " blame",
  "3257": " going",
  "3258": " Lewis",
  "3259": " thereof",
  "3260": " unf",
  "3261": " uns",
  "3262": " envy",
  "3263": " rise",
  "3264": " thinks",
  "3265": " rid",
  "3266": " party",
  "3267": " add",
  "3268": " others",
  "3269": " John",
  "3270": "ians",
  "3271": " kindness",
  "3272": " chast",
  "3273": " bids",
  "3274": " bright",
  "3275": " glass",
  "3276": " miser",
  "3277": " crave",
  "3278": "Twas",
  "3279": " winter",
  "3280": " month",
  "3281": " minister",
  "3282": " walls",
  "3283": " extrem",
  "3284": " satisfied",
  "3285": " private",
  "3286": " Volsces",
  "3287": " idle",
  "3288": " scarce",
  "3289": " benef",
  "3290": "RATCLIFF",
  "3291": " laugh",
  "3292": " vengeance",
  "3293": " abroad",
  "3294": " view",
  "3295": " ver",
  "3296": "After",
  "3297": "Bid",
  "3298": "BIS",
  "3299": "Fie",
  "3300": "Gentle",
  "3301": "HOP",
  "3302": "Ne",
  "3303": "Never",
  "3304": "Signior",
  "3305": "Under",
  "3306": "aff",
  "3307": "gra",
  "3308": "ners",
  "3309": "ope",
  "3310": "shall",
  "3311": "ued",
  "3312": "vious",
  "3313": "whe",
  "3314": "woman",
  "3315": "incentio",
  "3316": " wre",
  "3317": " wench",
  "3318": "rees",
  "3319": "have",
  "3320": "orous",
  "3321": " firm",
  "3322": " cir",
  "3323": " corse",
  "3324": "enes",
  "3325": " lest",
  "3326": " hol",
  "3327": "vell",
  "3328": "ott",
  "3329": "omas",
  "3330": "att",
  "3331": "ating",
  "3332": " incl",
  "3333": "cell",
  "3334": "utland",
  "3335": " former",
  "3336": " ease",
  "3337": "riar",
  "3338": "ident",
  "3339": " rel",
  "3340": " received",
  "3341": " deal",
  "3342": "amp",
  "3343": " sport",
  "3344": " faire",
  "3345": "ANLEY",
  "3346": " Rutland",
  "3347": " vile",
  "3348": " shrew",
  "3349": "antua",
  "3350": " Mantua",
  "3351": " concl",
  "3352": " convey",
  "3353": " god",
  "3354": "allow",
  "3355": " Barn",
  "3356": " arri",
  "3357": " unb",
  "3358": " Her",
  "3359": " Vincentio",
  "3360": " mayst",
  "3361": "eless",
  "3362": " quite",
  "3363": " provost",
  "3364": "IST",
  "3365": " truly",
  "3366": " dism",
  "3367": "Off",
  "3368": " foes",
  "3369": " root",
  "3370": " wherefore",
  "3371": " flower",
  "3372": " imag",
  "3373": " trial",
  "3374": "ailor",
  "3375": " smo",
  "3376": " trem",
  "3377": " fellows",
  "3378": "rench",
  "3379": " changed",
  "3380": " cover",
  "3381": " humour",
  "3382": " boot",
  "3383": " swords",
  "3384": " deputy",
  "3385": " condition",
  "3386": " judgment",
  "3387": "change",
  "3388": " tyrant",
  "3389": " acqu",
  "3390": " evil",
  "3391": "BALT",
  "3392": "TYBALT",
  "3393": "Whilst",
  "3394": " easy",
  "3395": " Mercutio",
  "3396": " school",
  "3397": " excuse",
  "3398": " fruit",
  "3399": "BISHOP",
  "3400": "'?",
  "3401": "AL",
  "3402": "Bl",
  "3403": "Des",
  "3404": "Ex",
  "3405": "KEN",
  "3406": "Methinks",
  "3407": "Put",
  "3408": "Tut",
  "3409": "ault",
  "3410": "after",
  "3411": "con",
  "3412": "ek",
  "3413": "ead",
  "3414": "ered",
  "3415": "his",
  "3416": "oot",
  "3417": "pin",
  "3418": "roth",
  "3419": "rate",
  "3420": "shi",
  "3421": "ta",
  "3422": "vish",
  "3423": " taken",
  "3424": " wither",
  "3425": " ba",
  "3426": " brow",
  "3427": " bite",
  "3428": " brows",
  "3429": " fain",
  "3430": " feed",
  "3431": "erona",
  "3432": " dust",
  "3433": " dull",
  "3434": "enance",
  "3435": " thunder",
  "3436": " pains",
  "3437": "anley",
  "3438": " gown",
  "3439": " grown",
  "3440": " gift",
  "3441": " ghost",
  "3442": " girl",
  "3443": " beha",
  "3444": " meat",
  "3445": "rift",
  "3446": " stab",
  "3447": " stoop",
  "3448": "idings",
  "3449": "ract",
  "3450": "arden",
  "3451": " spe",
  "3452": " spake",
  "3453": " spring",
  "3454": "ilia",
  "3455": " Catesby",
  "3456": " knave",
  "3457": "AND",
  "3458": " vice",
  "3459": "aste",
  "3460": " shore",
  "3461": " proof",
  "3462": " blest",
  "3463": " blind",
  "3464": "ement",
  "3465": " sirrah",
  "3466": " unl",
  "3467": " question",
  "3468": " joint",
  "3469": "cians",
  "3470": " We",
  "3471": " Al",
  "3472": " Aumerle",
  "3473": " honesty",
  "3474": "ursed",
  "3475": " leaves",
  "3476": " twice",
  "3477": " Keeper",
  "3478": "aper",
  "3479": " prevent",
  "3480": "OMAS",
  "3481": "there",
  "3482": " Mars",
  "3483": " repent",
  "3484": " traitors",
  "3485": "twixt",
  "3486": " import",
  "3487": " wrongs",
  "3488": " buried",
  "3489": "ealous",
  "3490": "place",
  "3491": " reasons",
  "3492": "Alack",
  "3493": " senate",
  "3494": " green",
  "3495": " affair",
  "3496": "acher",
  "3497": " choice",
  "3498": "azed",
  "3499": " divine",
  "3500": " Corioli",
  "3501": " whilst",
  "3502": " stop",
  "3503": " tyran",
  "3504": " prophe",
  "3505": " embrace",
  "3506": " malice",
  "3507": "BRAKEN",
  "3508": " Plantagenet",
  "3509": " sacred",
  "3510": " fiery",
  "3511": " innocent",
  "3512": " Paulina",
  "3513": " leng",
  "3514": " Prince",
  "3515": " safety",
  "3516": " Cominius",
  "3517": "BRAKENBURY",
  "3518": " ed",
  "3519": " To",
  "3520": "?'",
  "3521": "Ad",
  "3522": "DER",
  "3523": "DON",
  "3524": "Edward",
  "3525": "GOR",
  "3526": "Hence",
  "3527": "Ind",
  "3528": "MIST",
  "3529": "Once",
  "3530": "Richard",
  "3531": "RESS",
  "3532": "cha",
  "3533": "draw",
  "3534": "eld",
  "3535": "go",
  "3536": "mn",
  "3537": "my",
  "3538": "more",
  "3539": "nat",
  "3540": "op",
  "3541": "oly",
  "3542": "oard",
  "3543": "pet",
  "3544": "port",
  "3545": "poll",
  "3546": "sic",
  "3547": "would",
  "3548": " avo",
  "3549": " sits",
  "3550": "inous",
  "3551": " wag",
  "3552": " wings",
  "3553": "rehe",
  "3554": " bark",
  "3555": "orry",
  "3556": " fury",
  "3557": " finger",
  "3558": "erset",
  "3559": "itol",
  "3560": " custom",
  "3561": "enen",
  "3562": "anch",
  "3563": "omerset",
  "3564": " gross",
  "3565": " garden",
  "3566": " inform",
  "3567": "edious",
  "3568": " used",
  "3569": " weeds",
  "3570": " ele",
  "3571": " eag",
  "3572": " stones",
  "3573": " dec",
  "3574": " door",
  "3575": " nose",
  "3576": " allow",
  "3577": "think",
  "3578": " anger",
  "3579": "ardine",
  "3580": " loath",
  "3581": " loyal",
  "3582": "ellow",
  "3583": " fares",
  "3584": " necess",
  "3585": " knight",
  "3586": "ctise",
  "3587": " shr",
  "3588": " oracle",
  "3589": " OVER",
  "3590": "Myself",
  "3591": "hysic",
  "3592": " mayor",
  "3593": "elve",
  "3594": " hollow",
  "3595": " sail",
  "3596": " plague",
  "3597": "unning",
  "3598": " round",
  "3599": " fright",
  "3600": "icked",
  "3601": "Without",
  "3602": " always",
  "3603": " rob",
  "3604": " rock",
  "3605": " wherein",
  "3606": " design",
  "3607": "Wherein",
  "3608": "aughters",
  "3609": " adieu",
  "3610": " commend",
  "3611": " claim",
  "3612": " prevail",
  "3613": " prayer",
  "3614": "PETER",
  "3615": " plead",
  "3616": " perceive",
  "3617": " troth",
  "3618": " rude",
  "3619": " tongues",
  "3620": " subst",
  "3621": " smile",
  "3622": " imprison",
  "3623": " cares",
  "3624": "GREGOR",
  "3625": " drawn",
  "3626": " empt",
  "3627": " wanton",
  "3628": " assist",
  "3629": "unts",
  "3630": " tempt",
  "3631": " deserve",
  "3632": " delight",
  "3633": " Capitol",
  "3634": " practise",
  "3635": " cheek",
  "3636": " absence",
  "3637": " Thomas",
  "3638": " drop",
  "3639": " creature",
  "3640": " trumpets",
  "3641": " utter",
  "3642": " langu",
  "3643": " ignorant",
  "3644": "Brother",
  "3645": " rotten",
  "3646": " remedy",
  "3647": " circ",
  "3648": " Barnardine",
  "3649": "DERBY",
  "3650": "DONE",
  "3651": "Indeed",
  "3652": "MISTRESS",
  "3653": "enenius",
  "3654": " OVERDONE",
  "3655": "GREGORY",
  "3656": " es",
  "3657": " Where",
  "3658": "Art",
  "3659": "CH",
  "3660": "Dost",
  "3661": "FORD",
  "3662": "OX",
  "3663": "Poor",
  "3664": "Res",
  "3665": "RICH",
  "3666": "SOM",
  "3667": "Turn",
  "3668": "VAL",
  "3669": "act",
  "3670": "dy",
  "3671": "eous",
  "3672": "mion",
  "3673": "sing",
  "3674": "thi",
  "3675": "what",
  "3676": "yard",
  "3677": " tune",
  "3678": " tidings",
  "3679": " tedious",
  "3680": "held",
  "3681": " aim",
  "3682": " aught",
  "3683": " ship",
  "3684": " sens",
  "3685": " went",
  "3686": " wont",
  "3687": " wives",
  "3688": " wicked",
  "3689": "haps",
  "3690": "isa",
  "3691": "ises",
  "3692": "onounce",
  "3693": " dur",
  "3694": " cre",
  "3695": " cell",
  "3696": " cure",
  "3697": " carry",
  "3698": " cries",
  "3699": "esy",
  "3700": " number",
  "3701": " lar",
  "3702": " loud",
  "3703": " thrust",
  "3704": " hit",
  "3705": " hid",
  "3706": " pil",
  "3707": " pair",
  "3708": "othe",
  "3709": " becomes",
  "3710": "cend",
  "3711": "utes",
  "3712": "iment",
  "3713": "rious",
  "3714": " star",
  "3715": " stat",
  "3716": " steed",
  "3717": "ashi",
  "3718": " receive",
  "3719": " asleep",
  "3720": " dew",
  "3721": " deceived",
  "3722": " deposed",
  "3723": " shar",
  "3724": "this",
  "3725": "ards",
  "3726": "hant",
  "3727": " vantage",
  "3728": "ERIA",
  "3729": "ERSET",
  "3730": " Music",
  "3731": " conj",
  "3732": "ongs",
  "3733": " Grey",
  "3734": " sheep",
  "3735": " therein",
  "3736": " Sic",
  "3737": " Somerset",
  "3738": " Verona",
  "3739": " jealous",
  "3740": " shouldst",
  "3741": " proper",
  "3742": " ras",
  "3743": " outward",
  "3744": " whole",
  "3745": " offend",
  "3746": " Your",
  "3747": " alas",
  "3748": " heav",
  "3749": " earn",
  "3750": "eeth",
  "3751": " meaning",
  "3752": "aced",
  "3753": " chief",
  "3754": " begins",
  "3755": " Jove",
  "3756": " ruin",
  "3757": "loved",
  "3758": "ission",
  "3759": " resign",
  "3760": " follows",
  "3761": " tread",
  "3762": " treacher",
  "3763": "ethought",
  "3764": " banished",
  "3765": " passing",
  "3766": " woful",
  "3767": " devise",
  "3768": " followers",
  "3769": " fools",
  "3770": " maids",
  "3771": "Show",
  "3772": " advise",
  "3773": " gives",
  "3774": "itting",
  "3775": " rememb",
  "3776": " awake",
  "3777": " borne",
  "3778": " supper",
  "3779": " lamb",
  "3780": " condu",
  "3781": "aze",
  "3782": " silence",
  "3783": " possible",
  "3784": "Having",
  "3785": " profess",
  "3786": " despite",
  "3787": "MOND",
  "3788": " garments",
  "3789": " castle",
  "3790": " thrive",
  "3791": " express",
  "3792": " undone",
  "3793": " dreadful",
  "3794": " babe",
  "3795": " protect",
  "3796": "Besides",
  "3797": " broken",
  "3798": " violent",
  "3799": " Christian",
  "3800": " publ",
  "3801": " occasion",
  "3802": " nobles",
  "3803": "Into",
  "3804": "ursday",
  "3805": " fatal",
  "3806": " belly",
  "3807": " authority",
  "3808": " simple",
  "3809": " farther",
  "3810": " throat",
  "3811": " benefit",
  "3812": "pinion",
  "3813": " affairs",
  "3814": "pollo",
  "3815": "OXFORD",
  "3816": "RICHMOND",
  "3817": "SOMERSET",
  "3818": "VALERIA",
  "3819": "mione",
  "3820": " er",
  "3821": " ir",
  "3822": " There",
  "3823": "AMIL",
  "3824": "BUS",
  "3825": "Great",
  "3826": "HY",
  "3827": "Hast",
  "3828": "LIUS",
  "3829": "MOP",
  "3830": "MAMIL",
  "3831": "Per",
  "3832": "Tybalt",
  "3833": "Tailor",
  "3834": "Very",
  "3835": "app",
  "3836": "cing",
  "3837": "can",
  "3838": "eg",
  "3839": "fl",
  "3840": "father",
  "3841": "gle",
  "3842": "iond",
  "3843": "oat",
  "3844": "pr",
  "3845": "ron",
  "3846": "son",
  "3847": "ub",
  "3848": " tort",
  "3849": " taste",
  "3850": " san",
  "3851": " six",
  "3852": " sorry",
  "3853": " wine",
  "3854": " wander",
  "3855": " band",
  "3856": " bond",
  "3857": "erved",
  "3858": "itude",
  "3859": " det",
  "3860": " due",
  "3861": " cal",
  "3862": " cam",
  "3863": " cunning",
  "3864": "ene",
  "3865": "enn",
  "3866": " nine",
  "3867": " names",
  "3868": " lend",
  "3869": "arch",
  "3870": " top",
  "3871": " pin",
  "3872": " pawn",
  "3873": " paper",
  "3874": " physic",
  "3875": " gain",
  "3876": " gage",
  "3877": " belike",
  "3878": " beheld",
  "3879": " infect",
  "3880": "ldom",
  "3881": "eding",
  "3882": "utation",
  "3883": " weight",
  "3884": " weap",
  "3885": "ills",
  "3886": " equ",
  "3887": "enture",
  "3888": " store",
  "3889": " step",
  "3890": " stock",
  "3891": " stuff",
  "3892": " renown",
  "3893": "rand",
  "3894": " lip",
  "3895": " deare",
  "3896": "room",
  "3897": "eave",
  "3898": "usion",
  "3899": "iffe",
  "3900": " seas",
  "3901": " sup",
  "3902": "run",
  "3903": " ange",
  "3904": " lod",
  "3905": "ello",
  "3906": " spend",
  "3907": " spare",
  "3908": "hop",
  "3909": " van",
  "3910": "ouses",
  "3911": " shut",
  "3912": "ustice",
  "3913": " MOW",
  "3914": " Menenius",
  "3915": "olix",
  "3916": " sway",
  "3917": " brook",
  "3918": " kingly",
  "3919": " Bona",
  "3920": " unnat",
  "3921": " Harry",
  "3922": " quit",
  "3923": "imely",
  "3924": " envious",
  "3925": " rash",
  "3926": " disd",
  "3927": "ABHOR",
  "3928": " room",
  "3929": " exile",
  "3930": " excell",
  "3931": " desert",
  "3932": " gentlewoman",
  "3933": " flight",
  "3934": " twelve",
  "3935": " parts",
  "3936": " prey",
  "3937": "THOMAS",
  "3938": " peril",
  "3939": " perish",
  "3940": " trans",
  "3941": "iteous",
  "3942": " Friar",
  "3943": " whither",
  "3944": "swain",
  "3945": " until",
  "3946": " affect",
  "3947": " lean",
  "3948": " legs",
  "3949": "orses",
  "3950": " keeps",
  "3951": " accus",
  "3952": "STANLEY",
  "3953": " prize",
  "3954": " pursu",
  "3955": " chair",
  "3956": " countenance",
  "3957": " pleased",
  "3958": "ounty",
  "3959": " humbly",
  "3960": " courtesy",
  "3961": " advantage",
  "3962": " curst",
  "3963": "ploy",
  "3964": " spirits",
  "3965": "Two",
  "3966": " intend",
  "3967": " denied",
  "3968": "ancy",
  "3969": " disposition",
  "3970": " betwixt",
  "3971": " silver",
  "3972": " delay",
  "3973": " resolve",
  "3974": " Thursday",
  "3975": " wedding",
  "3976": " sighs",
  "3977": " hurt",
  "3978": "BRAY",
  "3979": " colour",
  "3980": " clear",
  "3981": " owe",
  "3982": " prepared",
  "3983": " damned",
  "3984": " shadow",
  "3985": " pleasant",
  "3986": " forsworn",
  "3987": " storm",
  "3988": "Death",
  "3989": " threaten",
  "3990": " conquer",
  "3991": " punish",
  "3992": " Caius",
  "3993": " contrary",
  "3994": "EXETER",
  "3995": " palace",
  "3996": " dinner",
  "3997": " neighbour",
  "3998": " miserable",
  "3999": " speci",
  "4000": " empty",
  "4001": " Musician",
  "4002": "BUSHY",
  "4003": "MOPSA",
  "4004": "MAMILLIUS",
  "4005": "iondello",
  "4006": " sanct",
  "4007": " MOWBRAY",
  "4008": "olixenes",
  "4009": "ABHORSON",
  "4010": " When",
  "4011": "CY",
  "4012": "Cousin",
  "4013": "Ed",
  "4014": "Know",
  "4015": "None",
  "4016": "Nothing",
  "4017": "Pre",
  "4018": "Ret",
  "4019": "Right",
  "4020": "Rem",
  "4021": "Rep",
  "4022": "Sc",
  "4023": "Sha",
  "4024": "Widow",
  "4025": "bow",
  "4026": "born",
  "4027": "grace",
  "4028": "hor",
  "4029": "hore",
  "4030": "lar",
  "4031": "mity",
  "4032": "oc",
  "4033": "oke",
  "4034": "par",
  "4035": "ping",
  "4036": "pic",
  "4037": "pass",
  "4038": "tune",
  "4039": "urious",
  "4040": "we",
  "4041": "wise",
  "4042": "yond",
  "4043": " tut",
  "4044": " table",
  "4045": " scept",
  "4046": " miss",
  "4047": " murderer",
  "4048": " making",
  "4049": " motion",
  "4050": " mourn",
  "4051": " wot",
  "4052": " wood",
  "4053": " wol",
  "4054": " wond",
  "4055": "rease",
  "4056": " bas",
  "4057": " bare",
  "4058": " ball",
  "4059": " bud",
  "4060": "ising",
  "4061": " fle",
  "4062": " fro",
  "4063": " fee",
  "4064": " fashi",
  "4065": "erve",
  "4066": " di",
  "4067": " dign",
  "4068": " dies",
  "4069": " dag",
  "4070": " daughters",
  "4071": " cens",
  "4072": " cup",
  "4073": " calm",
  "4074": "ency",
  "4075": " naked",
  "4076": " yonder",
  "4077": " opinion",
  "4078": " pure",
  "4079": " port",
  "4080": " painted",
  "4081": " piteous",
  "4082": " heed",
  "4083": "ote",
  "4084": "ane",
  "4085": " gate",
  "4086": " bew",
  "4087": " beloved",
  "4088": "sequ",
  "4089": "irg",
  "4090": " mend",
  "4091": "ourish",
  "4092": " weigh",
  "4093": "rib",
  "4094": " story",
  "4095": " reward",
  "4096": "urance",
  "4097": " debt",
  "4098": " ones",
  "4099": "ARCH",
  "4100": "amed",
  "4101": " seest",
  "4102": "Three",
  "4103": "ruly",
  "4104": "thou",
  "4105": " fail",
  "4106": "ERCY",
  "4107": "que",
  "4108": " goodness",
  "4109": " pronounce",
  "4110": " comple",
  "4111": " Messenger",
  "4112": " amb",
  "4113": " amen",
  "4114": "outs",
  "4115": "oler",
  "4116": " hatred",
  "4117": " theirs",
  "4118": " Biondello",
  "4119": " arg",
  "4120": "igence",
  "4121": " quench",
  "4122": " hopes",
  "4123": "cio",
  "4124": "cian",
  "4125": " seeing",
  "4126": " Pro",
  "4127": " Peter",
  "4128": " Pisa",
  "4129": " Polixenes",
  "4130": " PERCY",
  "4131": "umble",
  "4132": " plot",
  "4133": " diss",
  "4134": " expect",
  "4135": " slow",
  "4136": " ado",
  "4137": "THAS",
  "4138": " Did",
  "4139": " perfect",
  "4140": " perpet",
  "4141": " wrath",
  "4142": "Thanks",
  "4143": " Fl",
  "4144": "lesome",
  "4145": " remains",
  "4146": " crowns",
  "4147": " hark",
  "4148": " courage",
  "4149": " wits",
  "4150": "clock",
  "4151": " access",
  "4152": " accuse",
  "4153": " folly",
  "4154": "Only",
  "4155": " ends",
  "4156": " endure",
  "4157": " needful",
  "4158": "Still",
  "4159": " bodies",
  "4160": " joys",
  "4161": " joyful",
  "4162": " fortunes",
  "4163": " mistake",
  "4164": " natural",
  "4165": " happiness",
  "4166": " misery",
  "4167": " undertake",
  "4168": " chide",
  "4169": " attempt",
  "4170": " advance",
  "4171": " curses",
  "4172": " employ",
  "4173": " assurance",
  "4174": " persu",
  "4175": " discontent",
  "4176": " senators",
  "4177": " crack",
  "4178": " intent",
  "4179": " sometime",
  "4180": " wounded",
  "4181": " spoken",
  "4182": " drum",
  "4183": " market",
  "4184": "cape",
  "4185": " waters",
  "4186": " cursed",
  "4187": " instruct",
  "4188": " instrument",
  "4189": " Nap",
  "4190": " Rivers",
  "4191": " terror",
  "4192": " resolved",
  "4193": "chance",
  "4194": " whiles",
  "4195": " corrupt",
  "4196": "ney",
  "4197": " burthen",
  "4198": " griev",
  "4199": " duked",
  "4200": " accept",
  "4201": " groan",
  "4202": "BALTHAS",
  "4203": " colours",
  "4204": " penit",
  "4205": " protest",
  "4206": " princes",
  "4207": " princess",
  "4208": " Stanley",
  "4209": " government",
  "4210": "Prithee",
  "4211": " obedience",
  "4212": " petition",
  "4213": " solemn",
  "4214": "Believe",
  "4215": " continue",
  "4216": " credit",
  "4217": " several",
  "4218": "hearted",
  "4219": " wreck",
  "4220": " language",
  "4221": " circum",
  "4222": " durst",
  "4223": " remembrance",
  "4224": " public",
  "4225": " unnatural",
  "4226": "picion",
  "4227": " dukedom",
  "4228": "BALTHASAR",
  "4229": " Nay",
  "4230": " They",
  "4231": "?--",
  "4232": "Ar",
  "4233": "App",
  "4234": "AEd",
  "4235": "Bear",
  "4236": "Boat",
  "4237": "Father",
  "4238": "FOL",
  "4239": "Heaven",
  "4240": "Love",
  "4241": "Might",
  "4242": "Mark",
  "4243": "OS",
  "4244": "Post",
  "4245": "Page",
  "4246": "Save",
  "4247": "afe",
  "4248": "bear",
  "4249": "do",
  "4250": "dds",
  "4251": "ex",
  "4252": "fer",
  "4253": "gers",
  "4254": "how",
  "4255": "ipe",
  "4256": "just",
  "4257": "lic",
  "4258": "oe",
  "4259": "oved",
  "4260": "ped",
  "4261": "pro",
  "4262": "sc",
  "4263": "same",
  "4264": "time",
  "4265": "uary",
  "4266": "val",
  "4267": "vours",
  "4268": "yr",
  "4269": " test",
  "4270": " teeth",
  "4271": "hest",
  "4272": " sink",
  "4273": " sins",
  "4274": " mag",
  "4275": " mile",
  "4276": "ination",
  "4277": "happy",
  "4278": "ishop",
  "4279": " fame",
  "4280": "erd",
  "4281": "ita",
  "4282": " cock",
  "4283": " cease",
  "4284": "ences",
  "4285": " nought",
  "4286": " led",
  "4287": "aries",
  "4288": " host",
  "4289": " hunt",
  "4290": " houses",
  "4291": " horses",
  "4292": " odd",
  "4293": " obs",
  "4294": " odds",
  "4295": " tomb",
  "4296": " pol",
  "4297": " powers",
  "4298": "strous",
  "4299": "omp",
  "4300": "omen",
  "4301": "atic",
  "4302": "atience",
  "4303": " beyond",
  "4304": " haz",
  "4305": "uted",
  "4306": " mere",
  "4307": " isle",
  "4308": " island",
  "4309": "ourage",
  "4310": " east",
  "4311": " its",
  "4312": " kin",
  "4313": "idence",
  "4314": " repe",
  "4315": " realm",
  "4316": " shape",
  "4317": "uses",
  "4318": "ified",
  "4319": " seize",
  "4320": "Those",
  "4321": " spite",
  "4322": " faces",
  "4323": " Can",
  "4324": " Cal",
  "4325": " ROS",
  "4326": " vault",
  "4327": " virg",
  "4328": " shun",
  "4329": "ants",
  "4330": " comest",
  "4331": " manners",
  "4332": " El",
  "4333": "icular",
  "4334": " conc",
  "4335": "ieved",
  "4336": " block",
  "4337": " blush",
  "4338": " Good",
  "4339": "ared",
  "4340": "arent",
  "4341": "olute",
  "4342": " hereafter",
  "4343": " swallow",
  "4344": " brings",
  "4345": " So",
  "4346": " Bl",
  "4347": "elt",
  "4348": " qual",
  "4349": " jour",
  "4350": "Young",
  "4351": "akest",
  "4352": "ument",
  "4353": " fathers",
  "4354": " Who",
  "4355": " enmity",
  "4356": " ring",
  "4357": "CAS",
  "4358": " Yet",
  "4359": " alter",
  "4360": " looking",
  "4361": " friendly",
  "4362": " slay",
  "4363": " flies",
  "4364": " Take",
  "4365": " fairly",
  "4366": "tled",
  "4367": " advers",
  "4368": " clo",
  "4369": " write",
  "4370": " trade",
  "4371": " ways",
  "4372": " scope",
  "4373": " scene",
  "4374": "aintain",
  "4375": " key",
  "4376": "they",
  "4377": " French",
  "4378": " apprehe",
  "4379": " contract",
  "4380": " whore",
  "4381": " armour",
  "4382": "ctions",
  "4383": " untimely",
  "4384": "ression",
  "4385": " imm",
  "4386": " repair",
  "4387": " rule",
  "4388": " leads",
  "4389": " slept",
  "4390": " accord",
  "4391": " purcha",
  "4392": " compass",
  "4393": "orset",
  "4394": " seeming",
  "4395": " brain",
  "4396": " glorious",
  "4397": " imposs",
  "4398": " passage",
  "4399": " maiden",
  "4400": " hateful",
  "4401": " strew",
  "4402": " turns",
  "4403": "uteous",
  "4404": " instant",
  "4405": " boar",
  "4406": " wants",
  "4407": "NORFOL",
  "4408": " discover",
  "4409": " commanded",
  "4410": " hanging",
  "4411": " contented",
  "4412": " dares",
  "4413": " freely",
  "4414": " grey",
  "4415": " services",
  "4416": " temper",
  "4417": " drums",
  "4418": " choler",
  "4419": " grows",
  "4420": " deserves",
  "4421": "noon",
  "4422": " Lucio",
  "4423": " granted",
  "4424": "Comm",
  "4425": " terms",
  "4426": " increase",
  "4427": " resolution",
  "4428": " shortly",
  "4429": " vex",
  "4430": " praise",
  "4431": " absent",
  "4432": " venom",
  "4433": " drops",
  "4434": " privile",
  "4435": " respected",
  "4436": " frame",
  "4437": "Beseech",
  "4438": " approach",
  "4439": " complain",
  "4440": " torment",
  "4441": " unknown",
  "4442": " prosperous",
  "4443": "DORCAS",
  "4444": " suspicion",
  "4445": " reverend",
  "4446": " apparel",
  "4447": " captain",
  "4448": " degree",
  "4449": " Hermione",
  "4450": " smooth",
  "4451": " large",
  "4452": " sharp",
  "4453": " earnest",
  "4454": " camest",
  "4455": " disdain",
  "4456": " excellent",
  "4457": " sceptre",
  "4458": " dagger",
  "4459": " Naples",
  "4460": "Boatswain",
  "4461": " ROSS",
  "4462": "NORFOLK",
  "4463": " Therefore",
  "4464": "Amen",
  "4465": "Boy",
  "4466": "Came",
  "4467": "Cons",
  "4468": "DIN",
  "4469": "Dear",
  "4470": "FER",
  "4471": "GH",
  "4472": "Ghost",
  "4473": "Has",
  "4474": "Long",
  "4475": "Mistress",
  "4476": "NS",
  "4477": "Please",
  "4478": "RR",
  "4479": "Roman",
  "4480": "Set",
  "4481": "Wilt",
  "4482": "Worthy",
  "4483": "aces",
  "4484": "aily",
  "4485": "bri",
  "4486": "bra",
  "4487": "dis",
  "4488": "fret",
  "4489": "gl",
  "4490": "gar",
  "4491": "iven",
  "4492": "iate",
  "4493": "ipp",
  "4494": "kin",
  "4495": "ker",
  "4496": "law",
  "4497": "pul",
  "4498": "uce",
  "4499": "wife",
  "4500": " tame",
  "4501": " taught",
  "4502": " tap",
  "4503": " tide",
  "4504": " able",
  "4505": " squ",
  "4506": " south",
  "4507": " mor",
  "4508": " mill",
  "4509": " messenger",
  "4510": "iny",
  "4511": "reg",
  "4512": "reland",
  "4513": "reme",
  "4514": " bird",
  "4515": " bury",
  "4516": "isper",
  "4517": " fig",
  "4518": " furn",
  "4519": "itus",
  "4520": " dig",
  "4521": " dress",
  "4522": " daily",
  "4523": " chat",
  "4524": " catch",
  "4525": " lark",
  "4526": " thorn",
  "4527": " thief",
  "4528": " parent",
  "4529": " Ireland",
  "4530": "ances",
  "4531": "omans",
  "4532": "ater",
  "4533": "ature",
  "4534": "atcl",
  "4535": " bef",
  "4536": " beard",
  "4537": " bethink",
  "4538": " meant",
  "4539": " weather",
  "4540": " wept",
  "4541": "ades",
  "4542": "ricians",
  "4543": " stol",
  "4544": " stamp",
  "4545": " rej",
  "4546": " recom",
  "4547": " revol",
  "4548": " lion",
  "4549": "aline",
  "4550": " willing",
  "4551": " willingly",
  "4552": " nobl",
  "4553": " nobly",
  "4554": "andal",
  "4555": " season",
  "4556": " sull",
  "4557": " suck",
  "4558": " spr",
  "4559": " spur",
  "4560": " Co",
  "4561": " Cons",
  "4562": " knife",
  "4563": " Ros",
  "4564": " Romans",
  "4565": " vows",
  "4566": " comb",
  "4567": " May",
  "4568": " Mil",
  "4569": " amazed",
  "4570": " conce",
  "4571": " conceit",
  "4572": " constant",
  "4573": "ember",
  "4574": "Help",
  "4575": " lovely",
  "4576": " swell",
  "4577": " ST",
  "4578": " Be",
  "4579": " Ber",
  "4580": " unless",
  "4581": " worn",
  "4582": " worthi",
  "4583": " jew",
  "4584": " muster",
  "4585": " provo",
  "4586": " Pray",
  "4587": " ruth",
  "4588": " Ad",
  "4589": " Apollo",
  "4590": " disper",
  "4591": " abhor",
  "4592": " roar",
  "4593": " rogue",
  "4594": " tells",
  "4595": " whereof",
  "4596": " warlike",
  "4597": " hasty",
  "4598": " fears",
  "4599": " greatest",
  "4600": "oldier",
  "4601": " particular",
  "4602": " adver",
  "4603": " committed",
  "4604": " clam",
  "4605": " Do",
  "4606": " perj",
  "4607": " perforce",
  "4608": " wrought",
  "4609": "liament",
  "4610": " north",
  "4611": " press",
  "4612": " rap",
  "4613": " raise",
  "4614": " Farewell",
  "4615": " begun",
  "4616": "forth",
  "4617": " Jack",
  "4618": " consider",
  "4619": " peers",
  "4620": "love",
  "4621": " witch",
  "4622": " accused",
  "4623": " kindly",
  "4624": " compan",
  "4625": " smiles",
  "4626": " county",
  "4627": " finds",
  "4628": "Stri",
  "4629": " braw",
  "4630": " charged",
  "4631": " passion",
  "4632": "Clarence",
  "4633": " holds",
  "4634": "GREEN",
  "4635": " streets",
  "4636": " build",
  "4637": " soundly",
  "4638": " serves",
  "4639": " boots",
  "4640": " advice",
  "4641": " current",
  "4642": " revenged",
  "4643": " assured",
  "4644": " sends",
  "4645": " giving",
  "4646": " winds",
  "4647": " hanged",
  "4648": " darest",
  "4649": " intell",
  "4650": " supposed",
  "4651": " afford",
  "4652": "ALONS",
  "4653": "Whither",
  "4654": " hardly",
  "4655": " profit",
  "4656": " parliament",
  "4657": " record",
  "4658": " veins",
  "4659": " waste",
  "4660": " stopp",
  "4661": "Until",
  "4662": " pieces",
  "4663": " wait",
  "4664": " garland",
  "4665": " grieve",
  "4666": " sky",
  "4667": " forbear",
  "4668": " Pomfret",
  "4669": " direct",
  "4670": " groans",
  "4671": " thrice",
  "4672": " estate",
  "4673": "erns",
  "4674": "TYRR",
  "4675": " oppos",
  "4676": " destroy",
  "4677": "About",
  "4678": " urged",
  "4679": " affections",
  "4680": " famous",
  "4681": " haply",
  "4682": "DORSET",
  "4683": "Supp",
  "4684": " lusty",
  "4685": " elder",
  "4686": " study",
  "4687": " counterfeit",
  "4688": "Gentlemen",
  "4689": " arrived",
  "4690": " behalf",
  "4691": " Marshal",
  "4692": " avoid",
  "4693": " imprisonment",
  "4694": "untsman",
  "4695": " rascal",
  "4696": " treacherous",
  "4697": " conduct",
  "4698": " protector",
  "4699": " special",
  "4700": " sanctuary",
  "4701": " perpetual",
  "4702": " grievous",
  "4703": "AEdile",
  "4704": " virgin",
  "4705": " journey",
  "4706": "DINAND",
  "4707": "FERDINAND",
  "4708": "atcliff",
  "4709": " Conspir",
  "4710": "ALONSO",
  "4711": "TYRREL",
  "4712": " z",
  "4713": " ing",
  "4714": " Then",
  "4715": ";--",
  "4716": "Acc",
  "4717": "Bring",
  "4718": "Coriol",
  "4719": "Keep",
  "4720": "Leave",
  "4721": "Makes",
  "4722": "Vols",
  "4723": "af",
  "4724": "cure",
  "4725": "des",
  "4726": "dig",
  "4727": "eat",
  "4728": "erer",
  "4729": "fess",
  "4730": "fellow",
  "4731": "faced",
  "4732": "grim",
  "4733": "groom",
  "4734": "ib",
  "4735": "iving",
  "4736": "ienn",
  "4737": "lanch",
  "4738": "master",
  "4739": "mory",
  "4740": "maid",
  "4741": "nal",
  "4742": "sha",
  "4743": "ser",
  "4744": "some",
  "4745": "ties",
  "4746": "upt",
  "4747": "vior",
  "4748": "wear",
  "4749": "xeter",
  "4750": "zz",
  "4751": " task",
  "4752": " ach",
  "4753": " apt",
  "4754": " aunt",
  "4755": " sy",
  "4756": " sal",
  "4757": " sire",
  "4758": " mult",
  "4759": " maintain",
  "4760": " wing",
  "4761": " wide",
  "4762": " whip",
  "4763": " waking",
  "4764": "reen",
  "4765": " bade",
  "4766": "isbury",
  "4767": " fi",
  "4768": " food",
  "4769": " frow",
  "4770": " fun",
  "4771": " feet",
  "4772": " fires",
  "4773": " fancy",
  "4774": "erity",
  "4775": "erby",
  "4776": "itation",
  "4777": "onci",
  "4778": " dow",
  "4779": " dim",
  "4780": " dri",
  "4781": " dying",
  "4782": " cher",
  "4783": " caught",
  "4784": " cere",
  "4785": "esar",
  "4786": "essel",
  "4787": "enant",
  "4788": " nail",
  "4789": " lin",
  "4790": " yond",
  "4791": " yoke",
  "4792": " third",
  "4793": " hor",
  "4794": " hie",
  "4795": " pi",
  "4796": " pot",
  "4797": " pound",
  "4798": " purse",
  "4799": " pier",
  "4800": "vet",
  "4801": "ative",
  "4802": "sell",
  "4803": " inqu",
  "4804": "etite",
  "4805": "eder",
  "4806": "utenant",
  "4807": " melt",
  "4808": " melanch",
  "4809": " fors",
  "4810": " forced",
  "4811": " forfeit",
  "4812": "ourse",
  "4813": "ourth",
  "4814": " event",
  "4815": "adv",
  "4816": "aded",
  "4817": "rick",
  "4818": " sting",
  "4819": " stro",
  "4820": " stout",
  "4821": " stret",
  "4822": " stroke",
  "4823": " reck",
  "4824": "rac",
  "4825": "ales",
  "4826": "alisbury",
  "4827": " sore",
  "4828": " sooth",
  "4829": " deceit",
  "4830": "roll",
  "4831": "ested",
  "4832": "earer",
  "4833": "amb",
  "4834": "ams",
  "4835": "aming",
  "4836": " sees",
  "4837": " alliance",
  "4838": " sue",
  "4839": "ruction",
  "4840": "ellion",
  "4841": " sple",
  "4842": "ilence",
  "4843": " knaves",
  "4844": " vessel",
  "4845": "ulate",
  "4846": "arts",
  "4847": "nty",
  "4848": " Exeter",
  "4849": "icy",
  "4850": " confe",
  "4851": " blunt",
  "4852": " Give",
  "4853": "ares",
  "4854": " Le",
  "4855": " saying",
  "4856": " Soldier",
  "4857": " unjust",
  "4858": " unhappy",
  "4859": "ignty",
  "4860": "LIS",
  "4861": " graves",
  "4862": " Well",
  "4863": " enforce",
  "4864": "deem",
  "4865": " All",
  "4866": " Away",
  "4867": "irect",
  "4868": "harge",
  "4869": " offended",
  "4870": " dissem",
  "4871": " disgrace",
  "4872": " alack",
  "4873": " alike",
  "4874": " although",
  "4875": " abide",
  "4876": " aboard",
  "4877": "Noble",
  "4878": " rose",
  "4879": " exchange",
  "4880": "Soft",
  "4881": "ages",
  "4882": " desires",
  "4883": " descend",
  "4884": " slaves",
  "4885": " flood",
  "4886": " flatt",
  "4887": " twain",
  "4888": " Titus",
  "4889": " betray",
  "4890": " betimes",
  "4891": " newly",
  "4892": " parting",
  "4893": " partly",
  "4894": " called",
  "4895": " commons",
  "4896": " commission",
  "4897": " standing",
  "4898": " clim",
  "4899": " De",
  "4900": " Dorset",
  "4901": " Derby",
  "4902": "ullus",
  "4903": " wrink",
  "4904": " bearing",
  "4905": "aints",
  "4906": " rare",
  "4907": "thee",
  "4908": " Froth",
  "4909": " appeal",
  "4910": " appetite",
  "4911": " contempt",
  "4912": " whisper",
  "4913": " image",
  "4914": " Marian",
  "4915": "forced",
  "4916": " rust",
  "4917": " ruled",
  "4918": " household",
  "4919": " restra",
  "4920": "ercy",
  "4921": " sets",
  "4922": "clam",
  "4923": "osing",
  "4924": " resist",
  "4925": " trick",
  "4926": " puts",
  "4927": " powerful",
  "4928": " chase",
  "4929": " charac",
  "4930": " smell",
  "4931": " treasure",
  "4932": " brace",
  "4933": "iety",
  "4934": " mistrust",
  "4935": " native",
  "4936": " boys",
  "4937": " weeps",
  "4938": " patricians",
  "4939": " below",
  "4940": "Lords",
  "4941": " falsehood",
  "4942": " sovereignty",
  "4943": "ouchs",
  "4944": " assure",
  "4945": " secure",
  "4946": "Twere",
  "4947": " sometimes",
  "4948": " oaths",
  "4949": " merit",
  "4950": "upon",
  "4951": " faithful",
  "4952": " defence",
  "4953": " affli",
  "4954": " surely",
  "4955": "should",
  "4956": " silent",
  "4957": " instruments",
  "4958": "Cannot",
  "4959": " beholding",
  "4960": " reconci",
  "4961": " ago",
  "4962": " agree",
  "4963": " corre",
  "4964": " single",
  "4965": " breathed",
  "4966": " forgive",
  "4967": " weakness",
  "4968": " prett",
  "4969": " sickness",
  "4970": " regal",
  "4971": " regard",
  "4972": " mouths",
  "4973": " books",
  "4974": " barren",
  "4975": " beasts",
  "4976": " trumpet",
  "4977": "eeming",
  "4978": " pitch",
  "4979": " shield",
  "4980": " unkind",
  "4981": " tempest",
  "4982": " suspect",
  "4983": " obedient",
  "4984": " reverence",
  "4985": " apparent",
  "4986": " entertainment",
  "4987": " Anti",
  "4988": " determined",
  "4989": " helm",
  "4990": " gently",
  "4991": " holp",
  "4992": " fairest",
  "4993": " tremble",
  "4994": "shire",
  "4995": " stabb",
  "4996": " tyranny",
  "4997": " length",
  "4998": " pilgrim",
  "4999": " Sicilia",
  "5000": " equal",
  "5001": " fashion",
  "5002": " dignity",
  "5003": " complex",
  "5004": " circumst",
  "5005": "yrrel",
  "5006": " according",
  "5007": " impossible",
  "5008": " rejo",
  "5009": " Rosaline",
  "5010": " Mayor",
  "5011": " Milan",
  "5012": "Volsce",
  "5013": "ienna",
  "5014": " froward",
  "5015": " melancholy",
  "5016": " conference",
  "5017": " Q",
  "5018": ".--",
  "5019": "AD",
  "5020": "Cry",
  "5021": "Cond",
  "5022": "CLE",
  "5023": "Down",
  "5024": "Draw",
  "5025": "Each",
  "5026": "Fl",
  "5027": "FRO",
  "5028": "Fair",
  "5029": "Hail",
  "5030": "IL",
  "5031": "IT",
  "5032": "Im",
  "5033": "Kn",
  "5034": "King",
  "5035": "Lay",
  "5036": "Lie",
  "5037": "Lady",
  "5038": "Many",
  "5039": "OMEN",
  "5040": "PH",
  "5041": "Ri",
  "5042": "Sm",
  "5043": "Son",
  "5044": "Somet",
  "5045": "Tush",
  "5046": "UGH",
  "5047": "Warwick",
  "5048": "Ye",
  "5049": "acc",
  "5050": "action",
  "5051": "bod",
  "5052": "bation",
  "5053": "cra",
  "5054": "cary",
  "5055": "cceed",
  "5056": "eb",
  "5057": "eve",
  "5058": "fa",
  "5059": "fold",
  "5060": "foot",
  "5061": "give",
  "5062": "iver",
  "5063": "iam",
  "5064": "kind",
  "5065": "long",
  "5066": "look",
  "5067": "mong",
  "5068": "ns",
  "5069": "nes",
  "5070": "new",
  "5071": "rs",
  "5072": "rat",
  "5073": "rough",
  "5074": "say",
  "5075": "sues",
  "5076": "than",
  "5077": "tic",
  "5078": "teen",
  "5079": "tles",
  "5080": "uries",
  "5081": "war",
  "5082": "weal",
  "5083": "xe",
  "5084": " tim",
  "5085": " tres",
  "5086": " tall",
  "5087": " takes",
  "5088": " tarry",
  "5089": " taunt",
  "5090": "here",
  "5091": " axe",
  "5092": "oubt",
  "5093": " salt",
  "5094": " snow",
  "5095": " mir",
  "5096": " mood",
  "5097": " mess",
  "5098": " mirth",
  "5099": "inct",
  "5100": " wid",
  "5101": " west",
  "5102": " wake",
  "5103": " wink",
  "5104": "hand",
  "5105": " bir",
  "5106": " buck",
  "5107": "ories",
  "5108": "ering",
  "5109": "erves",
  "5110": "iter",
  "5111": "itable",
  "5112": "onation",
  "5113": " diffe",
  "5114": " cost",
  "5115": " chall",
  "5116": " civ",
  "5117": " nap",
  "5118": " lent",
  "5119": " line",
  "5120": " lap",
  "5121": " yes",
  "5122": " thir",
  "5123": " thick",
  "5124": " thread",
  "5125": " horn",
  "5126": " oak",
  "5127": " ope",
  "5128": " toad",
  "5129": " toil",
  "5130": " tooth",
  "5131": " pee",
  "5132": " pause",
  "5133": " Ita",
  "5134": "othes",
  "5135": "stable",
  "5136": "stery",
  "5137": "aning",
  "5138": "omach",
  "5139": " gru",
  "5140": " gaze",
  "5141": " mystery",
  "5142": " infection",
  "5143": " memory",
  "5144": "imble",
  "5145": "illy",
  "5146": "illing",
  "5147": "herit",
  "5148": " ste",
  "5149": " stick",
  "5150": " stumble",
  "5151": "asp",
  "5152": "ases",
  "5153": " rece",
  "5154": " reap",
  "5155": " redeem",
  "5156": " lift",
  "5157": " liken",
  "5158": "alse",
  "5159": " deb",
  "5160": " deck",
  "5161": " decl",
  "5162": " sham",
  "5163": "ushy",
  "5164": "ushes",
  "5165": " sell",
  "5166": " seiz",
  "5167": " seldom",
  "5168": " sepul",
  "5169": "Through",
  "5170": " super",
  "5171": " suitor",
  "5172": " succeed",
  "5173": "thing",
  "5174": " lover",
  "5175": " lovest",
  "5176": " spl",
  "5177": " spy",
  "5178": " fact",
  "5179": " fawn",
  "5180": " negle",
  "5181": " knot",
  "5182": " var",
  "5183": " vill",
  "5184": " vol",
  "5185": " shri",
  "5186": "ulf",
  "5187": "seless",
  "5188": "artius",
  "5189": " manif",
  "5190": " manage",
  "5191": " Min",
  "5192": "ical",
  "5193": "icles",
  "5194": " Lau",
  "5195": " Lartius",
  "5196": " hated",
  "5197": "LOUGH",
  "5198": "ersu",
  "5199": " swain",
  "5200": " bran",
  "5201": "pping",
  "5202": " Salisbury",
  "5203": " unwill",
  "5204": " His",
  "5205": " Heaven",
  "5206": " Ven",
  "5207": " Vienna",
  "5208": "Whether",
  "5209": " jot",
  "5210": "cies",
  "5211": " shoulder",
  "5212": " Perd",
  "5213": " WIL",
  "5214": " deaths",
  "5215": " heartily",
  "5216": " wholesome",
  "5217": " marks",
  "5218": " offic",
  "5219": " disple",
  "5220": " disgu",
  "5221": " abused",
  "5222": " exerc",
  "5223": " descent",
  "5224": " ripe",
  "5225": " ride",
  "5226": "ased",
  "5227": " league",
  "5228": " slip",
  "5229": " warri",
  "5230": " Tar",
  "5231": " Tell",
  "5232": " Tyrrel",
  "5233": " bred",
  "5234": " heavenly",
  "5235": " clothes",
  "5236": " sweeter",
  "5237": " perhaps",
  "5238": " scold",
  "5239": " scandal",
  "5240": " rain",
  "5241": " rail",
  "5242": " raised",
  "5243": " appointed",
  "5244": " whit",
  "5245": " remorse",
  "5246": " remove",
  "5247": " removed",
  "5248": " Lords",
  "5249": " began",
  "5250": " repose",
  "5251": " harsh",
  "5252": " keeper",
  "5253": " accident",
  "5254": " accursed",
  "5255": " younger",
  "5256": " youngest",
  "5257": " prick",
  "5258": " dearly",
  "5259": " subtle",
  "5260": "RIAN",
  "5261": " rights",
  "5262": "fortune",
  "5263": " minds",
  "5264": " coff",
  "5265": " devotion",
  "5266": " mischance",
  "5267": " meeting",
  "5268": " afternoon",
  "5269": " careless",
  "5270": "Uncle",
  "5271": " griefs",
  "5272": "Anon",
  "5273": " human",
  "5274": " counc",
  "5275": " grat",
  "5276": " retire",
  "5277": " served",
  "5278": " adventure",
  "5279": " curt",
  "5280": " countrymen",
  "5281": " virtues",
  "5282": " windows",
  "5283": "itten",
  "5284": " craves",
  "5285": " craft",
  "5286": " beauteous",
  "5287": " stranger",
  "5288": " yielded",
  "5289": " supply",
  "5290": " commonweal",
  "5291": " monstrous",
  "5292": " monument",
  "5293": "Didst",
  "5294": "soever",
  "5295": " growing",
  "5296": " heirs",
  "5297": " visage",
  "5298": " points",
  "5299": " stronger",
  "5300": " trusty",
  "5301": " instruction",
  "5302": " infant",
  "5303": " foreign",
  "5304": " incen",
  "5305": " feeling",
  "5306": " burst",
  "5307": " plainly",
  "5308": " absolute",
  "5309": " fourteen",
  "5310": " selfsame",
  "5311": " frowns",
  "5312": " direction",
  "5313": " redress",
  "5314": " satisfy",
  "5315": " servants",
  "5316": "ollow",
  "5317": " blem",
  "5318": " bridegroom",
  "5319": " babes",
  "5320": " gallant",
  "5321": " rebellion",
  "5322": " writing",
  "5323": " fierce",
  "5324": " shadows",
  "5325": " pleasing",
  "5326": " modest",
  "5327": " modesty",
  "5328": " object",
  "5329": " forswear",
  "5330": " uncles",
  "5331": " refuse",
  "5332": "Among",
  "5333": "banished",
  "5334": " bigger",
  "5335": " feather",
  "5336": " determine",
  "5337": "Betw",
  "5338": "Better",
  "5339": " chaste",
  "5340": "otted",
  "5341": " fairer",
  "5342": " shrewd",
  "5343": " dismal",
  "5344": " trembling",
  "5345": " acquaint",
  "5346": " prophet",
  "5347": " edge",
  "5348": " eagle",
  "5349": " shroud",
  "5350": " substit",
  "5351": "othecary",
  "5352": " steeds",
  "5353": " iron",
  "5354": " torture",
  "5355": " renowned",
  "5356": " dearest",
  "5357": "Return",
  "5358": "Remember",
  "5359": " wondrous",
  "5360": " ballad",
  "5361": " penitent",
  "5362": " policy",
  "5363": " repeal",
  "5364": " adversaries",
  "5365": " purchase",
  "5366": "Commend",
  "5367": " privilege",
  "5368": " revolt",
  "5369": " sullen",
  "5370": " conceal",
  "5371": " Conspirator",
  "5372": "Coriolanus",
  "5373": " dowry",
  "5374": " pierce",
  "5375": " strokes",
  "5376": " flatterer",
  "5377": " Mariana",
  "5378": "ouchsafe",
  "5379": "ADRIAN",
  "5380": "CLEOMEN",
  "5381": "FROTH",
  "5382": " trespass",
  "5383": " civil",
  "5384": " thirty",
  "5385": " Italy",
  "5386": " sepulch",
  "5387": "LOUGHBY",
  "5388": " Perdita",
  "5389": " WILLOUGHBY",
  "5390": " exercise",
  "5391": "CLEOMENES",
  "5392": " As",
  "5393": "AM",
  "5394": "Aw",
  "5395": "BAR",
  "5396": "Courage",
  "5397": "Dare",
  "5398": "Find",
  "5399": "Get",
  "5400": "Men",
  "5401": "Mist",
  "5402": "Making",
  "5403": "Methought",
  "5404": "NARD",
  "5405": "Oh",
  "5406": "Pur",
  "5407": "Petruchio",
  "5408": "Rather",
  "5409": "RUT",
  "5410": "Se",
  "5411": "Sound",
  "5412": "Tranio",
  "5413": "UR",
  "5414": "Villain",
  "5415": "Wit",
  "5416": "ax",
  "5417": "br",
  "5418": "bble",
  "5419": "boy",
  "5420": "car",
  "5421": "cest",
  "5422": "cue",
  "5423": "cence",
  "5424": "done",
  "5425": "ders",
  "5426": "duke",
  "5427": "ext",
  "5428": "from",
  "5429": "gy",
  "5430": "got",
  "5431": "ghan",
  "5432": "great",
  "5433": "gentle",
  "5434": "iar",
  "5435": "ips",
  "5436": "mas",
  "5437": "made",
  "5438": "nken",
  "5439": "nicious",
  "5440": "oon",
  "5441": "oes",
  "5442": "off",
  "5443": "phy",
  "5444": "pret",
  "5445": "pardon",
  "5446": "rity",
  "5447": "ratch",
  "5448": "sire",
  "5449": "scal",
  "5450": "tend",
  "5451": "ug",
  "5452": "vive",
  "5453": "vied",
  "5454": " tou",
  "5455": " tro",
  "5456": " tig",
  "5457": " tail",
  "5458": " ale",
  "5459": " ages",
  "5460": " sn",
  "5461": " main",
  "5462": " mil",
  "5463": " methought",
  "5464": "inate",
  "5465": " ward",
  "5466": " wakes",
  "5467": " bon",
  "5468": " bore",
  "5469": " bag",
  "5470": " brown",
  "5471": " borrow",
  "5472": " bott",
  "5473": "ision",
  "5474": "orough",
  "5475": " fish",
  "5476": " fret",
  "5477": " fix",
  "5478": " freed",
  "5479": "ital",
  "5480": "itiff",
  "5481": "onest",
  "5482": " date",
  "5483": " dower",
  "5484": " crow",
  "5485": "esu",
  "5486": "enge",
  "5487": " net",
  "5488": " nest",
  "5489": " nice",
  "5490": " numb",
  "5491": " nupt",
  "5492": " lur",
  "5493": " lance",
  "5494": " lower",
  "5495": " luck",
  "5496": " yon",
  "5497": " thin",
  "5498": " thie",
  "5499": " thirst",
  "5500": " thumb",
  "5501": " hom",
  "5502": " hind",
  "5503": " hig",
  "5504": " hire",
  "5505": " honey",
  "5506": " toy",
  "5507": " tomorrow",
  "5508": " ped",
  "5509": " pear",
  "5510": " path",
  "5511": " page",
  "5512": "hath",
  "5513": " It",
  "5514": " heat",
  "5515": " heels",
  "5516": "owl",
  "5517": "ingers",
  "5518": " gid",
  "5519": "atri",
  "5520": "atest",
  "5521": " bere",
  "5522": " befall",
  "5523": "sey",
  "5524": " ink",
  "5525": "cels",
  "5526": " hare",
  "5527": " haught",
  "5528": " habit",
  "5529": "ayed",
  "5530": " noted",
  "5531": "chief",
  "5532": "keley",
  "5533": " weal",
  "5534": " wealth",
  "5535": "oops",
  "5536": "hern",
  "5537": " withdraw",
  "5538": "rif",
  "5539": "rich",
  "5540": "rible",
  "5541": " stale",
  "5542": " stern",
  "5543": " stomach",
  "5544": "order",
  "5545": "INE",
  "5546": "rage",
  "5547": " livery",
  "5548": " liking",
  "5549": "urg",
  "5550": "urrey",
  "5551": " deaf",
  "5552": " share",
  "5553": " shapes",
  "5554": " dove",
  "5555": " dogs",
  "5556": " dozen",
  "5557": " wills",
  "5558": "ushing",
  "5559": " suits",
  "5560": " hers",
  "5561": " anointed",
  "5562": "ardel",
  "5563": " spit",
  "5564": " spect",
  "5565": " shallow",
  "5566": " County",
  "5567": " neat",
  "5568": " vent",
  "5569": " shook",
  "5570": " shines",
  "5571": " upright",
  "5572": " goods",
  "5573": " prime",
  "5574": " amiss",
  "5575": "icate",
  "5576": "icio",
  "5577": " conceive",
  "5578": "iege",
  "5579": " blast",
  "5580": " Gree",
  "5581": "emper",
  "5582": " godd",
  "5583": "aughan",
  "5584": " sirs",
  "5585": "ola",
  "5586": "olved",
  "5587": " Licio",
  "5588": " thereby",
  "5589": "ept",
  "5590": "eping",
  "5591": " swore",
  "5592": " sweat",
  "5593": " orn",
  "5594": " Sc",
  "5595": " Sp",
  "5596": " See",
  "5597": " Shore",
  "5598": " Off",
  "5599": " Br",
  "5600": " By",
  "5601": " arrest",
  "5602": " lets",
  "5603": " unst",
  "5604": " unse",
  "5605": " unfe",
  "5606": " worm",
  "5607": " Val",
  "5608": "aker",
  "5609": " hop",
  "5610": " likely",
  "5611": "ueen",
  "5612": " proclam",
  "5613": " Please",
  "5614": " PETER",
  "5615": " sav",
  "5616": " madness",
  "5617": "umbling",
  "5618": " places",
  "5619": "iced",
  "5620": " Wilt",
  "5621": " eng",
  "5622": "unate",
  "5623": " rans",
  "5624": " trunk",
  "5625": " somewhat",
  "5626": "harged",
  "5627": "orney",
  "5628": " offices",
  "5629": " disgra",
  "5630": " alms",
  "5631": " abuse",
  "5632": " exam",
  "5633": " telling",
  "5634": " looked",
  "5635": " thinking",
  "5636": " whereon",
  "5637": "agues",
  "5638": "Whereto",
  "5639": " flow",
  "5640": " flint",
  "5641": " flourish",
  "5642": " fearing",
  "5643": "bert",
  "5644": " breed",
  "5645": " greatness",
  "5646": " parted",
  "5647": " pernicious",
  "5648": " troop",
  "5649": " troops",
  "5650": "lied",
  "5651": " scatter",
  "5652": "ainty",
  "5653": " Fare",
  "5654": "ables",
  "5655": " appea",
  "5656": " graced",
  "5657": " begu",
  "5658": " beget",
  "5659": "rank",
  "5660": " childish",
  "5661": " reply",
  "5662": " consort",
  "5663": "loves",
  "5664": "ercing",
  "5665": "cheth",
  "5666": " trif",
  "5667": "ontes",
  "5668": " price",
  "5669": " subd",
  "5670": " backs",
  "5671": "twill",
  "5672": " forthwith",
  "5673": " bank",
  "5674": " cheap",
  "5675": " charm",
  "5676": " laws",
  "5677": " confirm",
  "5678": " coll",
  "5679": " lightning",
  "5680": "Does",
  "5681": " royalty",
  "5682": " Anne",
  "5683": " besides",
  "5684": " happily",
  "5685": " sorrows",
  "5686": " careful",
  "5687": " lesser",
  "5688": " strive",
  "5689": " sleeping",
  "5690": " drag",
  "5691": " serp",
  "5692": " boast",
  "5693": "pense",
  "5694": " wanting",
  "5695": " breathing",
  "5696": " discourse",
  "5697": " senseless",
  "5698": " beaut",
  "5699": " hangs",
  "5700": " depend",
  "5701": "hamed",
  "5702": " grew",
  "5703": " spoil",
  "5704": " drunken",
  "5705": " affords",
  "5706": " metal",
  "5707": " sooner",
  "5708": "IDAM",
  "5709": " sights",
  "5710": " monster",
  "5711": " monarch",
  "5712": "acles",
  "5713": " sadness",
  "5714": " suffic",
  "5715": " carried",
  "5716": " execute",
  "5717": " executed",
  "5718": " minute",
  "5719": " vel",
  "5720": " coronation",
  "5721": " praises",
  "5722": " waves",
  "5723": " burnt",
  "5724": " liberal",
  "5725": " burns",
  "5726": " burning",
  "5727": " proport",
  "5728": " blessing",
  "5729": " bleeding",
  "5730": " estim",
  "5731": " bitterly",
  "5732": "mbles",
  "5733": "speak",
  "5734": " limit",
  "5735": " limbs",
  "5736": " sacrif",
  "5737": " succession",
  "5738": " actions",
  "5739": " caps",
  "5740": " violence",
  "5741": " triumphant",
  "5742": " midnight",
  "5743": " rebels",
  "5744": " possession",
  "5745": "Play",
  "5746": " torch",
  "5747": " caitiff",
  "5748": " pitiful",
  "5749": " injury",
  "5750": " urge",
  "5751": " executioner",
  "5752": "March",
  "5753": "Marcius",
  "5754": " meddle",
  "5755": " occup",
  "5756": " nobility",
  "5757": " churchyard",
  "5758": " ignorance",
  "5759": " saints",
  "5760": "headed",
  "5761": " Caesar",
  "5762": " rank",
  "5763": " guests",
  "5764": " William",
  "5765": " hungry",
  "5766": " unfold",
  "5767": " months",
  "5768": " extremity",
  "5769": " inclined",
  "5770": " covert",
  "5771": " joints",
  "5772": " prevented",
  "5773": " tyrann",
  "5774": " lengthen",
  "5775": " wager",
  "5776": " necessity",
  "5777": " substance",
  "5778": " escape",
  "5779": " senses",
  "5780": " statue",
  "5781": " conjure",
  "5782": " bands",
  "5783": " weapon",
  "5784": " steps",
  "5785": " angel",
  "5786": " transport",
  "5787": " threatening",
  "5788": " wolf",
  "5789": " censure",
  "5790": "ribunes",
  "5791": "ARCHIDAM",
  "5792": " Dido",
  "5793": " Elbow",
  "5794": " apprehend",
  "5795": " immortal",
  "5796": " tapster",
  "5797": " moral",
  "5798": " Berkeley",
  "5799": " jewel",
  "5800": " ruthless",
  "5801": " dispersed",
  "5802": " clamour",
  "5803": " rapier",
  "5804": " companion",
  "5805": "Strike",
  "5806": " opposite",
  "5807": " zeal",
  "5808": " cherish",
  "5809": " stretch",
  "5810": "ambio",
  "5811": " spleen",
  "5812": " character",
  "5813": " prettiest",
  "5814": " rejoice",
  "5815": " birds",
  "5816": " challenge",
  "5817": " peevish",
  "5818": " likeness",
  "5819": " Laurence",
  "5820": " officers",
  "5821": " warriors",
  "5822": " commonwealth",
  "5823": " sepulchre",
  "5824": "BARNARD",
  "5825": "RUTLAND",
  "5826": "scalus",
  "5827": " bottom",
  "5828": " nuptial",
  "5829": " giddy",
  "5830": " Officer",
  "5831": " Wiltshire",
  "5832": "ARCHIDAMUS",
  "5833": "BARNARDINE",
  "5834": " ice",
  "5835": " ought",
  "5836": " Thy",
  "5837": " eter",
  "5838": "ATER",
  "5839": "Add",
  "5840": "Bre",
  "5841": "Bra",
  "5842": "BAN",
  "5843": "CRO",
  "5844": "Content",
  "5845": "Ever",
  "5846": "Eng",
  "5847": "Else",
  "5848": "EPH",
  "5849": "Full",
  "5850": "False",
  "5851": "Follow",
  "5852": "GO",
  "5853": "Ga",
  "5854": "Gard",
  "5855": "Gentleman",
  "5856": "Hic",
  "5857": "Henry",
  "5858": "Hortensio",
  "5859": "Lu",
  "5860": "Live",
  "5861": "Mis",
  "5862": "MOR",
  "5863": "Much",
  "5864": "Name",
  "5865": "Old",
  "5866": "Patience",
  "5867": "Persu",
  "5868": "Qu",
  "5869": "Saw",
  "5870": "Six",
  "5871": "SIR",
  "5872": "TON",
  "5873": "Toward",
  "5874": "TMOR",
  "5875": "Virt",
  "5876": "Wr",
  "5877": "WES",
  "5878": "Woe",
  "5879": "Women",
  "5880": "WATER",
  "5881": "Yield",
  "5882": "ZWATER",
  "5883": "ald",
  "5884": "aven",
  "5885": "back",
  "5886": "cor",
  "5887": "cus",
  "5888": "call",
  "5889": "cap",
  "5890": "cont",
  "5891": "cons",
  "5892": "ded",
  "5893": "dal",
  "5894": "fri",
  "5895": "gged",
  "5896": "horse",
  "5897": "iban",
  "5898": "light",
  "5899": "may",
  "5900": "nant",
  "5901": "pray",
  "5902": "ront",
  "5903": "sen",
  "5904": "vided",
  "5905": "wd",
  "5906": "wing",
  "5907": "water",
  "5908": "zed",
  "5909": " tard",
  "5910": " tack",
  "5911": " tree",
  "5912": " tied",
  "5913": " tired",
  "5914": " takest",
  "5915": " ah",
  "5916": " aud",
  "5917": " aged",
  "5918": "oured",
  "5919": " sed",
  "5920": " sess",
  "5921": " sau",
  "5922": " sings",
  "5923": " sought",
  "5924": " sides",
  "5925": " surp",
  "5926": " silly",
  "5927": " mat",
  "5928": " mour",
  "5929": " mould",
  "5930": "iners",
  "5931": " wet",
  "5932": " wave",
  "5933": " waked",
  "5934": "reet",
  "5935": "reant",
  "5936": "habit",
  "5937": " bay",
  "5938": " bill",
  "5939": " bent",
  "5940": " bru",
  "5941": " bol",
  "5942": " balm",
  "5943": "ishes",
  "5944": "isement",
  "5945": "orth",
  "5946": "oriz",
  "5947": " fin",
  "5948": " fant",
  "5949": " fray",
  "5950": " fever",
  "5951": " felt",
  "5952": " fardel",
  "5953": "erily",
  "5954": "itch",
  "5955": "oned",
  "5956": "onus",
  "5957": "onstant",
  "5958": " cat",
  "5959": " cent",
  "5960": " cook",
  "5961": "envol",
  "5962": " nar",
  "5963": " lour",
  "5964": " lun",
  "5965": "arm",
  "5966": " omit",
  "5967": " tops",
  "5968": " por",
  "5969": " pill",
  "5970": " pent",
  "5971": " phi",
  "5972": " pick",
  "5973": " pace",
  "5974": " paint",
  "5975": " paid",
  "5976": " push",
  "5977": " palm",
  "5978": " pomp",
  "5979": " In",
  "5980": " hera",
  "5981": " height",
  "5982": "omes",
  "5983": " gn",
  "5984": " gap",
  "5985": " gains",
  "5986": " goose",
  "5987": "athe",
  "5988": "athed",
  "5989": " beams",
  "5990": "sec",
  "5991": "seem",
  "5992": " inv",
  "5993": " hail",
  "5994": "iring",
  "5995": "ednes",
  "5996": "uts",
  "5997": "utch",
  "5998": " mew",
  "5999": " memb",
  "6000": " issu",
  "6001": " forty",
  "6002": " week",
  "6003": "ently",
  "6004": "riel",
  "6005": " stead",
  "6006": " hist",
  "6007": " rend",
  "6008": " rear",
  "6009": " reach",
  "6010": " revel",
  "6011": "raid",
  "6012": " lions",
  "6013": " likes",
  "6014": " livest",
  "6015": "urgh",
  "6016": "urtis",
  "6017": "alter",
  "6018": " soil",
  "6019": " soci",
  "6020": " aspect",
  "6021": " ashamed",
  "6022": " dem",
  "6023": " depose",
  "6024": "rog",
  "6025": "ARLIS",
  "6026": "hire",
  "6027": "verty",
  "6028": " butt",
  "6029": " severe",
  "6030": " seated",
  "6031": "Thine",
  "6032": "Things",
  "6033": " alleg",
  "6034": " herd",
  "6035": "three",
  "6036": " anch",
  "6037": "tering",
  "6038": " load",
  "6039": " lock",
  "6040": " lovers",
  "6041": "ellows",
  "6042": " spread",
  "6043": " ourself",
  "6044": " favours",
  "6045": "ilful",
  "6046": "iliar",
  "6047": " Curtis",
  "6048": " CARLIS",
  "6049": " Ratcliff",
  "6050": " Raven",
  "6051": " vast",
  "6052": "ORGE",
  "6053": " shru",
  "6054": " shrift",
  "6055": "arted",
  "6056": " Mistress",
  "6057": " Em",
  "6058": " Ely",
  "6059": " ELY",
  "6060": " Escalus",
  "6061": " amain",
  "6062": " amends",
  "6063": " ambit",
  "6064": " amorous",
  "6065": " consequ",
  "6066": "iece",
  "6067": " Green",
  "6068": " shel",
  "6069": " goss",
  "6070": "arers",
  "6071": "olks",
  "6072": " Look",
  "6073": " knowing",
  "6074": "resh",
  "6075": " swears",
  "6076": " brat",
  "6077": " Shall",
  "6078": " Surrey",
  "6079": " SCRO",
  "6080": " Our",
  "6081": " Bushy",
  "6082": " Burg",
  "6083": " array",
  "6084": " une",
  "6085": " unm",
  "6086": " unre",
  "6087": "igent",
  "6088": "igonus",
  "6089": " Him",
  "6090": " Hark",
  "6091": " Huntsman",
  "6092": " Vaughan",
  "6093": "elsh",
  "6094": "eliver",
  "6095": "LIBAN",
  "6096": " grain",
  "6097": " hoar",
  "6098": " likewise",
  "6099": " proved",
  "6100": " process",
  "6101": " prodig",
  "6102": "umed",
  "6103": " Was",
  "6104": " Would",
  "6105": " Welsh",
  "6106": "isting",
  "6107": " enc",
  "6108": "uns",
  "6109": " rate",
  "6110": " rouse",
  "6111": " poverty",
  "6112": " speaking",
  "6113": " outrage",
  "6114": "ELAND",
  "6115": "ickle",
  "6116": "CALIBAN",
  "6117": "Withdraw",
  "6118": "igned",
  "6119": " mars",
  "6120": " marvel",
  "6121": " marvell",
  "6122": " disin",
  "6123": " disease",
  "6124": " abund",
  "6125": " robb",
  "6126": " except",
  "6127": "agot",
  "6128": "aged",
  "6129": " desc",
  "6130": " riches",
  "6131": "Whereof",
  "6132": " slight",
  "6133": " slipp",
  "6134": " flat",
  "6135": " betide",
  "6136": " bread",
  "6137": "Behold",
  "6138": " couple",
  "6139": " parties",
  "6140": " partner",
  "6141": "idered",
  "6142": " clock",
  "6143": " prefer",
  "6144": " sweetly",
  "6145": " Dian",
  "6146": "ulls",
  "6147": " written",
  "6148": " scratch",
  "6149": " presume",
  "6150": " preserve",
  "6151": " nights",
  "6152": " worldly",
  "6153": "perience",
  "6154": " rack",
  "6155": " raven",
  "6156": "them",
  "6157": " FIT",
  "6158": "ably",
  "6159": " downright",
  "6160": " contro",
  "6161": "BAGO",
  "6162": "ranch",
  "6163": " imper",
  "6164": " reputation",
  "6165": " afraid",
  "6166": " mightst",
  "6167": " stays",
  "6168": " rue",
  "6169": " leg",
  "6170": " lect",
  "6171": " lewd",
  "6172": "loso",
  "6173": " restore",
  "6174": " entrance",
  "6175": " tricks",
  "6176": " moves",
  "6177": " bestow",
  "6178": " accom",
  "6179": " ended",
  "6180": " purge",
  "6181": " purple",
  "6182": " putting",
  "6183": "Prove",
  "6184": "Proceed",
  "6185": "Proclaim",
  "6186": " smil",
  "6187": " smother",
  "6188": " train",
  "6189": " travell",
  "6190": " bidding",
  "6191": " drew",
  "6192": " earthly",
  "6193": " couldst",
  "6194": " tren",
  "6195": " hopeful",
  "6196": "GEORGE",
  "6197": " brains",
  "6198": " cheque",
  "6199": " bridal",
  "6200": " confound",
  "6201": "being",
  "6202": " cop",
  "6203": " coat",
  "6204": " misfortune",
  "6205": " landed",
  "6206": "blood",
  "6207": " falcon",
  "6208": " falls",
  "6209": " busy",
  "6210": "Another",
  "6211": " strict",
  "6212": " counsell",
  "6213": " courtier",
  "6214": " courteous",
  "6215": " buzz",
  "6216": " attain",
  "6217": " attorney",
  "6218": "erest",
  "6219": " sounds",
  "6220": " sounded",
  "6221": " retired",
  "6222": " advised",
  "6223": " revenges",
  "6224": " straw",
  "6225": "Although",
  "6226": " prompt",
  "6227": " cram",
  "6228": " contents",
  "6229": " villains",
  "6230": " integ",
  "6231": " kisses",
  "6232": "aptain",
  "6233": " yields",
  "6234": "upid",
  "6235": " winters",
  "6236": " lambs",
  "6237": " beats",
  "6238": " beaten",
  "6239": "acy",
  "6240": "undy",
  "6241": "unday",
  "6242": "ventry",
  "6243": " chosen",
  "6244": "Hadst",
  "6245": " entreaties",
  "6246": " devilish",
  "6247": " boldly",
  "6248": " wooing",
  "6249": " infer",
  "6250": "Becomes",
  "6251": "guard",
  "6252": " readiness",
  "6253": " profane",
  "6254": " divor",
  "6255": " youthful",
  "6256": "Comes",
  "6257": "Comfort",
  "6258": " term",
  "6259": " suitors",
  "6260": " stops",
  "6261": " cloudy",
  "6262": " musicians",
  "6263": " droop",
  "6264": " wax",
  "6265": " grieves",
  "6266": " grieved",
  "6267": "chers",
  "6268": " skill",
  "6269": " signal",
  "6270": " signify",
  "6271": " cheerly",
  "6272": " prophes",
  "6273": " extreme",
  "6274": " troubl",
  "6275": " satisfaction",
  "6276": " darkness",
  "6277": " exped",
  "6278": " flattering",
  "6279": " embra",
  "6280": " esteem",
  "6281": " bowels",
  "6282": " frail",
  "6283": " hurl",
  "6284": " towns",
  "6285": " suddenly",
  "6286": "spurgh",
  "6287": " cowardly",
  "6288": " lamentable",
  "6289": " owes",
  "6290": " eaten",
  "6291": " kinsmen",
  "6292": " middle",
  "6293": " destruction",
  "6294": " departure",
  "6295": "Plantagenet",
  "6296": "Whiles",
  "6297": " fondly",
  "6298": " usurping",
  "6299": "Above",
  "6300": "ossess",
  "6301": " mildness",
  "6302": " insol",
  "6303": " gladly",
  "6304": "mediate",
  "6305": " apace",
  "6306": " ships",
  "6307": " shop",
  "6308": " shoes",
  "6309": " obsequ",
  "6310": " treasons",
  "6311": " condemned",
  "6312": " troubled",
  "6313": " lists",
  "6314": " storms",
  "6315": " temples",
  "6316": " mutinous",
  "6317": " petty",
  "6318": " conquest",
  "6319": " grandam",
  "6320": " grandsire",
  "6321": " eldest",
  "6322": " Antigonus",
  "6323": "Disp",
  "6324": "EXTON",
  "6325": " bastards",
  "6326": " helps",
  "6327": " amongst",
  "6328": " provide",
  "6329": " greeting",
  "6330": " ministers",
  "6331": "Neither",
  "6332": "where",
  "6333": " conclud",
  "6334": " conclude",
  "6335": " dismiss",
  "6336": "Officer",
  "6337": " imagine",
  "6338": " acquainted",
  "6339": " gifts",
  "6340": " ghostly",
  "6341": " behavior",
  "6342": " eleven",
  "6343": " robes",
  "6344": " designs",
  "6345": " tempted",
  "6346": " heavier",
  "6347": " errand",
  "6348": "Perhaps",
  "6349": " wandering",
  "6350": " detest",
  "6351": " weapons",
  "6352": " vanity",
  "6353": " accusation",
  "6354": "Shalt",
  "6355": " frost",
  "6356": " persuade",
  "6357": " discontented",
  "6358": "Appear",
  "6359": " testim",
  "6360": " hazard",
  "6361": " Caliban",
  "6362": " Blunt",
  "6363": " keys",
  "6364": " instantly",
  "6365": "iveness",
  "6366": " figure",
  "6367": " furnish",
  "6368": " parents",
  "6369": " recompense",
  "6370": " nobleness",
  "6371": " Coventry",
  "6372": " STEPH",
  "6373": " provoked",
  "6374": " intelligence",
  "6375": " fiend",
  "6376": " ceremon",
  "6377": "advised",
  "6378": " reckon",
  "6379": " Leontes",
  "6380": " reconcile",
  "6381": " unkindness",
  "6382": " pilgrimage",
  "6383": " complexion",
  "6384": " Queen",
  "6385": " seized",
  "6386": " neglect",
  "6387": " varlet",
  "6388": " Minola",
  "6389": " Venice",
  "6390": " blemish",
  "6391": " freedom",
  "6392": " thieves",
  "6393": " goddess",
  "6394": " proclamation",
  "6395": " savage",
  "6396": " ransom",
  "6397": " example",
  "6398": " velvet",
  "6399": " proportion",
  "6400": " tyrannous",
  "6401": "Gaoler",
  "6402": "Gardener",
  "6403": "Lucentio",
  "6404": "Towards",
  "6405": "TMORELAND",
  "6406": "WESTMORELAND",
  "6407": "envolio",
  "6408": " narrow",
  "6409": " philoso",
  "6410": " herald",
  "6411": "ednesday",
  "6412": " members",
  "6413": " allegiance",
  "6414": " CARLISLE",
  "6415": " Ravenspurgh",
  "6416": " ambitious",
  "6417": " SCROOP",
  "6418": " Burgundy",
  "6419": " FITZWATER",
  "6420": "BAGOT",
  "6421": " integrity",
  "6422": " STEPHEN",
  "6423": " philosophy",
  "6424": " First",
  "6425": "Ac",
  "6426": "Af",
  "6427": "Bound",
  "6428": "Ca",
  "6429": "Cont",
  "6430": "Camillo",
  "6431": "Catesby",
  "6432": "Dep",
  "6433": "Div",
  "6434": "Fore",
  "6435": "Five",
  "6436": "Fall",
  "6437": "Foul",
  "6438": "Fetch",
  "6439": "Gra",
  "6440": "Gives",
  "6441": "Grace",
  "6442": "Hie",
  "6443": "Harry",
  "6444": "Hang",
  "6445": "Justice",
  "6446": "Kind",
  "6447": "Lies",
  "6448": "Lead",
  "6449": "Mur",
  "6450": "Part",
  "6451": "Peter",
  "6452": "Rel",
  "6453": "Sit",
  "6454": "Send",
  "6455": "Ten",
  "6456": "Tra",
  "6457": "Talk",
  "6458": "Touch",
  "6459": "Teach",
  "6460": "Truly",
  "6461": "Vouchsafe",
  "6462": "Verily",
  "6463": "Wert",
  "6464": "Zounds",
  "6465": "av",
  "6466": "ape",
  "6467": "aving",
  "6468": "bes",
  "6469": "bour",
  "6470": "bell",
  "6471": "board",
  "6472": "cat",
  "6473": "cock",
  "6474": "down",
  "6475": "ech",
  "6476": "eves",
  "6477": "gic",
  "6478": "gues",
  "6479": "hors",
  "6480": "ipt",
  "6481": "join",
  "6482": "kest",
  "6483": "know",
  "6484": "lor",
  "6485": "len",
  "6486": "low",
  "6487": "lain",
  "6488": "last",
  "6489": "lace",
  "6490": "lock",
  "6491": "liness",
  "6492": "longs",
  "6493": "met",
  "6494": "miss",
  "6495": "mistress",
  "6496": "nib",
  "6497": "ob",
  "6498": "oble",
  "6499": "open",
  "6500": "post",
  "6501": "pite",
  "6502": "pular",
  "6503": "pothecary",
  "6504": "ris",
  "6505": "rish",
  "6506": "roof",
  "6507": "sent",
  "6508": "tin",
  "6509": "ted",
  "6510": "tell",
  "6511": "tong",
  "6512": "tied",
  "6513": "trees",
  "6514": "uge",
  "6515": "uild",
  "6516": "ually",
  "6517": "vir",
  "6518": "wh",
  "6519": "wer",
  "6520": "was",
  "6521": "work",
  "6522": "women",
  "6523": "ycor",
  "6524": " trow",
  "6525": " tie",
  "6526": " torn",
  "6527": " taking",
  "6528": "heard",
  "6529": " afe",
  "6530": " sow",
  "6531": " sand",
  "6532": " song",
  "6533": " sixt",
  "6534": " mom",
  "6535": " mas",
  "6536": " mouse",
  "6537": " mates",
  "6538": " murde",
  "6539": " mask",
  "6540": "inu",
  "6541": "inal",
  "6542": "inies",
  "6543": "inces",
  "6544": " wore",
  "6545": " wipe",
  "6546": "had",
  "6547": "hage",
  "6548": " bot",
  "6549": " bul",
  "6550": " bows",
  "6551": " bail",
  "6552": " bounty",
  "6553": " fre",
  "6554": " fan",
  "6555": " fif",
  "6556": " fil",
  "6557": " frant",
  "6558": " fount",
  "6559": " fift",
  "6560": " fingers",
  "6561": " frank",
  "6562": " folks",
  "6563": "onio",
  "6564": " dot",
  "6565": " dine",
  "6566": " dried",
  "6567": " dined",
  "6568": " dash",
  "6569": " diest",
  "6570": " drift",
  "6571": " cord",
  "6572": " cro",
  "6573": " cab",
  "6574": " cool",
  "6575": " crows",
  "6576": " cords",
  "6577": "ening",
  "6578": "ened",
  "6579": "enches",
  "6580": " nort",
  "6581": " nigh",
  "6582": " named",
  "6583": " nimble",
  "6584": " lute",
  "6585": " lads",
  "6586": " lying",
  "6587": " linger",
  "6588": " thw",
  "6589": " thrown",
  "6590": " hill",
  "6591": " pow",
  "6592": " pour",
  "6593": " pest",
  "6594": " pant",
  "6595": " pup",
  "6596": " pict",
  "6597": " heel",
  "6598": " heinous",
  "6599": "otland",
  "6600": " gust",
  "6601": " gather",
  "6602": " gaunt",
  "6603": " beef",
  "6604": "see",
  "6605": " inward",
  "6606": " hag",
  "6607": " haunt",
  "6608": "lect",
  "6609": "aying",
  "6610": "etition",
  "6611": " meed",
  "6612": " meal",
  "6613": "iments",
  "6614": " notice",
  "6615": " forso",
  "6616": " ug",
  "6617": " wears",
  "6618": " eight",
  "6619": " eff",
  "6620": "advent",
  "6621": "ril",
  "6622": "rial",
  "6623": " stink",
  "6624": " stag",
  "6625": " steep",
  "6626": " stiff",
  "6627": " kites",
  "6628": "iders",
  "6629": "asant",
  "6630": " rein",
  "6631": " revive",
  "6632": "rament",
  "6633": " lick",
  "6634": " lief",
  "6635": "urb",
  "6636": "uring",
  "6637": "alks",
  "6638": " ashes",
  "6639": " assem",
  "6640": " deer",
  "6641": " dece",
  "6642": " deform",
  "6643": "roach",
  "6644": " shade",
  "6645": " dole",
  "6646": "amy",
  "6647": "amity",
  "6648": "aments",
  "6649": " nod",
  "6650": " noon",
  "6651": "ushi",
  "6652": "anders",
  "6653": " search",
  "6654": "Throw",
  "6655": " ann",
  "6656": " ancest",
  "6657": " lodge",
  "6658": " loathed",
  "6659": "ella",
  "6660": " spark",
  "6661": " spider",
  "6662": " spurs",
  "6663": " Cambio",
  "6664": " Cupid",
  "6665": " vul",
  "6666": " vass",
  "6667": " vouch",
  "6668": " vial",
  "6669": " venture",
  "6670": "ctor",
  "6671": "ousins",
  "6672": " whatsoever",
  "6673": " shot",
  "6674": " shown",
  "6675": "ules",
  "6676": "arthage",
  "6677": " prate",
  "6678": " print",
  "6679": " prating",
  "6680": " manhood",
  "6681": " Even",
  "6682": " amaz",
  "6683": "icle",
  "6684": "ication",
  "6685": "ived",
  "6686": "ively",
  "6687": " blot",
  "6688": " blue",
  "6689": " blown",
  "6690": " bliss",
  "6691": " blaze",
  "6692": " blushing",
  "6693": "embroke",
  "6694": " theme",
  "6695": " Love",
  "6696": " thereto",
  "6697": " canop",
  "6698": "eptune",
  "6699": " herein",
  "6700": " swoon",
  "6701": " branch",
  "6702": " orator",
  "6703": " Sly",
  "6704": " Sunday",
  "6705": " Sycor",
  "6706": " Bagot",
  "6707": " Benvolio",
  "6708": " arise",
  "6709": " unlike",
  "6710": " unruly",
  "6711": " worms",
  "6712": " worser",
  "6713": " Have",
  "6714": " mustard",
  "6715": " graces",
  "6716": " seeks",
  "6717": " likeli",
  "6718": " shoulders",
  "6719": " Poor",
  "6720": " sack",
  "6721": " saved",
  "6722": " plan",
  "6723": "peian",
  "6724": " West",
  "6725": " Wednesday",
  "6726": " enforced",
  "6727": " enrich",
  "6728": "unis",
  "6729": "uned",
  "6730": "fulness",
  "6731": " rhe",
  "6732": " ranc",
  "6733": " rush",
  "6734": " roof",
  "6735": " rushes",
  "6736": " pock",
  "6737": " popular",
  "6738": "death",
  "6739": "ption",
  "6740": " offences",
  "6741": " diso",
  "6742": " alar",
  "6743": " aloud",
  "6744": " also",
  "6745": "ABRA",
  "6746": " brotherhood",
  "6747": " fox",
  "6748": " roses",
  "6749": " roaring",
  "6750": " exceed",
  "6751": " rig",
  "6752": " leap",
  "6753": " leaving",
  "6754": " slily",
  "6755": " flock",
  "6756": " Time",
  "6757": " Tew",
  "6758": " Troy",
  "6759": " Tullus",
  "6760": " Tribunes",
  "6761": "ffic",
  "6762": " Kent",
  "6763": " commends",
  "6764": " cler",
  "6765": " sweetest",
  "6766": " plebe",
  "6767": " perfection",
  "6768": " wring",
  "6769": "awful",
  "6770": " trim",
  "6771": " otherwise",
  "6772": " meaner",
  "6773": "lier",
  "6774": " score",
  "6775": " nighting",
  "6776": " race",
  "6777": "Thank",
  "6778": "these",
  "6779": " Fourth",
  "6780": " downfall",
  "6781": "together",
  "6782": " appears",
  "6783": " contri",
  "6784": "GREY",
  "6785": " whist",
  "6786": "Northumberland",
  "6787": " mothers",
  "6788": " everlast",
  "6789": "ksbury",
  "6790": " Jup",
  "6791": " rum",
  "6792": " peer",
  "6793": " level",
  "6794": " harl",
  "6795": " harvest",
  "6796": " harbour",
  "6797": " rests",
  "6798": " settled",
  "6799": "attern",
  "6800": "oses",
  "6801": " moe",
  "6802": " moving",
  "6803": " moiety",
  "6804": " bestri",
  "6805": " henceforth",
  "6806": " accomp",
  "6807": " faced",
  "6808": "ulting",
  "6809": " endured",
  "6810": " pursue",
  "6811": " compare",
  "6812": " compound",
  "6813": " champ",
  "6814": " dearth",
  "6815": "twould",
  "6816": " trees",
  "6817": " homely",
  "6818": " brand",
  "6819": "isterous",
  "6820": " charges",
  "6821": " chances",
  "6822": " changing",
  "6823": " confidence",
  "6824": " confeder",
  "6825": " coast",
  "6826": " cozen",
  "6827": " impeach",
  "6828": " lights",
  "6829": " royalties",
  "6830": " beside",
  "6831": " fully",
  "6832": " devour",
  "6833": " wronged",
  "6834": " mischief",
  "6835": " lasting",
  "6836": "blance",
  "6837": " afterward",
  "6838": " thousands",
  "6839": " holding",
  "6840": " patron",
  "6841": " fallen",
  "6842": " falling",
  "6843": " strife",
  "6844": "ivant",
  "6845": " humility",
  "6846": " belong",
  "6847": " believed",
  "6848": " talking",
  "6849": " grim",
  "6850": " grass",
  "6851": " dram",
  "6852": " serious",
  "6853": " boisterous",
  "6854": " advoc",
  "6855": " merchant",
  "6856": " revenue",
  "6857": " doubtful",
  "6858": " dancing",
  "6859": " persons",
  "6860": " discharge",
  "6861": "Attend",
  "6862": " commands",
  "6863": " window",
  "6864": "ittany",
  "6865": " crab",
  "6866": " hangman",
  "6867": " proudest",
  "6868": "Twixt",
  "6869": " intents",
  "6870": " yielding",
  "6871": " breaks",
  "6872": " merri",
  "6873": " temple",
  "6874": " require",
  "6875": " defy",
  "6876": " lately",
  "6877": " tenderness",
  "6878": " sadly",
  "6879": " chose",
  "6880": " growth",
  "6881": " asking",
  "6882": " reported",
  "6883": "shine",
  "6884": " watery",
  "6885": " Montagues",
  "6886": " battles",
  "6887": " crying",
  "6888": " learning",
  "6889": " learned",
  "6890": " entreaty",
  "6891": " devils",
  "6892": " murders",
  "6893": " silk",
  "6894": " boldness",
  "6895": " runs",
  "6896": " revengeful",
  "6897": "Happ",
  "6898": "Happy",
  "6899": "voc",
  "6900": " speedy",
  "6901": " quarter",
  "6902": " confessor",
  "6903": " Ned",
  "6904": " Neptune",
  "6905": " forehead",
  "6906": " terr",
  "6907": " minutes",
  "6908": " recreant",
  "6909": " delicate",
  "6910": " despised",
  "6911": " bosoms",
  "6912": " harmony",
  "6913": " guiltless",
  "6914": " attended",
  "6915": " murderous",
  "6916": " veil",
  "6917": " distra",
  "6918": " distress",
  "6919": " acts",
  "6920": " wonderful",
  "6921": " singular",
  "6922": " musician",
  "6923": " closed",
  "6924": " waits",
  "6925": " burden",
  "6926": " suffering",
  "6927": " breasts",
  "6928": " wedded",
  "6929": " dukes",
  "6930": "shearing",
  "6931": " wisely",
  "6932": " feasts",
  "6933": "eshrew",
  "6934": " groom",
  "6935": " redempt",
  "6936": " beggars",
  "6937": " Fortune",
  "6938": "Read",
  "6939": "Ready",
  "6940": "Swear",
  "6941": " crim",
  "6942": " crook",
  "6943": " crush",
  "6944": "standing",
  "6945": " interrupt",
  "6946": " undo",
  "6947": " evils",
  "6948": " summ",
  "6949": " Volscians",
  "6950": " Volscian",
  "6951": " visitation",
  "6952": " bowl",
  "6953": " baby",
  "6954": " framed",
  "6955": " safely",
  "6956": " safeguard",
  "6957": " knocks",
  "6958": " sacrament",
  "6959": " leaden",
  "6960": " lamentation",
  "6961": " Isabella",
  "6962": " ignoble",
  "6963": " clean",
  "6964": " oppression",
  "6965": " approved",
  "6966": " approbation",
  "6967": " complaint",
  "6968": " drinking",
  "6969": " surfeit",
  "6970": " midst",
  "6971": " midwife",
  "6972": " destiny",
  "6973": " smallest",
  "6974": "Confess",
  "6975": " easily",
  "6976": "Stands",
  "6977": " damnable",
  "6978": " utmost",
  "6979": " mildly",
  "6980": " causes",
  "6981": " puiss",
  "6982": " pitied",
  "6983": " injustice",
  "6984": " insinu",
  "6985": " proceedings",
  "6986": " apart",
  "6987": " medic",
  "6988": " model",
  "6989": " familiar",
  "6990": " reigns",
  "6991": " prosperity",
  "6992": " lenity",
  "6993": " lowly",
  "6994": "angling",
  "6995": " bending",
  "6996": " slanderous",
  "6997": " Capulets",
  "6998": " mountain",
  "6999": " unpro",
  "7000": " unworthy",
  "7001": " provided",
  "7002": " plants",
  "7003": " neighbours",
  "7004": " glasses",
  "7005": " extremes",
  "7006": "when",
  "7007": " conclusion",
  "7008": " imagination",
  "7009": "rateful",
  "7010": " unlook",
  "7011": " unluck",
  "7012": " Alban",
  "7013": "govern",
  "7014": " avoided",
  "7015": " eager",
  "7016": " loathsome",
  "7017": " loyalty",
  "7018": " aims",
  "7019": " sensible",
  "7020": " crept",
  "7021": " pilot",
  "7022": " statutes",
  "7023": " chiefest",
  "7024": "cannot",
  "7025": " calamity",
  "7026": " pinch",
  "7027": " infected",
  "7028": " stocks",
  "7029": " dearer",
  "7030": " angels",
  "7031": " lodged",
  "7032": " lodging",
  "7033": " pursuit",
  "7034": " conqueror",
  "7035": "Prepare",
  "7036": " tutor",
  "7037": " fleet",
  "7038": " frozen",
  "7039": "ARCHBISHOP",
  "7040": " advanced",
  "7041": " corruption",
  "7042": " magist",
  "7043": " concerns",
  "7044": " cloak",
  "7045": " whoreson",
  "7046": " compassion",
  "7047": "bric",
  "7048": " stolen",
  "7049": " springs",
  "7050": " swelling",
  "7051": " abhorr",
  "7052": " adverse",
  "7053": " perjured",
  "7054": "Suppose",
  "7055": " multitude",
  "7056": " nails",
  "7057": " linea",
  "7058": " piercing",
  "7059": " inquire",
  "7060": " climate",
  "7061": " wrinkled",
  "7062": " whispering",
  "7063": " correction",
  "7064": " Antium",
  "7065": " circumstance",
  "7066": "Lieutenant",
  "7067": "Sometime",
  "7068": "craft",
  "7069": "favour",
  "7070": " taunts",
  "7071": " moody",
  "7072": " steward",
  "7073": " manifest",
  "7074": " branches",
  "7075": " unwilling",
  "7076": " Tarpeian",
  "7077": " incensed",
  "7078": " substitute",
  "7079": " flatterers",
  "7080": "Mistake",
  "7081": " tiger",
  "7082": " milk",
  "7083": " numbers",
  "7084": " hinder",
  "7085": " pearl",
  "7086": " bereft",
  "7087": " ornaments",
  "7088": " Brittany",
  "7089": " unseen",
  "7090": " disgraced",
  "7091": " trifles",
  "7092": " serpent",
  "7093": " sufficient",
  "7094": " estimation",
  "7095": " occupation",
  "7096": " eternal",
  "7097": "Break",
  "7098": "Virtue",
  "7099": " tardy",
  "7100": " surpr",
  "7101": " fantast",
  "7102": " lunatic",
  "7103": " history",
  "7104": " consequence",
  "7105": " marshal",
  "7106": " marvellous",
  "7107": " prophesy",
  "7108": " ceremonious",
  "7109": "Murder",
  "7110": " afeard",
  "7111": " sixteen",
  "7112": " moment",
  "7113": " murdered",
  "7114": " frantic",
  "7115": " fifteen",
  "7116": " cabin",
  "7117": " northern",
  "7118": " forsooth",
  "7119": "adventure",
  "7120": " Sycorax",
  "7121": " likelihood",
  "7122": "ABRAHAM",
  "7123": " Tewksbury",
  "7124": " Jupiter",
  "7125": " advocate",
  "7126": " redemption",
  "7127": " U",
  "7128": " ire",
  "7129": " No",
  "7130": " Thus",
  "7131": "Again",
  "7132": "Aff",
  "7133": "AGE",
  "7134": "Aumerle",
  "7135": "Apollo",
  "7136": "Apothecary",
  "7137": "Ban",
  "7138": "BON",
  "7139": "Bold",
  "7140": "Bless",
  "7141": "Cle",
  "7142": "Cast",
  "7143": "Cold",
  "7144": "Carry",
  "7145": "Cursed",
  "7146": "Den",
  "7147": "Dest",
  "7148": "Def",
  "7149": "DION",
  "7150": "Direct",
  "7151": "Er",
  "7152": "End",
  "7153": "Every",
  "7154": "EMI",
  "7155": "Fit",
  "7156": "Fill",
  "7157": "Fourth",
  "7158": "Gain",
  "7159": "Grand",
  "7160": "Groom",
  "7161": "Ho",
  "7162": "Har",
  "7163": "High",
  "7164": "Huntsman",
  "7165": "Imp",
  "7166": "Just",
  "7167": "Join",
  "7168": "Keeper",
  "7169": "Left",
  "7170": "Music",
  "7171": "NATH",
  "7172": "Open",
  "7173": "Obey",
  "7174": "Pres",
  "7175": "PAGE",
  "7176": "Ren",
  "7177": "Run",
  "7178": "Ratcliff",
  "7179": "Sus",
  "7180": "Sic",
  "7181": "Trust",
  "7182": "Ur",
  "7183": "Wife",
  "7184": "Worse",
  "7185": "ais",
  "7186": "aches",
  "7187": "avish",
  "7188": "bon",
  "7189": "bot",
  "7190": "bat",
  "7191": "bid",
  "7192": "bur",
  "7193": "best",
  "7194": "bel",
  "7195": "bles",
  "7196": "bearer",
  "7197": "co",
  "7198": "cis",
  "7199": "cour",
  "7200": "cri",
  "7201": "core",
  "7202": "cast",
  "7203": "count",
  "7204": "cured",
  "7205": "cals",
  "7206": "dra",
  "7207": "dist",
  "7208": "daughter",
  "7209": "door",
  "7210": "duce",
  "7211": "eks",
  "7212": "fly",
  "7213": "fend",
  "7214": "found",
  "7215": "franch",
  "7216": "gea",
  "7217": "gage",
  "7218": "grown",
  "7219": "gled",
  "7220": "greed",
  "7221": "hur",
  "7222": "honour",
  "7223": "iqu",
  "7224": "ivers",
  "7225": "jud",
  "7226": "kn",
  "7227": "kens",
  "7228": "lm",
  "7229": "lu",
  "7230": "leness",
  "7231": "mar",
  "7232": "mal",
  "7233": "make",
  "7234": "mind",
  "7235": "much",
  "7236": "mission",
  "7237": "nut",
  "7238": "name",
  "7239": "never",
  "7240": "nothing",
  "7241": "oa",
  "7242": "og",
  "7243": "overy",
  "7244": "occ",
  "7245": "ops",
  "7246": "opher",
  "7247": "ph",
  "7248": "po",
  "7249": "pre",
  "7250": "por",
  "7251": "put",
  "7252": "phan",
  "7253": "pers",
  "7254": "pres",
  "7255": "pire",
  "7256": "ples",
  "7257": "point",
  "7258": "picious",
  "7259": "sion",
  "7260": "spe",
  "7261": "sick",
  "7262": "sign",
  "7263": "such",
  "7264": "side",
  "7265": "somet",
  "7266": "scape",
  "7267": "ton",
  "7268": "ule",
  "7269": "uish",
  "7270": "uced",
  "7271": "ukes",
  "7272": "vil",
  "7273": "vance",
  "7274": "wit",
  "7275": "who",
  "7276": "why",
  "7277": "weet",
  "7278": "were",
  "7279": "witted",
  "7280": "yp",
  "7281": "yet",
  "7282": " ton",
  "7283": " tur",
  "7284": " tea",
  "7285": " tink",
  "7286": " treat",
  "7287": " tents",
  "7288": " tainted",
  "7289": " tailor",
  "7290": " tamed",
  "7291": " tumble",
  "7292": " ack",
  "7293": " afore",
  "7294": " ape",
  "7295": "ouches",
  "7296": " sith",
  "7297": " sine",
  "7298": " sitting",
  "7299": " siege",
  "7300": " mast",
  "7301": " mant",
  "7302": " muff",
  "7303": " miles",
  "7304": "iner",
  "7305": " wester",
  "7306": " wilful",
  "7307": "reth",
  "7308": "report",
  "7309": "has",
  "7310": "haeth",
  "7311": " bought",
  "7312": " bishop",
  "7313": "isc",
  "7314": "isher",
  "7315": "isome",
  "7316": "oricles",
  "7317": " fet",
  "7318": " fem",
  "7319": " fits",
  "7320": " fulf",
  "7321": "erous",
  "7322": "lly",
  "7323": "lling",
  "7324": "itan",
  "7325": "once",
  "7326": " der",
  "7327": " dom",
  "7328": " ded",
  "7329": " dil",
  "7330": " dame",
  "7331": " diet",
  "7332": " drows",
  "7333": " dumb",
  "7334": " cand",
  "7335": " cave",
  "7336": " cuck",
  "7337": " crest",
  "7338": " crew",
  "7339": " curious",
  "7340": " cushi",
  "7341": " cousins",
  "7342": " non",
  "7343": " naught",
  "7344": " nourish",
  "7345": " link",
  "7346": " lace",
  "7347": " loose",
  "7348": " lung",
  "7349": " lends",
  "7350": " latest",
  "7351": " yare",
  "7352": " yester",
  "7353": " threes",
  "7354": "arison",
  "7355": " hood",
  "7356": " om",
  "7357": " obt",
  "7358": " toe",
  "7359": " token",
  "7360": " toads",
  "7361": " tower",
  "7362": " pine",
  "7363": " pate",
  "7364": " puff",
  "7365": " pedant",
  "7366": " pounds",
  "7367": " pattern",
  "7368": " heal",
  "7369": " heigh",
  "7370": "stra",
  "7371": "stone",
  "7372": "strong",
  "7373": "strel",
  "7374": "owick",
  "7375": "ank",
  "7376": "omenes",
  "7377": " gam",
  "7378": " game",
  "7379": " gaz",
  "7380": " grum",
  "7381": " geld",
  "7382": " gulf",
  "7383": " gloves",
  "7384": "ato",
  "7385": "atient",
  "7386": " beet",
  "7387": " beads",
  "7388": "seth",
  "7389": " inve",
  "7390": " inch",
  "7391": " invent",
  "7392": " inherit",
  "7393": "cel",
  "7394": "ceives",
  "7395": "ceiving",
  "7396": " haw",
  "7397": " hall",
  "7398": " halt",
  "7399": "ediment",
  "7400": " mellow",
  "7401": "imo",
  "7402": "ims",
  "7403": " notes",
  "7404": " notwith",
  "7405": "chool",
  "7406": "child",
  "7407": " forces",
  "7408": "key",
  "7409": " weed",
  "7410": "illed",
  "7411": " elo",
  "7412": " ebb",
  "7413": "herited",
  "7414": "entious",
  "7415": "ado",
  "7416": "adem",
  "7417": "adise",
  "7418": "rion",
  "7419": "riam",
  "7420": "rief",
  "7421": "rieve",
  "7422": " stu",
  "7423": " stem",
  "7424": " stark",
  "7425": " staff",
  "7426": "ghts",
  "7427": "idd",
  "7428": "iding",
  "7429": "asy",
  "7430": "asing",
  "7431": "asures",
  "7432": " rent",
  "7433": " render",
  "7434": " resem",
  "7435": "raken",
  "7436": "rails",
  "7437": " liar",
  "7438": " liqu",
  "7439": "urvy",
  "7440": " solic",
  "7441": " ashore",
  "7442": " deceive",
  "7443": " defect",
  "7444": "aining",
  "7445": "verse",
  "7446": "verdone",
  "7447": "estiv",
  "7448": "eap",
  "7449": "earest",
  "7450": " doct",
  "7451": " doves",
  "7452": " doors",
  "7453": " noses",
  "7454": " butter",
  "7455": "using",
  "7456": "usiness",
  "7457": "ifth",
  "7458": " sear",
  "7459": " sequ",
  "7460": " allay",
  "7461": " allies",
  "7462": " sued",
  "7463": " sung",
  "7464": " sunder",
  "7465": " sugg",
  "7466": " sugar",
  "7467": " herbs",
  "7468": "thw",
  "7469": "throw",
  "7470": "thrift",
  "7471": " answ",
  "7472": " antic",
  "7473": "terate",
  "7474": " loins",
  "7475": " locks",
  "7476": " spar",
  "7477": " sped",
  "7478": " spilt",
  "7479": " spices",
  "7480": " spiders",
  "7481": " faction",
  "7482": " Cle",
  "7483": " Captain",
  "7484": " Carthage",
  "7485": " negl",
  "7486": "hoeb",
  "7487": " knit",
  "7488": "ANIEL",
  "7489": " Ro",
  "7490": " vi",
  "7491": " vine",
  "7492": " vig",
  "7493": "cts",
  "7494": " shout",
  "7495": " shower",
  "7496": "ulous",
  "7497": "antime",
  "7498": "quet",
  "7499": "athom",
  "7500": " Madam",
  "7501": "Whate",
  "7502": " whet",
  "7503": " wheel",
  "7504": " amend",
  "7505": "ending",
  "7506": "icial",
  "7507": "bled",
  "7508": "iel",
  "7509": "ivered",
  "7510": " blister",
  "7511": " blade",
  "7512": "venient",
  "7513": " Gentle",
  "7514": "Forth",
  "7515": "Forbear",
  "7516": "Forgive",
  "7517": "Forbid",
  "7518": "olar",
  "7519": "olve",
  "7520": "olour",
  "7521": " Lam",
  "7522": " Lod",
  "7523": " Leave",
  "7524": " hatch",
  "7525": " canker",
  "7526": "feel",
  "7527": "feits",
  "7528": "ressed",
  "7529": "ately",
  "7530": " brass",
  "7531": " orphan",
  "7532": "ppet",
  "7533": "pped",
  "7534": " She",
  "7535": " Sweet",
  "7536": "allel",
  "7537": " usure",
  "7538": " Bes",
  "7539": " Braken",
  "7540": " arch",
  "7541": " argu",
  "7542": " arbit",
  "7543": " unple",
  "7544": " unrest",
  "7545": " worshi",
  "7546": " Ha",
  "7547": " Hear",
  "7548": " Herc",
  "7549": "elting",
  "7550": " quake",
  "7551": " quaint",
  "7552": " jade",
  "7553": " joc",
  "7554": " musty",
  "7555": " graft",
  "7556": " hole",
  "7557": "cip",
  "7558": "cially",
  "7559": " prog",
  "7560": " procure",
  "7561": " Percy",
  "7562": " Patri",
  "7563": " Pembroke",
  "7564": " Phaeth",
  "7565": " Phoeb",
  "7566": " sap",
  "7567": " madly",
  "7568": " madest",
  "7569": " madman",
  "7570": "ums",
  "7571": "umes",
  "7572": "umps",
  "7573": "uments",
  "7574": "umny",
  "7575": " plate",
  "7576": " plaints",
  "7577": "people",
  "7578": " Wh",
  "7579": " Welcome",
  "7580": " Wales",
  "7581": " Walter",
  "7582": "owned",
  "7583": " rats",
  "7584": " rites",
  "7585": " rising",
  "7586": " pox",
  "7587": " poll",
  "7588": "ptory",
  "7589": " Ah",
  "7590": " Am",
  "7591": " Ar",
  "7592": " truer",
  "7593": "Thoughts",
  "7594": " marr",
  "7595": " marble",
  "7596": " mariners",
  "7597": "Ins",
  "7598": "Infer",
  "7599": "acks",
  "7600": " disl",
  "7601": " disorder",
  "7602": " aloof",
  "7603": " altogether",
  "7604": " heap",
  "7605": "oyal",
  "7606": " hears",
  "7607": "echer",
  "7608": "eches",
  "7609": " abst",
  "7610": " abod",
  "7611": " fold",
  "7612": " foil",
  "7613": " earl",
  "7614": " earldom",
  "7615": " rode",
  "7616": " rocks",
  "7617": " exclaim",
  "7618": " exact",
  "7619": " experience",
  "7620": " looker",
  "7621": "agine",
  "7622": "ervation",
  "7623": "aved",
  "7624": " ripen",
  "7625": " ridd",
  "7626": " rivers",
  "7627": "tised",
  "7628": "Wherefore",
  "7629": " slack",
  "7630": " warn",
  "7631": " flame",
  "7632": " Tur",
  "7633": " Tunis",
  "7634": "ffer",
  "7635": " breeding",
  "7636": "izab",
  "7637": "sses",
  "7638": " clap",
  "7639": " prec",
  "7640": " preced",
  "7641": " prerog",
  "7642": " sweets",
  "7643": " prays",
  "7644": " nobleman",
  "7645": " pledge",
  "7646": " Doricles",
  "7647": " perd",
  "7648": " perf",
  "7649": " permit",
  "7650": " wrangling",
  "7651": "aws",
  "7652": " trades",
  "7653": " wayward",
  "7654": " headstrong",
  "7655": "lip",
  "7656": " scour",
  "7657": " scru",
  "7658": " scape",
  "7659": " preserved",
  "7660": " queens",
  "7661": " chival",
  "7662": " rages",
  "7663": " raging",
  "7664": " raiment",
  "7665": " ragged",
  "7666": "their",
  "7667": " Fear",
  "7668": " Fran",
  "7669": "abour",
  "7670": " apply",
  "7671": " appell",
  "7672": " appoint",
  "7673": " armed",
  "7674": "Norfolk",
  "7675": "sweet",
  "7676": " begot",
  "7677": "range",
  "7678": " male",
  "7679": " immediate",
  "7680": " longest",
  "7681": " March",
  "7682": " replied",
  "7683": " repossess",
  "7684": " repetition",
  "7685": " friendship",
  "7686": " afoot",
  "7687": " Jer",
  "7688": " Jun",
  "7689": " JOHN",
  "7690": " Jesu",
  "7691": " conspir",
  "7692": " consumed",
  "7693": " considered",
  "7694": " perem",
  "7695": " levy",
  "7696": " entrails",
  "7697": " lieutenant",
  "7698": "chelor",
  "7699": " resort",
  "7700": " rescue",
  "7701": " tried",
  "7702": " moan",
  "7703": " follies",
  "7704": " privy",
  "7705": "Thyself",
  "7706": " chaf",
  "7707": " chap",
  "7708": " peaceful",
  "7709": " elsewhere",
  "7710": "ailing",
  "7711": "asonable",
  "7712": " backward",
  "7713": " counted",
  "7714": " ladyship",
  "7715": " needle",
  "7716": " needless",
  "7717": " trembles",
  "7718": " highway",
  "7719": "Stanley",
  "7720": " husbands",
  "7721": " banquet",
  "7722": " minded",
  "7723": " braved",
  "7724": " chest",
  "7725": " bribe",
  "7726": " showers",
  "7727": " confer",
  "7728": " confines",
  "7729": " confusion",
  "7730": " coz",
  "7731": " coal",
  "7732": " coals",
  "7733": " caused",
  "7734": " glories",
  "7735": " impart",
  "7736": " impud",
  "7737": " impatience",
  "7738": " impression",
  "7739": " impatient",
  "7740": " impediment",
  "7741": " bodes",
  "7742": " mistaking",
  "7743": " lightly",
  "7744": " lightness",
  "7745": " natures",
  "7746": " pardons",
  "7747": "Claudio",
  "7748": " beseem",
  "7749": " happier",
  "7750": " device",
  "7751": "blown",
  "7752": " underne",
  "7753": " undergo",
  "7754": " killed",
  "7755": " following",
  "7756": " farm",
  "7757": " sunshine",
  "7758": " bush",
  "7759": "Any",
  "7760": " street",
  "7761": " stream",
  "7762": " turned",
  "7763": " comforts",
  "7764": " comfortable",
  "7765": " sleeps",
  "7766": " sleepy",
  "7767": "itories",
  "7768": " welcomes",
  "7769": " thankful",
  "7770": " box",
  "7771": " boon",
  "7772": " boat",
  "7773": " fights",
  "7774": " fighting",
  "7775": "holds",
  "7776": " falsely",
  "7777": "plish",
  "7778": " merciful",
  "7779": " matters",
  "7780": " assault",
  "7781": " prisoners",
  "7782": " dangers",
  "7783": " dreamt",
  "7784": "enerate",
  "7785": " strait",
  "7786": " discharged",
  "7787": " commanding",
  "7788": " dared",
  "7789": "Twill",
  "7790": "Twice",
  "7791": "Twenty",
  "7792": "comp",
  "7793": " sisterhood",
  "7794": " fouler",
  "7795": "versy",
  "7796": " denial",
  "7797": " awry",
  "7798": " merrim",
  "7799": " support",
  "7800": " suppose",
  "7801": " suppli",
  "7802": " beating",
  "7803": " requires",
  "7804": " required",
  "7805": " value",
  "7806": " affright",
  "7807": " woeful",
  "7808": " tenderly",
  "7809": " returned",
  "7810": "mph",
  "7811": "mpet",
  "7812": " deeper",
  "7813": " deeply",
  "7814": " footman",
  "7815": " chop",
  "7816": " coldly",
  "7817": " nursed",
  "7818": "azon",
  "7819": " plucks",
  "7820": "shining",
  "7821": "xton",
  "7822": " airy",
  "7823": " suffice",
  "7824": " pastime",
  "7825": " fasting",
  "7826": " silken",
  "7827": " strongly",
  "7828": "Canst",
  "7829": " possessed",
  "7830": "voke",
  "7831": "voided",
  "7832": " infring",
  "7833": " infirm",
  "7834": " profan",
  "7835": " profits",
  "7836": " confession",
  "7837": " Nature",
  "7838": " mocking",
  "7839": " mockery",
  "7840": " forest",
  "7841": " divided",
  "7842": " divines",
  "7843": " division",
  "7844": " carries",
  "7845": " posterity",
  "7846": " counsels",
  "7847": "Command",
  "7848": "Commit",
  "7849": " terrible",
  "7850": " minstrel",
  "7851": " inconstant",
  "7852": " recover",
  "7853": " resolute",
  "7854": "nowledge",
  "7855": " harmless",
  "7856": " Hector",
  "7857": " agreed",
  "7858": " whipt",
  "7859": " dishon",
  "7860": " disting",
  "7861": " disturb",
  "7862": " distressed",
  "7863": " tribune",
  "7864": " tribute",
  "7865": " draws",
  "7866": " actor",
  "7867": " stirs",
  "7868": " stirring",
  "7869": " breathes",
  "7870": " closely",
  "7871": " forgiveness",
  "7872": " sufferance",
  "7873": " skulls",
  "7874": " signs",
  "7875": " wisest",
  "7876": " regiment",
  "7877": " poisonous",
  "7878": " cheerfully",
  "7879": "shepherd",
  "7880": " tax",
  "7881": " direful",
  "7882": " pays",
  "7883": " succor",
  "7884": " blessings",
  "7885": " bleed",
  "7886": " bleeds",
  "7887": " interchange",
  "7888": " embass",
  "7889": " malign",
  "7890": " hurried",
  "7891": " chamberlain",
  "7892": " cowardice",
  "7893": " limits",
  "7894": " scorns",
  "7895": " witnesses",
  "7896": " broad",
  "7897": " created",
  "7898": " creatures",
  "7899": " caparison",
  "7900": " Christopher",
  "7901": " idly",
  "7902": " hideous",
  "7903": " beastly",
  "7904": " rebel",
  "7905": " rebuke",
  "7906": " scarlet",
  "7907": " secrets",
  "7908": " fills",
  "7909": " strumpet",
  "7910": " puppet",
  "7911": " injurious",
  "7912": " injuries",
  "7913": " insulting",
  "7914": " innocence",
  "7915": " admit",
  "7916": " admir",
  "7917": " admitted",
  "7918": " famish",
  "7919": " governor",
  "7920": "Enough",
  "7921": "Proud",
  "7922": " scholar",
  "7923": " mutiny",
  "7924": " lustful",
  "7925": " threats",
  "7926": " indiffe",
  "7927": " indirect",
  "7928": " solely",
  "7929": " grandfather",
  "7930": " safer",
  "7931": " sentenced",
  "7932": " drunkard",
  "7933": "Belike",
  "7934": "Heart",
  "7935": "Measure",
  "7936": "Meantime",
  "7937": "piring",
  "7938": " mounting",
  "7939": " feat",
  "7940": " captive",
  "7941": " Antonio",
  "7942": " contrad",
  "7943": " degrees",
  "7944": " demands",
  "7945": " remedies",
  "7946": " understanding",
  "7947": " greetings",
  "7948": " triumphs",
  "7949": " farthest",
  "7950": " faintly",
  "7951": " dwells",
  "7952": " throats",
  "7953": " hunger",
  "7954": " gait",
  "7955": " gaol",
  "7956": " gape",
  "7957": " gaoler",
  "7958": " gentler",
  "7959": " chastity",
  "7960": " chastisement",
  "7961": " miseries",
  "7962": " extremest",
  "7963": " scarcely",
  "7964": "whelm",
  "7965": " firmly",
  "7966": " holid",
  "7967": " inclination",
  "7968": " relig",
  "7969": " unborn",
  "7970": " bootless",
  "7971": " conditions",
  "7972": " schoolmaster",
  "7973": " fruitful",
  "7974": " bald",
  "7975": " bachelor",
  "7976": " feeding",
  "7977": " stooping",
  "7978": " unlawful",
  "7979": " Alas",
  "7980": "therefore",
  "7981": " importune",
  "7982": " prophecy",
  "7983": "portion",
  "7984": " decay",
  "7985": " knightly",
  "7986": " knighthood",
  "7987": " shrink",
  "7988": " roundly",
  "7989": " frighted",
  "7990": " assistance",
  "7991": " delights",
  "7992": " utterance",
  "7993": "actors",
  "7994": " create",
  "7995": " louder",
  "7996": " starve",
  "7997": " jealousies",
  "7998": " rascals",
  "7999": " treachery",
  "8000": " error",
  "8001": " calumny",
  "8002": " physician",
  "8003": " weighty",
  "8004": " supreme",
  "8005": "runes",
  "8006": " pursued",
  "8007": "Repent",
  "8008": "Shame",
  "8009": "paration",
  "8010": " wolves",
  "8011": " wonders",
  "8012": " baseness",
  "8013": " budge",
  "8014": " diadem",
  "8015": " beware",
  "8016": " rewards",
  "8017": " pronounced",
  "8018": " ambition",
  "8019": " argos",
  "8020": " Flore",
  "8021": " Floriz",
  "8022": " cracking",
  "8023": " penitence",
  "8024": " publicly",
  "8025": "Arm",
  "8026": "Arise",
  "8027": "doing",
  "8028": "scap",
  "8029": " magic",
  "8030": " hazel",
  "8031": " merely",
  "8032": " Calais",
  "8033": " Elizab",
  "8034": " apprehens",
  "8035": " greyh",
  "8036": " choleric",
  "8037": "Consider",
  "8038": "glass",
  "8039": " millions",
  "8040": "regory",
  "8041": " thorns",
  "8042": " befal",
  "8043": " befits",
  "8044": " nobler",
  "8045": " STANLEY",
  "8046": " worthily",
  "8047": " advertised",
  "8048": " perjury",
  "8049": " witchcraft",
  "8050": " brawl",
  "8051": " brawling",
  "8052": " achieve",
  "8053": " achieved",
  "8054": " syll",
  "8055": " winged",
  "8056": " function",
  "8057": " horror",
  "8058": " forsake",
  "8059": " events",
  "8060": " dissemble",
  "8061": " climb",
  "8062": " Death",
  "8063": " restraint",
  "8064": " afflict",
  "8065": " Antiates",
  "8066": " circumstances",
  "8067": "Condemn",
  "8068": "Knock",
  "8069": "Small",
  "8070": "mongst",
  "8071": " timeless",
  "8072": " widows",
  "8073": " napkin",
  "8074": " debase",
  "8075": " superfl",
  "8076": " split",
  "8077": " villany",
  "8078": " volume",
  "8079": " shriek",
  "8080": " displeasure",
  "8081": " disguised",
  "8082": " scolding",
  "8083": " council",
  "8084": " councils",
  "8085": " curtain",
  "8086": "Amongst",
  "8087": "Between",
  "8088": "Betwixt",
  "8089": "Pursu",
  "8090": "Seize",
  "8091": "URREY",
  "8092": " baggage",
  "8093": " homage",
  "8094": " higher",
  "8095": " pedlar",
  "8096": " haughty",
  "8097": " Greece",
  "8098": " Scotland",
  "8099": " Speak",
  "8100": " unfeigned",
  "8101": " appeared",
  "8102": " consorted",
  "8103": " bankrupt",
  "8104": " dragon",
  "8105": " transported",
  "8106": "Evermore",
  "8107": "England",
  "8108": " saucy",
  "8109": " mourning",
  "8110": " centre",
  "8111": " issued",
  "8112": " society",
  "8113": " anchor",
  "8114": " Emilia",
  "8115": " shelter",
  "8116": " Welshmen",
  "8117": " imperial",
  "8118": " lecture",
  "8119": " restored",
  "8120": " smiling",
  "8121": " counsellor",
  "8122": " inferior",
  "8123": " divorce",
  "8124": " troublous",
  "8125": " expedition",
  "8126": " insolence",
  "8127": "Dispatch",
  "8128": " concluded",
  "8129": " testimony",
  "8130": " reckoning",
  "8131": "Affection",
  "8132": "Touching",
  "8133": "posterous",
  "8134": " sands",
  "8135": " cordial",
  "8136": " pestilence",
  "8137": " pupil",
  "8138": " ugly",
  "8139": " vulgar",
  "8140": " vassal",
  "8141": " amazement",
  "8142": " canopy",
  "8143": " rancour",
  "8144": " pocket",
  "8145": " disobed",
  "8146": " plebeians",
  "8147": " nightingale",
  "8148": " whistle",
  "8149": " harlot",
  "8150": " merrily",
  "8151": " territories",
  "8152": " puissant",
  "8153": " medicine",
  "8154": "BONA",
  "8155": "EMILIA",
  "8156": "Gainst",
  "8157": "Grandam",
  "8158": "Harp",
  "8159": "NATHANIEL",
  "8160": "Urge",
  "8161": "iquity",
  "8162": " tonight",
  "8163": " sinew",
  "8164": " western",
  "8165": " female",
  "8166": " cuckold",
  "8167": " lungs",
  "8168": " obtain",
  "8169": " notwithstanding",
  "8170": " eloqu",
  "8171": " solicit",
  "8172": "estival",
  "8173": " vineyard",
  "8174": " Lodowick",
  "8175": " Brakenbury",
  "8176": " Hercules",
  "8177": " jocund",
  "8178": " Patrician",
  "8179": " Phaethon",
  "8180": " Phoebus",
  "8181": " precedent",
  "8182": " prerogative",
  "8183": " Francis",
  "8184": " peremptory",
  "8185": " underneath",
  "8186": " merriment",
  "8187": " indifferent",
  "8188": " Florizel",
  "8189": " Elizabeth",
  "8190": " apprehension",
  "8191": "  ",
  "8192": " &",
  "8193": " Not",
  "8194": " These",
  "8195": "'!",
  "8196": "'--",
  "8197": "Aufidius",
  "8198": "ALIS",
  "8199": "BL",
  "8200": "Bad",
  "8201": "Bore",
  "8202": "Best",
  "8203": "Breat",
  "8204": "Back",
  "8205": "Bohemia",
  "8206": "Beshrew",
  "8207": "Ch",
  "8208": "Che",
  "8209": "Cut",
  "8210": "Chi",
  "8211": "Care",
  "8212": "CIS",
  "8213": "Citizen",
  "8214": "Charge",
  "8215": "Dou",
  "8216": "Dro",
  "8217": "Die",
  "8218": "Ele",
  "8219": "EAR",
  "8220": "Far",
  "8221": "Fri",
  "8222": "Fly",
  "8223": "Fell",
  "8224": "Fine",
  "8225": "Found",
  "8226": "FRAN",
  "8227": "Fool",
  "8228": "Friar",
  "8229": "Fellow",
  "8230": "Gl",
  "8231": "Gu",
  "8232": "Gold",
  "8233": "Gloucester",
  "8234": "Grumio",
  "8235": "Girl",
  "8236": "Given",
  "8237": "Hard",
  "8238": "Host",
  "8239": "Hap",
  "8240": "HOMAS",
  "8241": "Holy",
  "8242": "Ill",
  "8243": "Jul",
  "8244": "Jesu",
  "8245": "Katharina",
  "8246": "Less",
  "8247": "Last",
  "8248": "Lend",
  "8249": "Little",
  "8250": "Lives",
  "8251": "Man",
  "8252": "Mount",
  "8253": "Mere",
  "8254": "Masters",
  "8255": "Mercy",
  "8256": "Near",
  "8257": "Night",
  "8258": "Nine",
  "8259": "Opp",
  "8260": "Oxford",
  "8261": "Pit",
  "8262": "Perc",
  "8263": "Pale",
  "8264": "Red",
  "8265": "Rest",
  "8266": "Ref",
  "8267": "Sin",
  "8268": "Sen",
  "8269": "Sent",
  "8270": "Sad",
  "8271": "Sel",
  "8272": "Soul",
  "8273": "Sorrow",
  "8274": "Sto",
  "8275": "Sland",
  "8276": "Seal",
  "8277": "Sleep",
  "8278": "Tong",
  "8279": "Time",
  "8280": "Tran",
  "8281": "Takes",
  "8282": "Trem",
  "8283": "Tullus",
  "8284": "UNT",
  "8285": "Went",
  "8286": "Yonder",
  "8287": "ait",
  "8288": "aus",
  "8289": "avery",
  "8290": "aled",
  "8291": "acious",
  "8292": "against",
  "8293": "avoided",
  "8294": "bre",
  "8295": "bro",
  "8296": "ball",
  "8297": "book",
  "8298": "bred",
  "8299": "bject",
  "8300": "bham",
  "8301": "bhors",
  "8302": "business",
  "8303": "cas",
  "8304": "could",
  "8305": "cond",
  "8306": "creat",
  "8307": "corn",
  "8308": "chard",
  "8309": "certain",
  "8310": "cats",
  "8311": "custom",
  "8312": "content",
  "8313": "cued",
  "8314": "cency",
  "8315": "dan",
  "8316": "dent",
  "8317": "dur",
  "8318": "dro",
  "8319": "dish",
  "8320": "dict",
  "8321": "doubt",
  "8322": "deliver",
  "8323": "ele",
  "8324": "every",
  "8325": "eress",
  "8326": "eases",
  "8327": "fan",
  "8328": "fix",
  "8329": "fellows",
  "8330": "gom",
  "8331": "gher",
  "8332": "gone",
  "8333": "gnant",
  "8334": "hill",
  "8335": "hra",
  "8336": "ias",
  "8337": "ige",
  "8338": "iod",
  "8339": "iber",
  "8340": "iable",
  "8341": "iction",
  "8342": "iby",
  "8343": "ky",
  "8344": "lay",
  "8345": "lord",
  "8346": "lous",
  "8347": "live",
  "8348": "lves",
  "8349": "lorn",
  "8350": "lause",
  "8351": "mo",
  "8352": "min",
  "8353": "mast",
  "8354": "mak",
  "8355": "matter",
  "8356": "mony",
  "8357": "net",
  "8358": "none",
  "8359": "nel",
  "8360": "need",
  "8361": "oz",
  "8362": "oft",
  "8363": "oever",
  "8364": "phe",
  "8365": "pse",
  "8366": "pter",
  "8367": "pho",
  "8368": "past",
  "8369": "part",
  "8370": "pence",
  "8371": "poor",
  "8372": "piece",
  "8373": "pril",
  "8374": "poses",
  "8375": "rings",
  "8376": "rates",
  "8377": "roop",
  "8378": "sl",
  "8379": "sir",
  "8380": "sil",
  "8381": "song",
  "8382": "sist",
  "8383": "since",
  "8384": "serv",
  "8385": "sorrow",
  "8386": "sby",
  "8387": "sia",
  "8388": "school",
  "8389": "te",
  "8390": "too",
  "8391": "tree",
  "8392": "true",
  "8393": "tered",
  "8394": "trick",
  "8395": "tsey",
  "8396": "uc",
  "8397": "uing",
  "8398": "uity",
  "8399": "ubs",
  "8400": "ugg",
  "8401": "ueless",
  "8402": "vill",
  "8403": "vion",
  "8404": "vity",
  "8405": "vice",
  "8406": "viol",
  "8407": "wr",
  "8408": "wind",
  "8409": "worn",
  "8410": "ween",
  "8411": "widow",
  "8412": "wench",
  "8413": "warn",
  "8414": "worth",
  "8415": "yally",
  "8416": "ymph",
  "8417": "zwater",
  "8418": " til",
  "8419": " tum",
  "8420": " tire",
  "8421": " tatter",
  "8422": " tides",
  "8423": " tunes",
  "8424": " tales",
  "8425": " teeming",
  "8426": " tumbling",
  "8427": "hen",
  "8428": "hence",
  "8429": " au",
  "8430": " aust",
  "8431": " aery",
  "8432": " aches",
  "8433": " sly",
  "8434": " surn",
  "8435": " songs",
  "8436": " mot",
  "8437": " mow",
  "8438": " ming",
  "8439": " mart",
  "8440": " mum",
  "8441": " map",
  "8442": " mass",
  "8443": " mute",
  "8444": " muse",
  "8445": "inc",
  "8446": "inet",
  "8447": "inance",
  "8448": "inable",
  "8449": "inite",
  "8450": " wra",
  "8451": " ware",
  "8452": " waken",
  "8453": " waning",
  "8454": " wenches",
  "8455": " walks",
  "8456": "reef",
  "8457": "repare",
  "8458": "reement",
  "8459": "haw",
  "8460": "hast",
  "8461": "happ",
  "8462": "nders",
  "8463": " bust",
  "8464": " bone",
  "8465": " bau",
  "8466": " bind",
  "8467": " bate",
  "8468": " bide",
  "8469": " baw",
  "8470": " bier",
  "8471": " bale",
  "8472": " bount",
  "8473": " bench",
  "8474": " bash",
  "8475": " bills",
  "8476": "isk",
  "8477": "isle",
  "8478": " fen",
  "8479": " fed",
  "8480": " fut",
  "8481": " fate",
  "8482": " fence",
  "8483": " file",
  "8484": " fester",
  "8485": " fitted",
  "8486": " fees",
  "8487": " fitting",
  "8488": " fowl",
  "8489": " front",
  "8490": " fickle",
  "8491": " fathom",
  "8492": " festival",
  "8493": "erman",
  "8494": "eria",
  "8495": "erwhelm",
  "8496": "itche",
  "8497": " dun",
  "8498": " daint",
  "8499": " dastard",
  "8500": " daring",
  "8501": " duteous",
  "8502": " dainty",
  "8503": " ced",
  "8504": " cas",
  "8505": " card",
  "8506": " cele",
  "8507": " nearer",
  "8508": " nerves",
  "8509": " niece",
  "8510": " nuns",
  "8511": " nearest",
  "8512": " nymph",
  "8513": " ninet",
  "8514": " lain",
  "8515": " lame",
  "8516": " lass",
  "8517": " laughter",
  "8518": " laz",
  "8519": " lecher",
  "8520": " yew",
  "8521": " yellow",
  "8522": " thra",
  "8523": " thres",
  "8524": " threw",
  "8525": " threef",
  "8526": "arth",
  "8527": "arling",
  "8528": " hook",
  "8529": " hilt",
  "8530": " hint",
  "8531": " hounds",
  "8532": " hills",
  "8533": " ox",
  "8534": " ost",
  "8535": " oce",
  "8536": " toss",
  "8537": " phe",
  "8538": " pir",
  "8539": " pith",
  "8540": " poo",
  "8541": " pul",
  "8542": " pull",
  "8543": " park",
  "8544": " pens",
  "8545": " potion",
  "8546": " pines",
  "8547": " pals",
  "8548": " piled",
  "8549": " prunes",
  "8550": " Irish",
  "8551": " hen",
  "8552": " hew",
  "8553": " hedge",
  "8554": "oting",
  "8555": "oted",
  "8556": "stit",
  "8557": "stood",
  "8558": "stool",
  "8559": "strue",
  "8560": "staring",
  "8561": "owing",
  "8562": "ange",
  "8563": "anous",
  "8564": "another",
  "8565": "anks",
  "8566": "answer",
  "8567": "oming",
  "8568": " gle",
  "8569": " gay",
  "8570": " gir",
  "8571": " gear",
  "8572": " gilt",
  "8573": " gild",
  "8574": " gorge",
  "8575": " ginger",
  "8576": " glove",
  "8577": "atin",
  "8578": "athan",
  "8579": "atory",
  "8580": "atiate",
  "8581": " beho",
  "8582": " becom",
  "8583": "sea",
  "8584": " inhabit",
  "8585": " hab",
  "8586": " haven",
  "8587": "lex",
  "8588": "lehill",
  "8589": "ayer",
  "8590": "ldren",
  "8591": "iry",
  "8592": "edy",
  "8593": "uto",
  "8594": "utus",
  "8595": "utches",
  "8596": "imple",
  "8597": " notorious",
  "8598": "cho",
  "8599": " issues",
  "8600": " forn",
  "8601": " forms",
  "8602": " forlorn",
  "8603": "keep",
  "8604": " web",
  "8605": "ooing",
  "8606": " eg",
  "8607": " el",
  "8608": " ew",
  "8609": " egg",
  "8610": "hertsey",
  "8611": "enting",
  "8612": "rip",
  "8613": "rian",
  "8614": "ribe",
  "8615": " sty",
  "8616": " start",
  "8617": " stall",
  "8618": " stage",
  "8619": " stint",
  "8620": " stew",
  "8621": " stray",
  "8622": " steter",
  "8623": " string",
  "8624": " starts",
  "8625": " strat",
  "8626": " kern",
  "8627": " kenn",
  "8628": "ashy",
  "8629": "asci",
  "8630": "asite",
  "8631": " revers",
  "8632": " relish",
  "8633": " release",
  "8634": " revell",
  "8635": "lying",
  "8636": "lysses",
  "8637": "raign",
  "8638": " liars",
  "8639": "urity",
  "8640": "urther",
  "8641": "urps",
  "8642": "urbs",
  "8643": "urope",
  "8644": "alf",
  "8645": "alo",
  "8646": "alance",
  "8647": "alty",
  "8648": " soar",
  "8649": " sober",
  "8650": " solace",
  "8651": " ascend",
  "8652": " aspiring",
  "8653": "rosby",
  "8654": "hilip",
  "8655": "vering",
  "8656": " shamed",
  "8657": " dol",
  "8658": " doit",
  "8659": " doings",
  "8660": "usc",
  "8661": "usale",
  "8662": "usual",
  "8663": "ussia",
  "8664": "ifter",
  "8665": " sem",
  "8666": " sex",
  "8667": " sevent",
  "8668": " separ",
  "8669": "geon",
  "8670": "geal",
  "8671": "Thither",
  "8672": "Throng",
  "8673": " sues",
  "8674": " suret",
  "8675": " sulp",
  "8676": "Told",
  "8677": "Together",
  "8678": " herds",
  "8679": "rung",
  "8680": "ruised",
  "8681": "things",
  "8682": "thought",
  "8683": "thren",
  "8684": " ant",
  "8685": " angu",
  "8686": "ternal",
  "8687": "arded",
  "8688": "hance",
  "8689": "hanging",
  "8690": " spot",
  "8691": " spell",
  "8692": " spear",
  "8693": " spurn",
  "8694": " space",
  "8695": " spotted",
  "8696": " fails",
  "8697": " fabric",
  "8698": " Cy",
  "8699": " Cot",
  "8700": " Cast",
  "8701": " Call",
  "8702": " Chertsey",
  "8703": " Crosby",
  "8704": " knell",
  "8705": " knavery",
  "8706": " Rag",
  "8707": " Ross",
  "8708": " Russia",
  "8709": " vest",
  "8710": " vio",
  "8711": " vap",
  "8712": " vices",
  "8713": "asted",
  "8714": "astian",
  "8715": " whate",
  "8716": "ighton",
  "8717": " shine",
  "8718": " shouts",
  "8719": "ulation",
  "8720": " upper",
  "8721": "qua",
  "8722": "quin",
  "8723": "quis",
  "8724": "qual",
  "8725": "quess",
  "8726": "quaint",
  "8727": "quiet",
  "8728": " goodman",
  "8729": "usters",
  "8730": " pry",
  "8731": " atone",
  "8732": " manly",
  "8733": " mankind",
  "8734": " manacles",
  "8735": " mangled",
  "8736": " Mab",
  "8737": " wheres",
  "8738": " wheels",
  "8739": " Europe",
  "8740": " amity",
  "8741": " amended",
  "8742": "endom",
  "8743": "icing",
  "8744": "ican",
  "8745": "icide",
  "8746": "icester",
  "8747": " conver",
  "8748": " convers",
  "8749": " convent",
  "8750": " constable",
  "8751": " blots",
  "8752": " blasp",
  "8753": "vener",
  "8754": " Guild",
  "8755": " Gregory",
  "8756": "Forget",
  "8757": " shepher",
  "8758": " sheets",
  "8759": "eminate",
  "8760": " goest",
  "8761": "areth",
  "8762": " wasp",
  "8763": "oln",
  "8764": " Lay",
  "8765": " Lud",
  "8766": " Latin",
  "8767": " hatches",
  "8768": " knowest",
  "8769": " cannib",
  "8770": "ersha",
  "8771": "ershire",
  "8772": " sayest",
  "8773": " swim",
  "8774": " swine",
  "8775": " swifter",
  "8776": " brine",
  "8777": " brittle",
  "8778": " orchard",
  "8779": "pper",
  "8780": " Say",
  "8781": " Some",
  "8782": " Six",
  "8783": " Show",
  "8784": " Seb",
  "8785": " SURREY",
  "8786": " SALIS",
  "8787": " using",
  "8788": " usage",
  "8789": " Of",
  "8790": " Or",
  "8791": " Once",
  "8792": " Overdone",
  "8793": " Bel",
  "8794": " Boy",
  "8795": " Bret",
  "8796": " Brist",
  "8797": " Brand",
  "8798": " Bishop",
  "8799": "odity",
  "8800": " ung",
  "8801": " unity",
  "8802": " unman",
  "8803": " unaw",
  "8804": " unlo",
  "8805": " ungra",
  "8806": " unacc",
  "8807": " ungentle",
  "8808": " univers",
  "8809": " unthrift",
  "8810": " unavoided",
  "8811": " unusual",
  "8812": "igation",
  "8813": " Had",
  "8814": " Has",
  "8815": " Hallow",
  "8816": "hyme",
  "8817": "elpho",
  "8818": " quest",
  "8819": "Whence",
  "8820": " jar",
  "8821": " jump",
  "8822": " joll",
  "8823": " hoped",
  "8824": "cible",
  "8825": "cipl",
  "8826": " prover",
  "8827": " produce",
  "8828": " proffer",
  "8829": " Put",
  "8830": " Pil",
  "8831": " Priam",
  "8832": " Philip",
  "8833": " sails",
  "8834": "umn",
  "8835": " plent",
  "8836": " plotted",
  "8837": "pecially",
  "8838": " Wife",
  "8839": " ensue",
  "8840": " enroll",
  "8841": " enjoin",
  "8842": " enfranch",
  "8843": "unch",
  "8844": " rood",
  "8845": " rings",
  "8846": " rates",
  "8847": " outst",
  "8848": "pted",
  "8849": "pture",
  "8850": " howl",
  "8851": " AE",
  "8852": " Ag",
  "8853": " At",
  "8854": " Afri",
  "8855": " Ariel",
  "8856": " Abhors",
  "8857": " April",
  "8858": " trudge",
  "8859": " handle",
  "8860": " somebod",
  "8861": " marquess",
  "8862": " Yes",
  "8863": "Inf",
  "8864": "acket",
  "8865": " dislike",
  "8866": " dishes",
  "8867": " disposed",
  "8868": " diseases",
  "8869": " discipl",
  "8870": " hearth",
  "8871": " ability",
  "8872": " abuses",
  "8873": " foaming",
  "8874": " daylight",
  "8875": " rod",
  "8876": " road",
  "8877": " rope",
  "8878": " rogues",
  "8879": " royally",
  "8880": " exha",
  "8881": " external",
  "8882": " tellus",
  "8883": "agate",
  "8884": "agems",
  "8885": " rip",
  "8886": " articles",
  "8887": " article",
  "8888": " slide",
  "8889": " slanders",
  "8890": " wary",
  "8891": " warning",
  "8892": " flour",
  "8893": " flag",
  "8894": " fliers",
  "8895": " fearless",
  "8896": " THOMAS",
  "8897": "bery",
  "8898": "bering",
  "8899": "oughby",
  "8900": " brethren",
  "8901": "Beg",
  "8902": "apable",
  "8903": "ighs",
  "8904": " greatly",
  "8905": " fairies",
  "8906": "izard",
  "8907": " partake",
  "8908": " partial",
  "8909": " calling",
  "8910": " adul",
  "8911": " adorn",
  "8912": " adult",
  "8913": " adder",
  "8914": " commit",
  "8915": " commodity",
  "8916": "Yourself",
  "8917": " clothe",
  "8918": " preparation",
  "8919": " pregnant",
  "8920": "assad",
  "8921": " Dion",
  "8922": " Delpho",
  "8923": " perused",
  "8924": " period",
  "8925": "liction",
  "8926": "livion",
  "8927": " scra",
  "8928": " scare",
  "8929": " scars",
  "8930": " scouts",
  "8931": " presum",
  "8932": " presses",
  "8933": " prescri",
  "8934": " nightly",
  "8935": "pery",
  "8936": "peror",
  "8937": "peration",
  "8938": " raw",
  "8939": " rarest",
  "8940": " raze",
  "8941": " rabble",
  "8942": " keen",
  "8943": " Fifth",
  "8944": "abb",
  "8945": " applause",
  "8946": " contem",
  "8947": " remiss",
  "8948": " remote",
  "8949": "ilty",
  "8950": "swear",
  "8951": "sworn",
  "8952": "ressing",
  "8953": " begging",
  "8954": " longs",
  "8955": " longing",
  "8956": " Mark",
  "8957": " lively",
  "8958": "meant",
  "8959": " repaid",
  "8960": " reproof",
  "8961": " reprieve",
  "8962": "forward",
  "8963": " mightily",
  "8964": "atching",
  "8965": " Jud",
  "8966": " Jule",
  "8967": " rub",
  "8968": " consume",
  "8969": " conserves",
  "8970": " crowned",
  "8971": " peck",
  "8972": " peasant",
  "8973": "hallow",
  "8974": " levied",
  "8975": " harms",
  "8976": " harder",
  "8977": " resteth",
  "8978": " courses",
  "8979": " entire",
  "8980": "attery",
  "8981": " tongueless",
  "8982": " keeping",
  "8983": "iously",
  "8984": " slender",
  "8985": " reserved",
  "8986": " residence",
  "8987": "fts",
  "8988": " moans",
  "8989": " molehill",
  "8990": "retion",
  "8991": " hourly",
  "8992": "uddy",
  "8993": " endow",
  "8994": " endea",
  "8995": "ieldy",
  "8996": " pricks",
  "8997": " purged",
  "8998": " purses",
  "8999": " pursues",
  "9000": " purposes",
  "9001": " compell",
  "9002": " composition",
  "9003": "ertainty",
  "9004": " chain",
  "9005": " chaff",
  "9006": " chains",
  "9007": "Prosper",
  "9008": " suborn",
  "9009": " subsc",
  "9010": " submission",
  "9011": " suburbs",
  "9012": " smiled",
  "9013": " smelt",
  "9014": "ected",
  "9015": " traged",
  "9016": " tragic",
  "9017": " traffic",
  "9018": " hush",
  "9019": " needy",
  "9020": "two",
  "9021": " treble",
  "9022": "Stir",
  "9023": " seemeth",
  "9024": " rightly",
  "9025": "aching",
  "9026": " bragg",
  "9027": " brazen",
  "9028": " cheers",
  "9029": " charms",
  "9030": " charters",
  "9031": " charitable",
  "9032": " changes",
  "9033": " confined",
  "9034": " handsome",
  "9035": "beha",
  "9036": "bered",
  "9037": " coats",
  "9038": " glister",
  "9039": " impose",
  "9040": " fortnight",
  "9041": " fortunate",
  "9042": " bringing",
  "9043": " mistook",
  "9044": " passes",
  "9045": " throng",
  "9046": " pleaseth",
  "9047": " Answer",
  "9048": "Clifford",
  "9049": " besiege",
  "9050": " justly",
  "9051": " justify",
  "9052": " wrongfully",
  "9053": " miscar",
  "9054": "ension",
  "9055": " placed",
  "9056": "blind",
  "9057": " undert",
  "9058": " helping",
  "9059": " lesson",
  "9060": " fooling",
  "9061": " suns",
  "9062": " chid",
  "9063": " chides",
  "9064": " chron",
  "9065": "Unb",
  "9066": "Unw",
  "9067": " busied",
  "9068": "Angelo",
  "9069": "overed",
  "9070": " stride",
  "9071": " stripes",
  "9072": "ivity",
  "9073": " streak",
  "9074": " womanish",
  "9075": " turning",
  "9076": " humane",
  "9077": " belongs",
  "9078": " courts",
  "9079": " talked",
  "9080": " overheard",
  "9081": " overthrow",
  "9082": " built",
  "9083": " burial",
  "9084": " ibat",
  "9085": " attent",
  "9086": " attach",
  "9087": " plays",
  "9088": " instance",
  "9089": " instead",
  "9090": " welcom",
  "9091": " welkin",
  "9092": " curs",
  "9093": " curbs",
  "9094": " emulation",
  "9095": "pling",
  "9096": "plain",
  "9097": " sending",
  "9098": " countryman",
  "9099": " doubted",
  "9100": " wishing",
  "9101": " reasonable",
  "9102": "Wouldst",
  "9103": " dances",
  "9104": " breaths",
  "9105": " giant",
  "9106": " strain",
  "9107": " discred",
  "9108": " discords",
  "9109": " discreet",
  "9110": " discovery",
  "9111": " discretion",
  "9112": "Alone",
  "9113": " senis",
  "9114": " commandment",
  "9115": " winding",
  "9116": " strang",
  "9117": " swearing",
  "9118": " depth",
  "9119": "comb",
  "9120": "comfort",
  "9121": " tending",
  "9122": " greets",
  "9123": " getting",
  "9124": " intends",
  "9125": " intended",
  "9126": " interest",
  "9127": " kissing",
  "9128": " breaking",
  "9129": " awe",
  "9130": " awful",
  "9131": "Hermione",
  "9132": " temperate",
  "9133": " supple",
  "9134": " spoils",
  "9135": " lamp",
  "9136": " requite",
  "9137": " requital",
  "9138": " mete",
  "9139": " soonest",
  "9140": " returns",
  "9141": "acre",
  "9142": "ackey",
  "9143": " marrying",
  "9144": " footing",
  "9145": " warrants",
  "9146": " Julius",
  "9147": " throughly",
  "9148": "soe",
  "9149": " choke",
  "9150": " colder",
  "9151": " asked",
  "9152": " plucked",
  "9153": "show",
  "9154": " Montgom",
  "9155": " strangely",
  "9156": " bats",
  "9157": " entreated",
  "9158": "Whoop",
  "9159": " visor",
  "9160": " dispro",
  "9161": "ixture",
  "9162": " ordain",
  "9163": " ordinance",
  "9164": "Mayor",
  "9165": " quicken",
  "9166": " desired",
  "9167": " hardy",
  "9168": " wooers",
  "9169": " infancy",
  "9170": " infamy",
  "9171": " influ",
  "9172": " infinite",
  "9173": "Become",
  "9174": "Spoke",
  "9175": " wearing",
  "9176": " delivery",
  "9177": " speedily",
  "9178": " quarre",
  "9179": " profound",
  "9180": " strengthen",
  "9181": "cession",
  "9182": " forefather",
  "9183": " forerun",
  "9184": " foretell",
  "9185": " divide",
  "9186": " carrion",
  "9187": " posts",
  "9188": " posterns",
  "9189": " execut",
  "9190": " parch",
  "9191": " paradise",
  "9192": " parlous",
  "9193": " parasite",
  "9194": " incur",
  "9195": " incapable",
  "9196": " recount",
  "9197": " Their",
  "9198": " titles",
  "9199": " opening",
  "9200": " shorten",
  "9201": " seeking",
  "9202": " murdering",
  "9203": " vehe",
  "9204": " Help",
  "9205": "changing",
  "9206": " agony",
  "9207": " agreement",
  "9208": " whipped",
  "9209": " watchful",
  "9210": " distemper",
  "9211": "Seeking",
  "9212": " acting",
  "9213": " wasted",
  "9214": " wondering",
  "9215": " bites",
  "9216": " biting",
  "9217": " stole",
  "9218": " stirru",
  "9219": " clouded",
  "9220": "suing",
  "9221": " drinks",
  "9222": " praised",
  "9223": " enterpr",
  "9224": "voury",
  "9225": " fitter",
  "9226": " garlic",
  "9227": " changeling",
  "9228": " deliverance",
  "9229": " Think",
  "9230": "LORDS",
  "9231": " skin",
  "9232": " sickly",
  "9233": " signories",
  "9234": " wishes",
  "9235": " region",
  "9236": " regreet",
  "9237": " consuls",
  "9238": " cheerful",
  "9239": " ordering",
  "9240": " orderly",
  "9241": " fourth",
  "9242": " dug",
  "9243": " ducats",
  "9244": " liberties",
  "9245": "verns",
  "9246": " moveables",
  "9247": "shell",
  "9248": "sheathe",
  "9249": " frowning",
  "9250": " feasting",
  "9251": " grove",
  "9252": " soften",
  "9253": " beggary",
  "9254": " consented",
  "9255": " Forrest",
  "9256": "Revol",
  "9257": "hematic",
  "9258": " barb",
  "9259": " barr",
  "9260": " bargain",
  "9261": " dropp",
  "9262": " darken",
  "9263": " darkly",
  "9264": " crad",
  "9265": " crimes",
  "9266": " crutch",
  "9267": " Church",
  "9268": " expost",
  "9269": " gotten",
  "9270": " intercept",
  "9271": " intercession",
  "9272": " evident",
  "9273": " summon",
  "9274": " victorious",
  "9275": " respects",
  "9276": " briefly",
  "9277": " visiting",
  "9278": " malicious",
  "9279": " speechless",
  "9280": " worshipful",
  "9281": "spo",
  "9282": " fresher",
  "9283": " freshest",
  "9284": " limb",
  "9285": " penury",
  "9286": " penny",
  "9287": " Place",
  "9288": " Player",
  "9289": " Plashy",
  "9290": " leader",
  "9291": " patiently",
  "9292": " lamentations",
  "9293": " broils",
  "9294": " bawdy",
  "9295": " cleft",
  "9296": " creation",
  "9297": " capable",
  "9298": " capital",
  "9299": " lacks",
  "9300": " opposed",
  "9301": " eating",
  "9302": " violate",
  "9303": " approaches",
  "9304": " complices",
  "9305": " Christendom",
  "9306": " surm",
  "9307": " surly",
  "9308": " survey",
  "9309": "Conf",
  "9310": "Plain",
  "9311": "Pluck",
  "9312": " births",
  "9313": "arlisle",
  "9314": " painful",
  "9315": " became",
  "9316": "Standing",
  "9317": " torches",
  "9318": " torments",
  "9319": " wildly",
  "9320": " caus",
  "9321": " certainly",
  "9322": "semary",
  "9323": " injured",
  "9324": " innocency",
  "9325": " urging",
  "9326": "Thinking",
  "9327": " Stand",
  "9328": " Staff",
  "9329": " pleasures",
  "9330": "Mariner",
  "9331": " apothecary",
  "9332": " shock",
  "9333": " meditation",
  "9334": " obst",
  "9335": " obdur",
  "9336": " oblivion",
  "9337": " dooms",
  "9338": " favourable",
  "9339": " uncertain",
  "9340": "ighbours",
  "9341": " Englishman",
  "9342": " lane",
  "9343": "settled",
  "9344": " refuge",
  "9345": " Mercury",
  "9346": " tempor",
  "9347": "Enforce",
  "9348": "Envir",
  "9349": "bborn",
  "9350": "himself",
  "9351": " drowning",
  "9352": "angled",
  "9353": " effects",
  "9354": " swiftly",
  "9355": " Prithee",
  "9356": " desperately",
  "9357": " doublet",
  "9358": "Meaning",
  "9359": " authorities",
  "9360": " fruits",
  "9361": " elders",
  "9362": " studies",
  "9363": " studied",
  "9364": " enjoys",
  "9365": " wretchedness",
  "9366": "Brought",
  "9367": "eye",
  "9368": "eyed",
  "9369": " bastardy",
  "9370": " corners",
  "9371": " helms",
  "9372": "stantial",
  "9373": " degenerate",
  "9374": " severity",
  "9375": " Willoughby",
  "9376": " countermand",
  "9377": " counterpo",
  "9378": " beggarly",
  "9379": "Loved",
  "9380": "monstrous",
  "9381": " dwelling",
  "9382": " gentry",
  "9383": " butchers",
  "9384": " unfit",
  "9385": " added",
  "9386": " privately",
  "9387": " verge",
  "9388": " verity",
  "9389": "attling",
  "9390": " relation",
  "9391": " relieve",
  "9392": " dealing",
  "9393": " arrival",
  "9394": " smoking",
  "9395": "Blind",
  "9396": "Desp",
  "9397": "Except",
  "9398": "constable",
  "9399": " bait",
  "9400": " stabbed",
  "9401": " speeches",
  "9402": " shores",
  "9403": " proofs",
  "9404": " jointure",
  "9405": " prophecies",
  "9406": " embracements",
  "9407": " innocents",
  "9408": " edict",
  "9409": "Adieu",
  "9410": "Advance",
  "9411": " wagon",
  "9412": "rehend",
  "9413": " election",
  "9414": " elements",
  "9415": " decree",
  "9416": " decrees",
  "9417": " necessary",
  "9418": " necessities",
  "9419": " sailors",
  "9420": " prevails",
  "9421": " escap",
  "9422": " Wherefore",
  "9423": "Rescue",
  "9424": " offenders",
  "9425": " heaviness",
  "9426": " heavily",
  "9427": "Showing",
  "9428": " profession",
  "9429": " expressly",
  "9430": "appare",
  "9431": "proud",
  "9432": " bandy",
  "9433": " bondage",
  "9434": " detested",
  "9435": " calf",
  "9436": " physicians",
  "9437": " vanqu",
  "9438": " vanish",
  "9439": " deserts",
  "9440": " transg",
  "9441": " affected",
  "9442": " leanness",
  "9443": " accusations",
  "9444": " punishment",
  "9445": "Repair",
  "9446": " basil",
  "9447": " feeble",
  "9448": " fashions",
  "9449": " divers",
  "9450": " ports",
  "9451": " portion",
  "9452": " bewray",
  "9453": " complete",
  "9454": " ambush",
  "9455": " ambassad",
  "9456": " argument",
  "9457": " arguments",
  "9458": " Proceed",
  "9459": " advancement",
  "9460": " persuaded",
  "9461": " petitions",
  "9462": " solemnity",
  "9463": "Bearing",
  "9464": "Heavens",
  "9465": "exec",
  "9466": "score",
  "9467": "itae",
  "9468": " hostess",
  "9469": " obscured",
  "9470": " shunn",
  "9471": " blocks",
  "9472": " quality",
  "9473": " qualities",
  "9474": " qualify",
  "9475": " alteration",
  "9476": " maidenhead",
  "9477": " vexation",
  "9478": "Setting",
  "9479": "brain",
  "9480": " morsel",
  "9481": " digest",
  "9482": " thorny",
  "9483": " sprites",
  "9484": " Cobham",
  "9485": " combat",
  "9486": " worthier",
  "9487": " worthiest",
  "9488": " jewels",
  "9489": " Adam",
  "9490": " Adieu",
  "9491": " disperse",
  "9492": " clamorous",
  "9493": " directly",
  "9494": "Accursed",
  "9495": "maids",
  "9496": "shapen",
  "9497": "weary",
  "9498": " symp",
  "9499": " salute",
  "9500": " fiends",
  "9501": " dimm",
  "9502": " driven",
  "9503": " ceremony",
  "9504": " linen",
  "9505": " horrible",
  "9506": " pikes",
  "9507": " forsook",
  "9508": " reckless",
  "9509": " unjustly",
  "9510": " enforcement",
  "9511": " dissembling",
  "9512": " floods",
  "9513": " restrain",
  "9514": " resisted",
  "9515": " affliction",
  "9516": " reconciled",
  "9517": " helmets",
  "9518": " complexions",
  "9519": "Imagine",
  "9520": "Knows",
  "9521": "Rich",
  "9522": "Richmond",
  "9523": "Smile",
  "9524": "boding",
  "9525": "ratitude",
  "9526": "warrant",
  "9527": " timorous",
  "9528": "oubted",
  "9529": " mirror",
  "9530": " message",
  "9531": "inctly",
  "9532": " buckle",
  "9533": " differen",
  "9534": " difference",
  "9535": " lineal",
  "9536": " grub",
  "9537": " stumbled",
  "9538": " receives",
  "9539": " receipt",
  "9540": " shameless",
  "9541": " factious",
  "9542": " displeased",
  "9543": " disguise",
  "9544": " coffin",
  "9545": " coffers",
  "9546": " gratis",
  "9547": " incense",
  "9548": " acquaintance",
  "9549": "Awaked",
  "9550": "Darest",
  "9551": "Witness",
  "9552": "Withal",
  "9553": "pretation",
  "9554": " toucheth",
  "9555": " trod",
  "9556": " bonny",
  "9557": " fretting",
  "9558": " nettle",
  "9559": " lurk",
  "9560": " lurking",
  "9561": " thirsty",
  "9562": " homicide",
  "9563": " highest",
  "9564": " toys",
  "9565": " wealthy",
  "9566": " spectacle",
  "9567": " blasts",
  "9568": " Valent",
  "9569": " Valeria",
  "9570": " hopeless",
  "9571": " engross",
  "9572": " flinty",
  "9573": " beguiled",
  "9574": " subdue",
  "9575": " subdued",
  "9576": " beauties",
  "9577": " beautiful",
  "9578": " sacrifice",
  "9579": " lengthens",
  "9580": "Brave",
  "9581": "Persuade",
  "9582": "Persuades",
  "9583": "Quick",
  "9584": "Write",
  "9585": "called",
  "9586": "contin",
  "9587": " session",
  "9588": " mathematic",
  "9589": " porter",
  "9590": " painting",
  "9591": " gnaw",
  "9592": " gainsay",
  "9593": "seeming",
  "9594": " gossips",
  "9595": " uneven",
  "9596": " unrevere",
  "9597": " prodigy",
  "9598": " prodigal",
  "9599": " encourage",
  "9600": " disinherit",
  "9601": " disinherited",
  "9602": " abundant",
  "9603": " abundance",
  "9604": " robbers",
  "9605": " control",
  "9606": " controversy",
  "9607": " accomplish",
  "9608": " trenches",
  "9609": " buzzard",
  "9610": " attorneys",
  "9611": " drooping",
  "9612": " embraced",
  "9613": " obsequies",
  "9614": " detestable",
  "9615": "Acquaint",
  "9616": "Caius",
  "9617": "beseeming",
  "9618": "tinent",
  "9619": " masqu",
  "9620": " bulk",
  "9621": " fifty",
  "9622": " filthy",
  "9623": " cropp",
  "9624": " powder",
  "9625": " picture",
  "9626": " effeminate",
  "9627": " stinking",
  "9628": " deceased",
  "9629": " deformity",
  "9630": " doleful",
  "9631": " annoy",
  "9632": " ancestors",
  "9633": " sparkling",
  "9634": " Lovel",
  "9635": " planet",
  "9636": " Westmin",
  "9637": " rheum",
  "9638": " rigour",
  "9639": " clergy",
  "9640": " everlasting",
  "9641": " rumour",
  "9642": " accompany",
  "9643": " champion",
  "9644": " confederate",
  "9645": " afterwards",
  "9646": "Happily",
  "9647": " criminal",
  "9648": " summers",
  "9649": " insinuate",
  "9650": " unprovided",
  "9651": " unluckily",
  "9652": " magistrate",
  "9653": " lineaments",
  "9654": " surprised",
  "9655": " fantastical",
  "9656": " momentary",
  "9657": " Ulysses",
  "9658": "Banish",
  "9659": "Deny",
  "9660": "Destroy",
  "9661": "Err",
  "9662": "Renowned",
  "9663": "married",
  "9664": "minded",
  "9665": "person",
  "9666": "sometimes",
  "9667": "withal",
  "9668": " turtle",
  "9669": " tinker",
  "9670": " treaty",
  "9671": " acknowledge",
  "9672": " mantle",
  "9673": " derived",
  "9674": " diligence",
  "9675": " drowsy",
  "9676": " candle",
  "9677": " yesternight",
  "9678": " ominous",
  "9679": " gamut",
  "9680": " beetle",
  "9681": " inveterate",
  "9682": " invention",
  "9683": " inheritance",
  "9684": "imois",
  "9685": " stubborn",
  "9686": " resemblance",
  "9687": " Cleomenes",
  "9688": " vigour",
  "9689": "Forthwith",
  "9690": " Lammas",
  "9691": " orphans",
  "9692": " usurer",
  "9693": " unpleasing",
  "9694": " worships",
  "9695": " Happy",
  "9696": " Amazon",
  "9697": " disloyal",
  "9698": " exclaims",
  "9699": " Turks",
  "9700": " precise",
  "9701": " scourge",
  "9702": " chivalry",
  "9703": " appellant",
  "9704": " immediately",
  "9705": " Jerusale",
  "9706": " Juno",
  "9707": " conspiracy",
  "9708": " chafed",
  "9709": " suppliant",
  "9710": " infringe",
  "9711": " infirmity",
  "9712": " minstrels",
  "9713": " distinguish",
  "9714": " malignant",
  "9715": " argosy",
  "9716": "scaped",
  "9717": "Pursuivant",
  "9718": " eloquence",
  "9719": "BLUNT",
  "9720": "Breathe",
  "9721": "Children",
  "9722": "EARL",
  "9723": "FRANCIS",
  "9724": "Glad",
  "9725": "Hostess",
  "9726": "Juliet",
  "9727": "Merely",
  "9728": "Perchance",
  "9729": "Senators",
  "9730": "Souls",
  "9731": "Stop",
  "9732": "Tongue",
  "9733": "creature",
  "9734": "corner",
  "9735": "danger",
  "9736": "igeia",
  "9737": "makers",
  "9738": "ozine",
  "9739": " tumult",
  "9740": " surname",
  "9741": " bustle",
  "9742": " bauble",
  "9743": " bashful",
  "9744": " future",
  "9745": " nineteen",
  "9746": " lazy",
  "9747": " threefold",
  "9748": " poorest",
  "9749": " girls",
  "9750": "athaniel",
  "9751": " steterat",
  "9752": " stratagems",
  "9753": " kennel",
  "9754": "ascivious",
  "9755": " separated",
  "9756": " sulphur",
  "9757": " anguish",
  "9758": " Castle",
  "9759": " Ragozine",
  "9760": " violet",
  "9761": " shepherds",
  "9762": " Ludlow",
  "9763": " Sixth",
  "9764": " Sebastian",
  "9765": " SALISBURY",
  "9766": " Bristol",
  "9767": " Brandon",
  "9768": " unawares",
  "9769": " unaccustom",
  "9770": " Hallowmas",
  "9771": " Abhorson",
  "9772": " somebody",
  "9773": " adulteress",
  "9774": " Delphos",
  "9775": " subscribe",
  "9776": " Montgomery",
  "9777": " enterprise",
  "9778": " Stafford",
  "9779": " obdurate",
  "9780": " mathematics",
  "9781": " Westminster",
  "9782": " Jerusalem",
  "9783": "\n\n",
  "9784": " :",
  "9785": " ess",
  "9786": " That",
  "9787": " Upon",
  "9788": " ounce",
  "9789": "'m",
  "9790": "'ve",
  "9791": "Aim",
  "9792": "Ant",
  "9793": "Ariel",
  "9794": "Bu",
  "9795": "Bea",
  "9796": "Bare",
  "9797": "Been",
  "9798": "Base",
  "9799": "Bianca",
  "9800": "Boot",
  "9801": "Bishop",
  "9802": "Bushy",
  "9803": "Brief",
  "9804": "Cor",
  "9805": "Cur",
  "9806": "Chan",
  "9807": "CARD",
  "9808": "Crown",
  "9809": "Cull",
  "9810": "Certain",
  "9811": "Coun",
  "9812": "Cambio",
  "9813": "Cuts",
  "9814": "Captain",
  "9815": "Dre",
  "9816": "Day",
  "9817": "Dra",
  "9818": "Done",
  "9819": "Dry",
  "9820": "Dig",
  "9821": "Del",
  "9822": "Dull",
  "9823": "Deep",
  "9824": "Dorset",
  "9825": "During",
  "9826": "EAS",
  "9827": "Emb",
  "9828": "Earth",
  "9829": "Fan",
  "9830": "Four",
  "9831": "Fam",
  "9832": "Fast",
  "9833": "Fare",
  "9834": "Further",
  "9835": "Gro",
  "9836": "Gave",
  "9837": "Gremio",
  "9838": "Grim",
  "9839": "Grief",
  "9840": "Him",
  "9841": "Hea",
  "9842": "HEY",
  "9843": "Holl",
  "9844": "Honour",
  "9845": "Hover",
  "9846": "Honest",
  "9847": "Half",
  "9848": "Iron",
  "9849": "Joy",
  "9850": "Jove",
  "9851": "John",
  "9852": "Killing",
  "9853": "Le",
  "9854": "Lim",
  "9855": "Lau",
  "9856": "List",
  "9857": "Learn",
  "9858": "Laid",
  "9859": "Lift",
  "9860": "Lament",
  "9861": "Lascivious",
  "9862": "Mond",
  "9863": "Meet",
  "9864": "Merc",
  "9865": "Matter",
  "9866": "Mont",
  "9867": "Mars",
  "9868": "Maid",
  "9869": "Mortal",
  "9870": "Menenius",
  "9871": "New",
  "9872": "Need",
  "9873": "Nature",
  "9874": "Pe",
  "9875": "Po",
  "9876": "Pom",
  "9877": "Ple",
  "9878": "Pri",
  "9879": "Pra",
  "9880": "Past",
  "9881": "Pity",
  "9882": "Pass",
  "9883": "Pret",
  "9884": "Padua",
  "9885": "Pisa",
  "9886": "Prick",
  "9887": "Ra",
  "9888": "Rec",
  "9889": "Rise",
  "9890": "Rage",
  "9891": "RIST",
  "9892": "Sk",
  "9893": "Sl",
  "9894": "Sn",
  "9895": "Sed",
  "9896": "Sith",
  "9897": "Sher",
  "9898": "Sea",
  "9899": "Saint",
  "9900": "Sister",
  "9901": "Spl",
  "9902": "Sham",
  "9903": "Suff",
  "9904": "Sorry",
  "9905": "Safe",
  "9906": "Silence",
  "9907": "Simois",
  "9908": "Ty",
  "9909": "Tor",
  "9910": "Thi",
  "9911": "Tear",
  "9912": "Tend",
  "9913": "Tick",
  "9914": "Tears",
  "9915": "Taking",
  "9916": "Tread",
  "9917": "Troth",
  "9918": "Taste",
  "9919": "TIT",
  "9920": "Temper",
  "9921": "Tribunes",
  "9922": "Us",
  "9923": "Vis",
  "9924": "VEL",
  "9925": "Vince",
  "9926": "Vile",
  "9927": "Verona",
  "9928": "Wear",
  "9929": "Wind",
  "9930": "Wish",
  "9931": "Wise",
  "9932": "Wrong",
  "9933": "Words",
  "9934": "Wrench",
  "9935": "York",
  "9936": "ah",
  "9937": "avy",
  "9938": "acheth",
  "9939": "avoury",
  "9940": "bu",
  "9941": "bet",
  "9942": "bion",
  "9943": "bout",
  "9944": "both",
  "9945": "bound",
  "9946": "been",
  "9947": "bew",
  "9948": "bary",
  "9949": "bring",
  "9950": "brows",
  "9951": "bawd",
  "9952": "bishop",
  "9953": "cr",
  "9954": "cre",
  "9955": "cer",
  "9956": "cke",
  "9957": "crow",
  "9958": "cum",
  "9959": "cold",
  "9960": "cass",
  "9961": "cause",
  "9962": "cup",
  "9963": "cures",
  "9964": "cover",
  "9965": "cote",
  "9966": "cerity",
  "9967": "did",
  "9968": "dam",
  "9969": "die",
  "9970": "del",
  "9971": "dges",
  "9972": "dying",
  "9973": "dares",
  "9974": "ev",
  "9975": "ece",
  "9976": "even",
  "9977": "ection",
  "9978": "fes",
  "9979": "fear",
  "9980": "fast",
  "9981": "five",
  "9982": "fond",
  "9983": "fig",
  "9984": "fire",
  "9985": "face",
  "9986": "fied",
  "9987": "fool",
  "9988": "fair",
  "9989": "finger",
  "9990": "false",
  "9991": "front",
  "9992": "gent",
  "9993": "gess",
  "9994": "god",
  "9995": "gger",
  "9996": "gier",
  "9997": "gments",
  "9998": "gentleman",
  "9999": "<|endoftext|>"
}