{
  "0": "\u0000",
  "1": "\u0001",
  "2": "\u0002",
  "3": "\u0003",
  "4": "\u0004",
  "5": "\u0005",
  "6": "\u0006",
  "7": "\u0007",
  "8": "\b",
  "9": "\t",
  "10": "\n",
  "11": "\u000b",
  "12": "\f",
  "13": "\r",
  "14": "\u000e",
  "15": "\u000f",
  "16": "\u0010",
  "17": "\u0011",
  "18": "\u0012",
  "19": "\u0013",
  "20": "\u0014",
  "21": "\u0015",
  "22": "\u0016",
  "23": "\u0017",
  "24": "\u0018",
  "25": "\u0019",
  "26": "\u001a",
  "27": "\u001b",
  "28": "\u001c",
  "29": "\u001d",
  "30": "\u001e",
  "31": "\u001f",
  "32": " ",
  "33": "!",
  "34": "\"",
  "35": "#",
  "36": "$",
  "37": "%",
  "38": "&",
  "39": "'",
  "40": "(",
  "41": ")",
  "42": "*",
  "43": "+",
  "44": ",",
  "45": "-",
  "46": ".",
  "47": "/",
  "48": "0",
  "49": "1",
  "50": "2",
  "51": "3",
  "52": "4",
  "53": "5",
  "54": "6",
  "55": "7",
  "56": "8",
  "57": "9",
  "58": ":",
  "59": ";",
  "60": "<",
  "61": "=",
  "62": ">",
  "63": "?",
  "64": "@",
  "65": "A",
  "66": "B",
  "67": "C",
  "68": "D",
  "69": "E",
  "70": "F",
  "71": "G",
  "72": "H",
  "73": "I",
  "74": "J",
  "75": "K",
  "76": "L",
  "77": "M",
  "78": "N",
  "79": "O",
  "80": "P",
  "81": "Q",
  "82": "R",
  "83": "S",
  "84": "T",
  "85": "U",
  "86": "V",
  "87": "W",
  "88": "X",
  "89": "Y",
  "90": "Z",
  "91": "[",
  "92": "\\",
  "93": "]",
  "94": "^",
  "95": "_",
  "96": "`",
  "97": "a",
  "98": "b",
  "99": "c",
  "100": "d",
  "101": "e",
  "102": "f",
  "103": "g",
  "104": "h",
  "105": "i",
  "106": "j",
  "107": "k",
  "108": "l",
  "109": "m",
  "110": "n",
  "111": "o",
  "112": "p",
  "113": "q",
  "114": "r",
  "115": "s",
  "116": "t",
  "117": "u",
  "118": "v",
  "119": "w",
  "120": "x",
  "121": "y",
  "122": "z",
  "123": "{",
  "124": "|",
  "125": "}",
  "126": "~",
  "127": "",
  "128": "�",
  "129": "�",
  "130": "�",
  "131": "�",
  "132": "�",
  "133": "�",
  "134": "�",
  "135": "�",
  "136": "�",
  "137": "�",
  "138": "�",
  "139": "�",
  "140": "�",
  "141": "�",
  "142": "�",
  "143": "�",
  "144": "�",
  "145": "�",
  "146": "�",
  "147": "�",
  "148": "�",
  "149": "�",
  "150": "�",
  "151": "�",
  "152": "�",
  "153": "�",
  "154": "�",
  "155": "�",
  "156": "�",
  "157": "�",
  "158": "�",
  "159": "�",
  "160": "�",
  "161": "�",
  "162": "�",
  "163": "�",
  "164": "�",
  "165": "�",
  "166": "�",
  "167": "�",
  "168": "�",
  "169": "�",
  "170": "�",
  "171": "�",
  "172": "�",
  "173": "�",
  "174": "�",
  "175": "�",
  "176": "�",
  "177": "�",
  "178": "�",
  "179": "�",
  "180": "�",
  "181": "�",
  "182": "�",
  "183": "�",
  "184": "�",
  "185": "�",
  "186": "�",
  "187": "�",
  "188": "�",
  "189": "�",
  "190": "�",
  "191": "�",
  "192": "�",
  "193": "�",
  "194": "�",
  "195": "�",
  "196": "�",
  "197": "�",
  "198": "�",
  "199": "�",
  "200": "�",
  "201": "�",
  "202": "�",
  "203": "�",
  "204": "�",
  "205": "�",
  "206": "�",
  "207": "�",
  "208": "�",
  "209": "�",
  "210": "�",
  "211": "�",
  "212": "�",
  "213": "�",
  "214": "�",
  "215": "�",
  "216": "�",
  "217": "�",
  "218": "�",
  "219": "�",
  "220": "�",
  "221": "�",
  "222": "�",
  "223": "�",
  "224": "�",
  "225": "�",
  "226": "�",
  "227": "�",
  "228": "�",
  "229": "�",
  "230": "�",
  "231": "�",
  "232": "�",
  "233": "�",
  "234": "�",
  "235": "�",
  "236": "�",
  "237": "�",
  "238": "�",
  "239": "�",
  "240": "�",
  "241": "�",
  "242": "�",
  "243": "�",
  "244": "�",
  "245": "�",
  "246": "�",
  "247": "�",
  "248": "�",
  "249": "�",
  "250": "�",
  "251": "�",
  "252": "�",
  "253": "�",
  "254": "�",
  "255": "�",
  "256": " t",
  "257": "he",
  "258": " a",
  "259": "ou",
  "260": " s",
  "261": " m",
  "262": "in",
  "263": " w",
  "264": "re",
  "265": "ha",
  "266": "nd",
  "267": " the",
  "268": " b",
  "269": "is",
  "270": "or",
  "271": " f",
  "272": "er",
  "273": "ll",
  "274": "it",
  "275": "on",
  "276": " d",
  "277": " c",
  "278": "es",
  "279": "en",
  "280": " n",
  "281": " l",
  "282": " y",
  "283": " th",
  "284": "ar",
  "285": " h",
  "286": " o",
  "287": " to",
  "288": " you",
  "289": " p",
  "290": "hat",
  "291": " I",
  "292": " he",
  "293": "ve",
  "294": "ot",
  "295": "st",
  "296": " and",
  "297": "ow",
  "298": "ing",
  "299": "an",
  "300": " of",
  "301": "om",
  "302": " g",
  "303": "at",
  "304": " be",
  "305": "se",
  "306": " my",
  "307": " in",
  "308": "ce",
  "309": " ha",
  "310": "le",
  "311": "ay",
  "312": "ld",
  "313": "ir",
  "314": "et",
  "315": "ed",
  "316": "ut",
  "317": " me",
  "318": "im",
  "319": "ith",
  "320": "'s",
  "321": " not",
  "322": "ch",
  "323": " that",
  "324": " is",
  "325": "gh",
  "326": "And",
  "327": " for",
  "328": "ke",
  "329": " u",
  "330": "our",
  "331": " we",
  "332": "oo",
  "333": "ill",
  "334": " e",
  "335": "her",
  "336": " with",
  "337": "ent",
  "338": " it",
  "339": " your",
  "340": "ad",
  "341": "ri",
  "342": " thou",
  "343": " st",
  "344": "'d",
  "345": " k",
  "346": "ome",
  "347": " his",
  "348": "ght",
  "349": "EN",
  "350": "ord",
  "351": "id",
  "352": "The",
  "353": "as",
  "354": " re",
  "355": " have",
  "356": "IN",
  "357": "ly",
  "358": "ra",
  "359": " li",
  "360": " him",
  "361": "ur",
  "362": " this",
  "363": "al",
  "364": "IO",
  "365": " so",
  "366": " as",
  "367": " de",
  "368": " on",
  "369": "ore",
  "370": "ro",
  "371": "AR",
  "372": "hi",
  "373": "ould",
  "374": "ood",
  "375": "ck",
  "376": "ain",
  "377": "ver",
  "378": "est",
  "379": " thy",
  "380": " sha",
  "381": "ess",
  "382": "ea",
  "383": " do",
  "384": " will",
  "385": "am",
  "386": " no",
  "387": " but",
  "388": "us",
  "389": "and",
  "390": "US",
  "391": "if",
  "392": " se",
  "393": "ge",
  "394": "Th",
  "395": " all",
  "396": "ake",
  "397": " su",
  "398": "To",
  "399": " her",
  "400": "ru",
  "401": "ion",
  "402": "th",
  "403": " an",
  "404": "ter",
  "405": "ard",
  "406": " lo",
  "407": "han",
  "408": "ell",
  "409": "ear",
  "410": " sp",
  "411": " thee",
  "412": " our",
  "413": " fa",
  "414": " shall",
  "415": " by",
  "416": "UC",
  "417": "il",
  "418": " are",
  "419": "ING",
  "420": " C",
  "421": "rom",
  "422": " ne",
  "423": "ho",
  "424": " kn",
  "425": "AN",
  "426": " R",
  "427": "That",
  "428": " v",
  "429": "ER",
  "430": "OR",
  "431": "ast",
  "432": "ct",
  "433": "ous",
  "434": " what",
  "435": "ight",
  "436": " sh",
  "437": "ul",
  "438": " '",
  "439": "ET",
  "440": "ant",
  "441": "ES",
  "442": " up",
  "443": "sel",
  "444": "qu",
  "445": "But",
  "446": "art",
  "447": " good",
  "448": "row",
  "449": "ine",
  "450": "ath",
  "451": " lord",
  "452": "hich",
  "453": "nt",
  "454": "ust",
  "455": "'ll",
  "456": "one",
  "457": " pr",
  "458": " com",
  "459": " at",
  "460": " man",
  "461": " M",
  "462": "What",
  "463": " whe",
  "464": " E",
  "465": "KING",
  "466": " am",
  "467": "end",
  "468": "ic",
  "469": " con",
  "470": "ble",
  "471": "ry",
  "472": "ong",
  "473": "ie",
  "474": "ive",
  "475": " bl",
  "476": " from",
  "477": "ven",
  "478": " G",
  "479": "For",
  "480": " she",
  "481": "em",
  "482": " go",
  "483": "are",
  "484": " more",
  "485": "IC",
  "486": "out",
  "487": " them",
  "488": "au",
  "489": " was",
  "490": "oth",
  "491": "other",
  "492": "He",
  "493": " sir",
  "494": "ol",
  "495": " now",
  "496": " L",
  "497": " hat",
  "498": " if",
  "499": "ost",
  "500": "LO",
  "501": "ind",
  "502": " there",
  "503": " would",
  "504": " know",
  "505": " can",
  "506": "ers",
  "507": "IUS",
  "508": "ep",
  "509": "self",
  "510": "ARD",
  "511": "ather",
  "512": "fe",
  "513": "ond",
  "514": "res",
  "515": "ate",
  "516": " say",
  "517": " here",
  "518": " love",
  "519": " sw",
  "520": " their",
  "521": " br",
  "522": " or",
  "523": "pp",
  "524": " S",
  "525": "--",
  "526": "all",
  "527": " than",
  "528": " then",
  "529": " king",
  "530": " us",
  "531": " O",
  "532": " B",
  "533": " they",
  "534": " ar",
  "535": "od",
  "536": "My",
  "537": " let",
  "538": " un",
  "539": "ig",
  "540": " wor",
  "541": "ure",
  "542": "ink",
  "543": " H",
  "544": "ort",
  "545": " V",
  "546": "hy",
  "547": "ame",
  "548": "fore",
  "549": "As",
  "550": " may",
  "551": "el",
  "552": " qu",
  "553": " come",
  "554": "ook",
  "555": "Whe",
  "556": "ish",
  "557": "LI",
  "558": " well",
  "559": "KE",
  "560": "ves",
  "561": " j",
  "562": " one",
  "563": " hath",
  "564": "irst",
  "565": "You",
  "566": " make",
  "567": "reat",
  "568": "ak",
  "569": "gain",
  "570": " must",
  "571": "ound",
  "572": "ng",
  "573": " gra",
  "574": " were",
  "575": " ho",
  "576": "ci",
  "577": " see",
  "578": " like",
  "579": "ue",
  "580": "eak",
  "581": "TIO",
  "582": " should",
  "583": "ity",
  "584": " pro",
  "585": " P",
  "586": " sa",
  "587": " mad",
  "588": "um",
  "589": " pl",
  "590": " father",
  "591": "RO",
  "592": "AU",
  "593": " had",
  "594": " did",
  "595": "pe",
  "596": "ime",
  "597": " upon",
  "598": "ice",
  "599": "ON",
  "600": " too",
  "601": "ence",
  "602": " W",
  "603": "ward",
  "604": "ist",
  "605": " death",
  "606": "own",
  "607": " en",
  "608": "man",
  "609": "ose",
  "610": "un",
  "611": "IS",
  "612": "ful",
  "613": "nce",
  "614": " r",
  "615": " po",
  "616": " speak",
  "617": "de",
  "618": "entle",
  "619": " out",
  "620": "io",
  "621": "pt",
  "622": " which",
  "623": "ICH",
  "624": " fri",
  "625": "OL",
  "626": "DU",
  "627": " again",
  "628": "DUKE",
  "629": " how",
  "630": "EL",
  "631": " A",
  "632": "ick",
  "633": " tru",
  "634": " heart",
  "635": " yet",
  "636": " hand",
  "637": "CA",
  "638": "Thou",
  "639": "very",
  "640": "ICHARD",
  "641": "ENTIO",
  "642": "With",
  "643": "ign",
  "644": " some",
  "645": "ance",
  "646": " who",
  "647": "Which",
  "648": "If",
  "649": " when",
  "650": "ies",
  "651": " mar",
  "652": "ire",
  "653": " mine",
  "654": " hon",
  "655": "har",
  "656": "orn",
  "657": " off",
  "658": "ince",
  "659": "INC",
  "660": " Y",
  "661": "In",
  "662": "ack",
  "663": " son",
  "664": " dis",
  "665": " al",
  "666": "'t",
  "667": "We",
  "668": "uch",
  "669": "wn",
  "670": " hea",
  "671": "First",
  "672": "oy",
  "673": " time",
  "674": " hear",
  "675": "AB",
  "676": "ec",
  "677": " such",
  "678": "ness",
  "679": "LA",
  "680": " brother",
  "681": "Of",
  "682": " blood",
  "683": "ither",
  "684": " ab",
  "685": "UE",
  "686": "Why",
  "687": " these",
  "688": "No",
  "689": " give",
  "690": " fo",
  "691": " day",
  "692": " II",
  "693": " ear",
  "694": " RICHARD",
  "695": " ro",
  "696": "TER",
  "697": "ise",
  "698": " ex",
  "699": " life",
  "700": "This",
  "701": "eet",
  "702": " tell",
  "703": "So",
  "704": " look",
  "705": " think",
  "706": "UCH",
  "707": "oul",
  "708": " word",
  "709": " ey",
  "710": " where",
  "711": "ag",
  "712": "age",
  "713": "een",
  "714": "ther",
  "715": "GLO",
  "716": " take",
  "717": "UCES",
  "718": " friend",
  "719": "GLOUCES",
  "720": "GLOUCESTER",
  "721": "ef",
  "722": "erv",
  "723": "ady",
  "724": "rown",
  "725": " des",
  "726": "ings",
  "727": "ave",
  "728": "not",
  "729": " gentle",
  "730": "urse",
  "731": " ri",
  "732": "How",
  "733": "RY",
  "734": "ase",
  "735": "QUE",
  "736": "way",
  "737": "INCENTIO",
  "738": "QUEEN",
  "739": " lea",
  "740": "tis",
  "741": " OF",
  "742": " art",
  "743": " most",
  "744": "Where",
  "745": " honour",
  "746": "LAN",
  "747": " much",
  "748": " sl",
  "749": " war",
  "750": " fl",
  "751": "urn",
  "752": " made",
  "753": "ment",
  "754": "Now",
  "755": " hast",
  "756": " tw",
  "757": " fear",
  "758": " T",
  "759": " bet",
  "760": "ENRY",
  "761": "aught",
  "762": "Is",
  "763": "LE",
  "764": "ber",
  "765": "ff",
  "766": " God",
  "767": "ough",
  "768": "ved",
  "769": " bre",
  "770": "cc",
  "771": "ower",
  "772": " never",
  "773": " VINCENTIO",
  "774": " K",
  "775": "Be",
  "776": "ap",
  "777": "igh",
  "778": " great",
  "779": " fair",
  "780": "Who",
  "781": "ee",
  "782": "tle",
  "783": " men",
  "784": "orrow",
  "785": " cou",
  "786": " new",
  "787": " Rome",
  "788": "aster",
  "789": "uke",
  "790": "iz",
  "791": "old",
  "792": "ORK",
  "793": " part",
  "794": "ation",
  "795": "INIUS",
  "796": "ss",
  "797": "ree",
  "798": "ide",
  "799": "Or",
  "800": " call",
  "801": "ple",
  "802": " any",
  "803": " heaven",
  "804": " ad",
  "805": " comm",
  "806": "It",
  "807": "Your",
  "808": " stand",
  "809": " cannot",
  "810": " true",
  "811": "DW",
  "812": " name",
  "813": " been",
  "814": "ears",
  "815": "DWARD",
  "816": " cl",
  "817": " pre",
  "818": " sweet",
  "819": ",--",
  "820": " doth",
  "821": " pray",
  "822": "hing",
  "823": "PET",
  "824": "UM",
  "825": " noble",
  "826": "LUC",
  "827": "MEN",
  "828": "TH",
  "829": " own",
  "830": " ple",
  "831": "ass",
  "832": " D",
  "833": "ouse",
  "834": " per",
  "835": "Ay",
  "836": "Come",
  "837": "ull",
  "838": "There",
  "839": " wr",
  "840": " done",
  "841": "ife",
  "842": "aw",
  "843": " tr",
  "844": " way",
  "845": " other",
  "846": " head",
  "847": " mean",
  "848": "li",
  "849": "red",
  "850": "When",
  "851": "dward",
  "852": " nor",
  "853": "EO",
  "854": "MEO",
  "855": " sc",
  "856": " soul",
  "857": " pres",
  "858": "ROMEO",
  "859": "ace",
  "860": "ving",
  "861": " night",
  "862": " bear",
  "863": "ENIUS",
  "864": "aint",
  "865": " Cl",
  "866": " world",
  "867": "MENENIUS",
  "868": "ger",
  "869": " before",
  "870": "ause",
  "871": " both",
  "872": " queen",
  "873": "per",
  "874": "Then",
  "875": "aughter",
  "876": "RUCH",
  "877": "ock",
  "878": " chi",
  "879": "Here",
  "880": "PETRUCH",
  "881": "PETRUCHIO",
  "882": " very",
  "883": "OM",
  "884": "able",
  "885": " dead",
  "886": "TES",
  "887": " ra",
  "888": "By",
  "889": "ite",
  "890": " ke",
  "891": "Than",
  "892": "the",
  "893": " F",
  "894": "ab",
  "895": "les",
  "896": " down",
  "897": "to",
  "898": " app",
  "899": " myself",
  "900": " cont",
  "901": "GR",
  "902": "HA",
  "903": " wh",
  "904": " rem",
  "905": " Lord",
  "906": " arm",
  "907": " thus",
  "908": "IOLAN",
  "909": "ilt",
  "910": "ORIOLAN",
  "911": "ORIOLANUS",
  "912": "CORIOLANUS",
  "913": "Sec",
  "914": " leave",
  "915": "Second",
  "916": " being",
  "917": "ction",
  "918": " Edward",
  "919": "Nor",
  "920": "sw",
  "921": " unt",
  "922": "ress",
  "923": " grace",
  "924": "less",
  "925": " beg",
  "926": " eyes",
  "927": "BA",
  "928": "land",
  "929": " mother",
  "930": "ran",
  "931": " ma",
  "932": " old",
  "933": " im",
  "934": "INA",
  "935": " EDWARD",
  "936": "itiz",
  "937": "itizen",
  "938": "ps",
  "939": " long",
  "940": " ever",
  "941": " Mar",
  "942": " live",
  "943": " child",
  "944": "Let",
  "945": "me",
  "946": " wife",
  "947": "She",
  "948": " away",
  "949": " rep",
  "950": " III",
  "951": " wom",
  "952": " poor",
  "953": " friends",
  "954": "come",
  "955": "for",
  "956": "wick",
  "957": " af",
  "958": " might",
  "959": "nder",
  "960": " stay",
  "961": "eace",
  "962": "ks",
  "963": "oud",
  "964": " die",
  "965": "atch",
  "966": "led",
  "967": " J",
  "968": " ru",
  "969": "arwick",
  "970": " comes",
  "971": " cons",
  "972": " crown",
  "973": "ows",
  "974": " many",
  "975": " pe",
  "976": "Tis",
  "977": "hall",
  "978": "ison",
  "979": " le",
  "980": " YORK",
  "981": "lo",
  "982": "uck",
  "983": "iss",
  "984": " house",
  "985": " har",
  "986": " thought",
  "987": " rest",
  "988": "ISAB",
  "989": "ELLA",
  "990": "ISABELLA",
  "991": "ian",
  "992": "erc",
  "993": " cour",
  "994": " ent",
  "995": "RAN",
  "996": " lie",
  "997": "che",
  "998": " set",
  "999": "JU",
  "1000": "well",
  "1001": "ors",
  "1002": "atter",
  "1003": "LIET",
  "1004": "ONTES",
  "1005": " Warwick",
  "1006": "LEONTES",
  "1007": "JULIET",
  "1008": "Nay",
  "1009": "int",
  "1010": "ittle",
  "1011": " daughter",
  "1012": " gone",
  "1013": " better",
  "1014": "MI",
  "1015": "rant",
  "1016": "ought",
  "1017": " prince",
  "1018": "DY",
  "1019": "His",
  "1020": " tong",
  "1021": " wit",
  "1022": " nothing",
  "1023": "CE",
  "1024": "VOL",
  "1025": "ENCE",
  "1026": "LADY",
  "1027": "BR",
  "1028": "TA",
  "1029": "cl",
  "1030": "ied",
  "1031": " keep",
  "1032": "Go",
  "1033": "Well",
  "1034": "ces",
  "1035": "ious",
  "1036": "os",
  "1037": " sle",
  "1038": " res",
  "1039": "hard",
  "1040": " news",
  "1041": "SIC",
  "1042": "ft",
  "1043": "ier",
  "1044": " tri",
  "1045": " mo",
  "1046": "ret",
  "1047": "ont",
  "1048": " those",
  "1049": " gri",
  "1050": "ool",
  "1051": "une",
  "1052": "SICINIUS",
  "1053": "Not",
  "1054": " little",
  "1055": " lords",
  "1056": " against",
  "1057": "ford",
  "1058": " best",
  "1059": " hour",
  "1060": " hence",
  "1061": "ardon",
  "1062": "akes",
  "1063": "lse",
  "1064": " acc",
  "1065": "sed",
  "1066": " face",
  "1067": "ult",
  "1068": " foll",
  "1069": "On",
  "1070": "ew",
  "1071": "ud",
  "1072": "ark",
  "1073": " young",
  "1074": " end",
  "1075": "ork",
  "1076": " thing",
  "1077": " still",
  "1078": " kind",
  "1079": "ield",
  "1080": "ST",
  "1081": " pri",
  "1082": " pur",
  "1083": "alk",
  "1084": "Thy",
  "1085": " comp",
  "1086": "LUCIO",
  "1087": "ale",
  "1088": "ins",
  "1089": "ert",
  "1090": " put",
  "1091": " power",
  "1092": " IV",
  "1093": "ichard",
  "1094": " two",
  "1095": " cha",
  "1096": " himself",
  "1097": "Pro",
  "1098": "iness",
  "1099": " first",
  "1100": " peace",
  "1101": " gu",
  "1102": " else",
  "1103": "ried",
  "1104": " dear",
  "1105": "cious",
  "1106": "Sir",
  "1107": "ail",
  "1108": "ty",
  "1109": "ason",
  "1110": "hile",
  "1111": " sub",
  "1112": " unto",
  "1113": "ile",
  "1114": "ray",
  "1115": " till",
  "1116": " sm",
  "1117": "uty",
  "1118": "RI",
  "1119": "ZAB",
  "1120": "ect",
  "1121": " tra",
  "1122": " bid",
  "1123": " back",
  "1124": " dre",
  "1125": " hus",
  "1126": "ETH",
  "1127": " ELI",
  "1128": " therefore",
  "1129": " earth",
  "1130": " words",
  "1131": " count",
  "1132": "ZABETH",
  "1133": " ELIZABETH",
  "1134": "Have",
  "1135": "band",
  "1136": "ius",
  "1137": "men",
  "1138": "ople",
  "1139": "yal",
  "1140": " find",
  "1141": " could",
  "1142": " tongue",
  "1143": "orse",
  "1144": " lady",
  "1145": " thine",
  "1146": " need",
  "1147": " York",
  "1148": "HENRY",
  "1149": "get",
  "1150": "tw",
  "1151": " tre",
  "1152": " fell",
  "1153": "enry",
  "1154": " high",
  "1155": " forth",
  "1156": " hope",
  "1157": "MER",
  "1158": "St",
  "1159": "lp",
  "1160": " home",
  "1161": "vere",
  "1162": "eth",
  "1163": " seem",
  "1164": "eech",
  "1165": " Romeo",
  "1166": " husband",
  "1167": "CL",
  "1168": " duke",
  "1169": " right",
  "1170": " What",
  "1171": "GE",
  "1172": "WAR",
  "1173": "WIC",
  "1174": "fort",
  "1175": "rer",
  "1176": " ban",
  "1177": "uth",
  "1178": " though",
  "1179": " VI",
  "1180": "WARWIC",
  "1181": "WARWICK",
  "1182": "UT",
  "1183": "ach",
  "1184": "ix",
  "1185": " mind",
  "1186": " bra",
  "1187": "ister",
  "1188": " che",
  "1189": " char",
  "1190": "hip",
  "1191": " HENRY",
  "1192": " people",
  "1193": "Nurse",
  "1194": "ds",
  "1195": "ged",
  "1196": " Citizen",
  "1197": "ren",
  "1198": "They",
  "1199": " Henry",
  "1200": "HAM",
  "1201": "IAN",
  "1202": "LET",
  "1203": "PU",
  "1204": "eed",
  "1205": " bri",
  "1206": " chan",
  "1207": " law",
  "1208": " Richard",
  "1209": " show",
  "1210": " conf",
  "1211": " hands",
  "1212": "PULET",
  "1213": "EY",
  "1214": "be",
  "1215": " master",
  "1216": " why",
  "1217": " co",
  "1218": " cause",
  "1219": " gl",
  "1220": " once",
  "1221": " said",
  "1222": " imp",
  "1223": "Good",
  "1224": "MIO",
  "1225": "Shall",
  "1226": " bod",
  "1227": " none",
  "1228": "ousin",
  "1229": " joy",
  "1230": "ervant",
  "1231": "All",
  "1232": "bt",
  "1233": " fort",
  "1234": " bring",
  "1235": "Yet",
  "1236": " dou",
  "1237": "ates",
  "1238": " every",
  "1239": "UCKING",
  "1240": "BRUT",
  "1241": "UCKINGHAM",
  "1242": "BRUTUS",
  "1243": "BRO",
  "1244": "BUCKINGHAM",
  "1245": "From",
  "1246": "TRAN",
  "1247": "iet",
  "1248": " mist",
  "1249": " pass",
  "1250": "ird",
  "1251": " light",
  "1252": "INGBRO",
  "1253": "ESS",
  "1254": " BOL",
  "1255": "TRANIO",
  "1256": "INGBROKE",
  "1257": " BOLINGBROKE",
  "1258": "Do",
  "1259": "Will",
  "1260": "lt",
  "1261": "vost",
  "1262": " wo",
  "1263": " nat",
  "1264": " thr",
  "1265": " royal",
  "1266": "swer",
  "1267": "PER",
  "1268": "TIS",
  "1269": "cle",
  "1270": " tears",
  "1271": "its",
  "1272": " came",
  "1273": "ary",
  "1274": " MAR",
  "1275": " whose",
  "1276": " please",
  "1277": "lf",
  "1278": "vy",
  "1279": "ory",
  "1280": " pardon",
  "1281": "roke",
  "1282": " An",
  "1283": "Cl",
  "1284": "GAR",
  "1285": "NE",
  "1286": "pose",
  "1287": " bes",
  "1288": " boy",
  "1289": " full",
  "1290": "arry",
  "1291": " heard",
  "1292": " happ",
  "1293": " dev",
  "1294": " just",
  "1295": " wrong",
  "1296": " present",
  "1297": " MARGAR",
  "1298": " MARGARET",
  "1299": "ATH",
  "1300": "eel",
  "1301": " since",
  "1302": " mis",
  "1303": "ens",
  "1304": " land",
  "1305": " last",
  "1306": " ere",
  "1307": " state",
  "1308": " place",
  "1309": "MIL",
  "1310": "bl",
  "1311": "sand",
  "1312": " meet",
  "1313": " under",
  "1314": " kill",
  "1315": " after",
  "1316": "HOR",
  "1317": "cent",
  "1318": " sorrow",
  "1319": "ition",
  "1320": " care",
  "1321": " thousand",
  "1322": "esty",
  "1323": "ANGE",
  "1324": "ORD",
  "1325": " hold",
  "1326": "GRE",
  "1327": "ANGELO",
  "1328": "CU",
  "1329": "Our",
  "1330": " help",
  "1331": "ARINA",
  "1332": "arence",
  "1333": " whom",
  "1334": " follow",
  "1335": "KATH",
  "1336": "day",
  "1337": " far",
  "1338": " less",
  "1339": " hither",
  "1340": "ceive",
  "1341": "irt",
  "1342": " weep",
  "1343": " shame",
  "1344": "selves",
  "1345": "cius",
  "1346": " enem",
  "1347": " about",
  "1348": " eye",
  "1349": "KATHARINA",
  "1350": "iol",
  "1351": " fal",
  "1352": " fool",
  "1353": "ons",
  "1354": " pat",
  "1355": "urde",
  "1356": " sun",
  "1357": " answer",
  "1358": "air",
  "1359": " ch",
  "1360": "asure",
  "1361": " fall",
  "1362": " maid",
  "1363": "LUS",
  "1364": "Un",
  "1365": "Up",
  "1366": "ount",
  "1367": " bus",
  "1368": " cousin",
  "1369": "thy",
  "1370": "ESCA",
  "1371": " hate",
  "1372": " gracious",
  "1373": " gentleman",
  "1374": " King",
  "1375": " grief",
  "1376": "ESCALUS",
  "1377": "An",
  "1378": "ject",
  "1379": "ove",
  "1380": " makes",
  "1381": " into",
  "1382": "imes",
  "1383": " stri",
  "1384": "Hath",
  "1385": "iv",
  "1386": "ild",
  "1387": " stre",
  "1388": " Eng",
  "1389": " woman",
  "1390": "DUCH",
  "1391": " turn",
  "1392": " hum",
  "1393": " bel",
  "1394": "alt",
  "1395": " dost",
  "1396": " comfort",
  "1397": "ices",
  "1398": " coun",
  "1399": " Duke",
  "1400": " court",
  "1401": " sleep",
  "1402": "urderer",
  "1403": "DUCHESS",
  "1404": "Lord",
  "1405": "pher",
  "1406": " talk",
  "1407": "itor",
  "1408": " over",
  "1409": " body",
  "1410": "morrow",
  "1411": " wilt",
  "1412": " bu",
  "1413": " gr",
  "1414": "ute",
  "1415": "gelo",
  "1416": "deed",
  "1417": " Marcius",
  "1418": " i",
  "1419": "IA",
  "1420": "ience",
  "1421": "ised",
  "1422": " bed",
  "1423": " fault",
  "1424": " att",
  "1425": "ieve",
  "1426": " prove",
  "1427": " play",
  "1428": "CAMIL",
  "1429": " Clarence",
  "1430": "CAMILLO",
  "1431": "God",
  "1432": "ere",
  "1433": "ily",
  "1434": " sound",
  "1435": " dra",
  "1436": "ans",
  "1437": "omet",
  "1438": " inst",
  "1439": " wel",
  "1440": "ade",
  "1441": " ret",
  "1442": " deed",
  "1443": " thank",
  "1444": "TEN",
  "1445": " ser",
  "1446": " bo",
  "1447": " fight",
  "1448": " indeed",
  "1449": "illain",
  "1450": "hold",
  "1451": " vo",
  "1452": " sword",
  "1453": " Angelo",
  "1454": "HORTEN",
  "1455": " false",
  "1456": "HORTENS",
  "1457": "FRI",
  "1458": "Sh",
  "1459": " use",
  "1460": " even",
  "1461": " sovere",
  "1462": " another",
  "1463": " grave",
  "1464": " adv",
  "1465": "Provost",
  "1466": " fellow",
  "1467": "Upon",
  "1468": "HORTENSIO",
  "1469": "FRIAR",
  "1470": ",'",
  "1471": "PTIS",
  "1472": "eal",
  "1473": " cur",
  "1474": " has",
  "1475": " em",
  "1476": "ury",
  "1477": "pect",
  "1478": "BAPTIS",
  "1479": " banish",
  "1480": " fortune",
  "1481": "BAPTISTA",
  "1482": "CUS",
  "1483": "COM",
  "1484": "TOL",
  "1485": "YCUS",
  "1486": "pl",
  "1487": "pen",
  "1488": "ouch",
  "1489": " merc",
  "1490": " matter",
  "1491": " want",
  "1492": " reven",
  "1493": " ass",
  "1494": " send",
  "1495": " prison",
  "1496": "fect",
  "1497": "AUTOL",
  "1498": " rather",
  "1499": " country",
  "1500": " doubt",
  "1501": "COMINIUS",
  "1502": "AUTOLYCUS",
  "1503": ".'",
  "1504": "Are",
  "1505": "Even",
  "1506": "More",
  "1507": " wish",
  "1508": " years",
  "1509": " reason",
  "1510": " lies",
  "1511": " only",
  "1512": "ARENCE",
  "1513": "Third",
  "1514": " virt",
  "1515": " truth",
  "1516": " But",
  "1517": "Would",
  "1518": "ior",
  "1519": "ms",
  "1520": "of",
  "1521": "rance",
  "1522": " dan",
  "1523": " pers",
  "1524": "any",
  "1525": " breath",
  "1526": " arms",
  "1527": " dream",
  "1528": "CLARENCE",
  "1529": "pherd",
  "1530": "BEN",
  "1531": "MAR",
  "1532": "NOR",
  "1533": "dd",
  "1534": "der",
  "1535": " sent",
  "1536": "ener",
  "1537": " gi",
  "1538": " stra",
  "1539": " shalt",
  "1540": " disc",
  "1541": "VOLIO",
  "1542": "Clown",
  "1543": " business",
  "1544": "BENVOLIO",
  "1545": "Al",
  "1546": "At",
  "1547": "PRO",
  "1548": "SPER",
  "1549": "by",
  "1550": "hed",
  "1551": " sen",
  "1552": " prom",
  "1553": " holy",
  "1554": " enough",
  "1555": "erving",
  "1556": " command",
  "1557": "UMIO",
  "1558": "GRUMIO",
  "1559": "PROSPER",
  "1560": "PROSPERO",
  "1561": "ia",
  "1562": "ken",
  "1563": " sea",
  "1564": " wind",
  "1565": "itt",
  "1566": " cra",
  "1567": " lay",
  "1568": "ars",
  "1569": " pity",
  "1570": "ator",
  "1571": " bea",
  "1572": " hang",
  "1573": " stran",
  "1574": " sold",
  "1575": " spir",
  "1576": " fare",
  "1577": " proud",
  "1578": " Murderer",
  "1579": " swear",
  "1580": " content",
  "1581": "MERCU",
  "1582": "MERCUTIO",
  "1583": "ike",
  "1584": " dare",
  "1585": "eter",
  "1586": " lives",
  "1587": " dep",
  "1588": " sec",
  "1589": " villain",
  "1590": "gainst",
  "1591": " Kate",
  "1592": "LUCENTIO",
  "1593": " remem",
  "1594": " nature",
  "1595": " welcome",
  "1596": "POM",
  "1597": "Tw",
  "1598": "com",
  "1599": "unt",
  "1600": " tend",
  "1601": "ham",
  "1602": " free",
  "1603": " gre",
  "1604": " get",
  "1605": " int",
  "1606": " within",
  "1607": " kiss",
  "1608": "ester",
  "1609": " Come",
  "1610": " gods",
  "1611": " saw",
  "1612": " madam",
  "1613": "LAND",
  "1614": " happy",
  "1615": " sovereign",
  "1616": "POMP",
  "1617": "LINA",
  "1618": "PAU",
  "1619": "apt",
  "1620": " serv",
  "1621": " sister",
  "1622": " somet",
  "1623": "hal",
  "1624": " foul",
  "1625": " city",
  "1626": "vers",
  "1627": "Were",
  "1628": " beseech",
  "1629": "PAULINA",
  "1630": "YORK",
  "1631": "ient",
  "1632": "use",
  "1633": "ery",
  "1634": " den",
  "1635": " yield",
  "1636": " three",
  "1637": " oath",
  "1638": " yours",
  "1639": "onder",
  "1640": "ague",
  "1641": " break",
  "1642": " means",
  "1643": " subject",
  "1644": "gether",
  "1645": "GREMIO",
  "1646": "POMPEY",
  "1647": " Nor",
  "1648": "NIA",
  "1649": "OLI",
  "1650": "POLI",
  "1651": "XEN",
  "1652": "balt",
  "1653": "ybalt",
  "1654": " aw",
  "1655": " mer",
  "1656": " while",
  "1657": " born",
  "1658": " things",
  "1659": " horse",
  "1660": "anc",
  "1661": "usic",
  "1662": "ANT",
  "1663": " bloody",
  "1664": " looks",
  "1665": "eft",
  "1666": "UMNIA",
  "1667": "like",
  "1668": "ches",
  "1669": "VOLUMNIA",
  "1670": "POLIXEN",
  "1671": "POLIXENES",
  "1672": "GON",
  "1673": "Her",
  "1674": "rong",
  "1675": "up",
  "1676": "ues",
  "1677": " tem",
  "1678": " win",
  "1679": " wound",
  "1680": " fire",
  "1681": "enger",
  "1682": " yourself",
  "1683": " supp",
  "1684": " spo",
  "1685": " faith",
  "1686": "INGS",
  "1687": " Serving",
  "1688": " maj",
  "1689": "STINGS",
  "1690": " traitor",
  "1691": "centio",
  "1692": " Servingman",
  "1693": "RENCE",
  "1694": "Say",
  "1695": "bs",
  "1696": "broke",
  "1697": "rem",
  "1698": " dru",
  "1699": " lam",
  "1700": "essenger",
  "1701": " LAU",
  "1702": " mark",
  "1703": " common",
  "1704": "HASTINGS",
  "1705": " children",
  "1706": "ertain",
  "1707": " mistress",
  "1708": " LAURENCE",
  "1709": "BY",
  "1710": "BER",
  "1711": " cond",
  "1712": " beat",
  "1713": " requ",
  "1714": " def",
  "1715": " val",
  "1716": " uncle",
  "1717": "Therefore",
  "1718": "form",
  "1719": " majesty",
  "1720": "CLI",
  "1721": "FF",
  "1722": "Look",
  "1723": "Was",
  "1724": " aff",
  "1725": " sin",
  "1726": " met",
  "1727": " late",
  "1728": " left",
  "1729": " told",
  "1730": " soon",
  "1731": " seen",
  "1732": " save",
  "1733": " days",
  "1734": "UMBER",
  "1735": "THUMBER",
  "1736": " woe",
  "1737": " England",
  "1738": "NORTHUMBER",
  "1739": " tender",
  "1740": "CLIFF",
  "1741": "NORTHUMBERLAND",
  "1742": "ID",
  "1743": "Take",
  "1744": "bed",
  "1745": "ever",
  "1746": "ring",
  "1747": "ten",
  "1748": " sight",
  "1749": " mon",
  "1750": " gener",
  "1751": "ides",
  "1752": "idow",
  "1753": " does",
  "1754": "Though",
  "1755": " return",
  "1756": " mercy",
  "1757": " farewell",
  "1758": " AN",
  "1759": "ac",
  "1760": "dom",
  "1761": "mp",
  "1762": "hes",
  "1763": " sit",
  "1764": " sad",
  "1765": "rel",
  "1766": " deep",
  "1767": "ters",
  "1768": " gold",
  "1769": "unes",
  "1770": " marry",
  "1771": " heavy",
  "1772": " foot",
  "1773": " warrant",
  "1774": " Jul",
  "1775": " purpose",
  "1776": " through",
  "1777": " danger",
  "1778": " ANNE",
  "1779": " ill",
  "1780": "Ah",
  "1781": "Did",
  "1782": "Give",
  "1783": "PR",
  "1784": "aim",
  "1785": "ict",
  "1786": "mer",
  "1787": "so",
  "1788": "und",
  "1789": "vent",
  "1790": " cho",
  "1791": " cold",
  "1792": " nurse",
  "1793": " together",
  "1794": " grow",
  "1795": "ours",
  "1796": "ifford",
  "1797": " sure",
  "1798": "earn",
  "1799": "CAPULET",
  "1800": "ignior",
  "1801": "INCE",
  "1802": " deser",
  "1803": "ments",
  "1804": "PRINCE",
  "1805": "az",
  "1806": "aid",
  "1807": "ca",
  "1808": "oint",
  "1809": " times",
  "1810": "oriol",
  "1811": "ingbroke",
  "1812": "ceed",
  "1813": " without",
  "1814": "enty",
  "1815": " ask",
  "1816": "ross",
  "1817": "ush",
  "1818": " lost",
  "1819": "arewell",
  "1820": "olingbroke",
  "1821": " pluck",
  "1822": " report",
  "1823": " liege",
  "1824": " believe",
  "1825": " spirit",
  "1826": "ling",
  "1827": "sh",
  "1828": "xt",
  "1829": " air",
  "1830": " age",
  "1831": "outh",
  "1832": " wat",
  "1833": " heir",
  "1834": "ets",
  "1835": "ains",
  "1836": " thyself",
  "1837": "ift",
  "1838": " loss",
  "1839": " Mont",
  "1840": " says",
  "1841": " Bolingbroke",
  "1842": "Whose",
  "1843": "One",
  "1844": " strange",
  "1845": "ALO",
  "1846": "Had",
  "1847": "ial",
  "1848": "no",
  "1849": "ner",
  "1850": " bat",
  "1851": " cry",
  "1852": " learn",
  "1853": "ced",
  "1854": " suff",
  "1855": "aking",
  "1856": " ears",
  "1857": " haste",
  "1858": " Clifford",
  "1859": " entreat",
  "1860": " devil",
  "1861": " ground",
  "1862": "Should",
  "1863": " person",
  "1864": " Juliet",
  "1865": "Like",
  "1866": "Wh",
  "1867": "ges",
  "1868": "night",
  "1869": " mur",
  "1870": "ined",
  "1871": " fly",
  "1872": " toward",
  "1873": " past",
  "1874": "oman",
  "1875": "let",
  "1876": " fast",
  "1877": " vis",
  "1878": "aud",
  "1879": " Lu",
  "1880": " point",
  "1881": " friar",
  "1882": " disp",
  "1883": " slain",
  "1884": " betw",
  "1885": " France",
  "1886": "ixt",
  "1887": " justice",
  "1888": " straight",
  "1889": " remember",
  "1890": " ord",
  "1891": "APULET",
  "1892": "FL",
  "1893": "FID",
  "1894": "IZ",
  "1895": "May",
  "1896": "Some",
  "1897": " sil",
  "1898": "ina",
  "1899": " bold",
  "1900": " curse",
  "1901": " near",
  "1902": "ution",
  "1903": " strong",
  "1904": "These",
  "1905": " CAPULET",
  "1906": "ORIZ",
  "1907": " worthy",
  "1908": " quick",
  "1909": "AUFID",
  "1910": "entleman",
  "1911": " trust",
  "1912": " alone",
  "1913": " desire",
  "1914": " instru",
  "1915": " beauty",
  "1916": " service",
  "1917": "FLORIZ",
  "1918": "AUFIDIUS",
  "1919": "FLORIZEL",
  "1920": "Can",
  "1921": "SE",
  "1922": "Tell",
  "1923": "VER",
  "1924": "gs",
  "1925": "ning",
  "1926": "ship",
  "1927": "with",
  "1928": " touch",
  "1929": " found",
  "1930": "ithe",
  "1931": " Is",
  "1932": "adam",
  "1933": " ready",
  "1934": "ION",
  "1935": " brought",
  "1936": "ured",
  "1937": " poss",
  "1938": " Tybalt",
  "1939": " run",
  "1940": " hard",
  "1941": " enemy",
  "1942": " revenge",
  "1943": " general",
  "1944": "audio",
  "1945": " Here",
  "1946": "!'",
  "1947": "Ha",
  "1948": "ible",
  "1949": "vo",
  "1950": " woo",
  "1951": " duty",
  "1952": "enator",
  "1953": " grant",
  "1954": " inf",
  "1955": "cept",
  "1956": " itself",
  "1957": "amill",
  "1958": " lose",
  "1959": "aunt",
  "1960": " knows",
  "1961": " canst",
  "1962": " Senator",
  "1963": "inks",
  "1964": "umber",
  "1965": " married",
  "1966": " thoughts",
  "1967": " charge",
  "1968": " You",
  "1969": "Against",
  "1970": "Bec",
  "1971": "CIUS",
  "1972": "RICHARD",
  "1973": "Sp",
  "1974": "cester",
  "1975": "eep",
  "1976": "gu",
  "1977": "lou",
  "1978": "sue",
  "1979": "ua",
  "1980": " morn",
  "1981": " wear",
  "1982": "riage",
  "1983": " read",
  "1984": " deli",
  "1985": " speed",
  "1986": " quar",
  "1987": " prof",
  "1988": " twenty",
  "1989": " stands",
  "1990": "BAST",
  "1991": "Shepherd",
  "1992": "ched",
  "1993": " hours",
  "1994": " confess",
  "1995": " streng",
  "1996": "SEBAST",
  "1997": "ithee",
  "1998": "SEBASTIAN",
  "1999": " N",
  "2000": "OW",
  "2001": "cess",
  "2002": " mock",
  "2003": " fur",
  "2004": " fore",
  "2005": " field",
  "2006": "ones",
  "2007": " div",
  "2008": " car",
  "2009": " youth",
  "2010": " post",
  "2011": " hell",
  "2012": "ingham",
  "2013": " half",
  "2014": "oop",
  "2015": "Thus",
  "2016": " Ri",
  "2017": "olk",
  "2018": "fection",
  "2019": " Hast",
  "2020": " jud",
  "2021": "ump",
  "2022": " exec",
  "2023": " fearful",
  "2024": " counsel",
  "2025": "amillo",
  "2026": "BION",
  "2027": "Com",
  "2028": "DEL",
  "2029": "Till",
  "2030": "most",
  "2031": "pare",
  "2032": " ter",
  "2033": " min",
  "2034": " wret",
  "2035": " bos",
  "2036": " par",
  "2037": " behold",
  "2038": " inc",
  "2039": " each",
  "2040": "ads",
  "2041": " rec",
  "2042": " del",
  "2043": " Coriol",
  "2044": "ols",
  "2045": " work",
  "2046": "ortal",
  "2047": " hearts",
  "2048": " marriage",
  "2049": " desp",
  "2050": " Claudio",
  "2051": "itizens",
  "2052": "uckingham",
  "2053": " resol",
  "2054": "MARCIUS",
  "2055": " Montague",
  "2056": "loucester",
  "2057": "BIONDEL",
  "2058": " bosom",
  "2059": "BIONDELLO",
  "2060": " The",
  "2061": "Away",
  "2062": "MON",
  "2063": "Madam",
  "2064": "bly",
  "2065": "folk",
  "2066": "iers",
  "2067": "now",
  "2068": " tit",
  "2069": " ten",
  "2070": " tale",
  "2071": " bound",
  "2072": " dam",
  "2073": " cut",
  "2074": "ench",
  "2075": " ye",
  "2076": " open",
  "2077": "rah",
  "2078": "alm",
  "2079": " Cap",
  "2080": " short",
  "2081": " known",
  "2082": " Buckingham",
  "2083": " seek",
  "2084": " harm",
  "2085": " company",
  "2086": " guilt",
  "2087": " highness",
  "2088": " strike",
  "2089": " attend",
  "2090": " serve",
  "2091": " murder",
  "2092": " Hastings",
  "2093": " ve",
  "2094": " He",
  "2095": " AU",
  "2096": "Farewell",
  "2097": "HER",
  "2098": "OP",
  "2099": "chan",
  "2100": "hood",
  "2101": " ag",
  "2102": " sat",
  "2103": " side",
  "2104": " whi",
  "2105": " watch",
  "2106": "rest",
  "2107": "ished",
  "2108": " feel",
  "2109": " dish",
  "2110": " dist",
  "2111": "ents",
  "2112": "ander",
  "2113": " suit",
  "2114": " loving",
  "2115": "ONIO",
  "2116": " honest",
  "2117": " heavens",
  "2118": " trib",
  "2119": "MERLE",
  "2120": " draw",
  "2121": " voices",
  "2122": " something",
  "2123": "ANTONIO",
  "2124": " strength",
  "2125": " AUMERLE",
  "2126": "Marry",
  "2127": "Pray",
  "2128": "See",
  "2129": "ZALO",
  "2130": "fid",
  "2131": "ging",
  "2132": " act",
  "2133": " sake",
  "2134": " wast",
  "2135": " wonder",
  "2136": " widow",
  "2137": " bit",
  "2138": " cor",
  "2139": " sto",
  "2140": " stir",
  "2141": " Gentleman",
  "2142": " Gloucester",
  "2143": " Lanc",
  "2144": " didst",
  "2145": " gentlemen",
  "2146": " cloud",
  "2147": " women",
  "2148": "ethinks",
  "2149": " enemies",
  "2150": "GONZALO",
  "2151": " Lancaster",
  "2152": "Unt",
  "2153": "ives",
  "2154": "su",
  "2155": " sing",
  "2156": " music",
  "2157": "rew",
  "2158": " breat",
  "2159": " dr",
  "2160": " pra",
  "2161": " pie",
  "2162": " pale",
  "2163": " gates",
  "2164": "oose",
  "2165": "race",
  "2166": "ils",
  "2167": " Camillo",
  "2168": " next",
  "2169": " knew",
  "2170": " coming",
  "2171": " thanks",
  "2172": " close",
  "2173": " pleasure",
  "2174": " souls",
  "2175": "ianca",
  "2176": " course",
  "2177": " enter",
  "2178": " withal",
  "2179": " brave",
  "2180": " chee",
  "2181": "ceived",
  "2182": " title",
  "2183": "DIO",
  "2184": "fter",
  "2185": "ne",
  "2186": "vour",
  "2187": "you",
  "2188": " ty",
  "2189": " wa",
  "2190": " bur",
  "2191": " fit",
  "2192": "oward",
  "2193": " gar",
  "2194": " become",
  "2195": "etch",
  "2196": "etru",
  "2197": " forg",
  "2198": " weak",
  "2199": " either",
  "2200": " lips",
  "2201": "rust",
  "2202": "els",
  "2203": " jest",
  "2204": " plain",
  "2205": "AUDIO",
  "2206": " abs",
  "2207": " pret",
  "2208": "claim",
  "2209": " grie",
  "2210": "CLAUDIO",
  "2211": " change",
  "2212": "MIONE",
  "2213": " Norfolk",
  "2214": "CLIFFORD",
  "2215": " suffer",
  "2216": " deliver",
  "2217": "HERMIONE",
  "2218": " Th",
  "2219": "DA",
  "2220": "EDWARD",
  "2221": "LORD",
  "2222": "Most",
  "2223": "cher",
  "2224": "kes",
  "2225": "ses",
  "2226": "ufid",
  "2227": " sk",
  "2228": " same",
  "2229": " sick",
  "2230": " sign",
  "2231": " wis",
  "2232": " wall",
  "2233": "ready",
  "2234": "isf",
  "2235": " cast",
  "2236": "irth",
  "2237": "chio",
  "2238": " forb",
  "2239": " forget",
  "2240": "oof",
  "2241": "ries",
  "2242": " reg",
  "2243": "urp",
  "2244": "east",
  "2245": " ven",
  "2246": " themselves",
  "2247": " Bianca",
  "2248": " worse",
  "2249": " Pom",
  "2250": " took",
  "2251": " poison",
  "2252": " along",
  "2253": " rich",
  "2254": " breast",
  "2255": "ranio",
  "2256": " consul",
  "2257": "RANDA",
  "2258": "MIRANDA",
  "2259": "twas",
  "2260": "twere",
  "2261": " cheer",
  "2262": " patience",
  "2263": " merry",
  "2264": " order",
  "2265": "etruchio",
  "2266": "ufidius",
  "2267": "HN",
  "2268": "Messenger",
  "2269": "OHN",
  "2270": "SA",
  "2271": "SON",
  "2272": "Servant",
  "2273": "lst",
  "2274": "oin",
  "2275": "ting",
  "2276": " mouth",
  "2277": " wed",
  "2278": " bad",
  "2279": " book",
  "2280": " four",
  "2281": " du",
  "2282": " If",
  "2283": " gave",
  "2284": "chm",
  "2285": " issue",
  "2286": "ash",
  "2287": " liber",
  "2288": "vern",
  "2289": " self",
  "2290": "ions",
  "2291": "rows",
  "2292": "ally",
  "2293": " office",
  "2294": " already",
  "2295": "Being",
  "2296": " move",
  "2297": " virtue",
  "2298": " given",
  "2299": " battle",
  "2300": " Hereford",
  "2301": " morning",
  "2302": " further",
  "2303": "Make",
  "2304": "Since",
  "2305": "mber",
  "2306": "nk",
  "2307": "pes",
  "2308": "rist",
  "2309": "she",
  "2310": "uous",
  "2311": "used",
  "2312": " ta",
  "2313": " ac",
  "2314": "oun",
  "2315": " wise",
  "2316": " burn",
  "2317": "orge",
  "2318": " frown",
  "2319": " feast",
  "2320": " dire",
  "2321": "esh",
  "2322": " lad",
  "2323": " pay",
  "2324": "anus",
  "2325": " gro",
  "2326": "ats",
  "2327": " red",
  "2328": " soft",
  "2329": "each",
  "2330": " succ",
  "2331": "icer",
  "2332": " black",
  "2333": " goes",
  "2334": " sworn",
  "2335": " Signior",
  "2336": "elcome",
  "2337": " prop",
  "2338": " sons",
  "2339": " foe",
  "2340": " ext",
  "2341": " Tower",
  "2342": "Before",
  "2343": " trou",
  "2344": " begg",
  "2345": " begin",
  "2346": " consent",
  "2347": "dden",
  "2348": " soldiers",
  "2349": " request",
  "2350": " Lucentio",
  "2351": " between",
  "2352": " quarrel",
  "2353": " satisf",
  "2354": "chmond",
  "2355": " For",
  "2356": "AS",
  "2357": "Call",
  "2358": "IR",
  "2359": "Must",
  "2360": "NT",
  "2361": "Re",
  "2362": "Sw",
  "2363": "Such",
  "2364": "gare",
  "2365": "ires",
  "2366": "ures",
  "2367": "ung",
  "2368": "uff",
  "2369": "hem",
  "2370": " servant",
  "2371": " bar",
  "2372": " dro",
  "2373": " dark",
  "2374": " cr",
  "2375": " case",
  "2376": " thri",
  "2377": "aris",
  "2378": "ots",
  "2379": "stand",
  "2380": "owers",
  "2381": "irm",
  "2382": " loves",
  "2383": " Ch",
  "2384": "ends",
  "2385": " bless",
  "2386": "empt",
  "2387": " thence",
  "2388": " worth",
  "2389": " Aufidius",
  "2390": "CATES",
  "2391": " exp",
  "2392": "awd",
  "2393": " presence",
  "2394": " priv",
  "2395": "Unless",
  "2396": "Alas",
  "2397": " wounds",
  "2398": " dangerous",
  "2399": "Because",
  "2400": "garet",
  "2401": "CATESBY",
  "2402": "LY",
  "2403": "oll",
  "2404": "that",
  "2405": " sigh",
  "2406": " ble",
  "2407": "ona",
  "2408": "onour",
  "2409": " hot",
  "2410": " got",
  "2411": " inter",
  "2412": " und",
  "2413": " ev",
  "2414": " sum",
  "2415": " neither",
  "2416": " vict",
  "2417": "emn",
  "2418": " Lond",
  "2419": " Sir",
  "2420": " Vols",
  "2421": "cient",
  "2422": " wars",
  "2423": " flatter",
  "2424": " mighty",
  "2425": " respect",
  "2426": " dread",
  "2427": " bride",
  "2428": " brief",
  "2429": " throne",
  "2430": " voice",
  "2431": " emb",
  "2432": "aptist",
  "2433": " deny",
  "2434": " spoke",
  "2435": " water",
  "2436": " visit",
  "2437": " London",
  "2438": " est",
  "2439": "Both",
  "2440": "BIAN",
  "2441": "JOHN",
  "2442": "Lest",
  "2443": "Rome",
  "2444": "REY",
  "2445": "Yes",
  "2446": "eorge",
  "2447": "ip",
  "2448": "iant",
  "2449": "mand",
  "2450": "ught",
  "2451": " mal",
  "2452": " mortal",
  "2453": " bow",
  "2454": " bab",
  "2455": " fra",
  "2456": "ern",
  "2457": " hur",
  "2458": " town",
  "2459": " often",
  "2460": " having",
  "2461": "right",
  "2462": "ided",
  "2463": " sudden",
  "2464": "rum",
  "2465": " ancient",
  "2466": " speech",
  "2467": " vow",
  "2468": " George",
  "2469": " loved",
  "2470": " kings",
  "2471": " Baptist",
  "2472": " worship",
  "2473": "LIA",
  "2474": " Paris",
  "2475": " safe",
  "2476": "ired",
  "2477": "ainted",
  "2478": "BAL",
  "2479": " Margaret",
  "2480": " princely",
  "2481": "BRA",
  "2482": " chamber",
  "2483": " seems",
  "2484": "bey",
  "2485": " buy",
  "2486": " deeds",
  "2487": "Whom",
  "2488": "VERS",
  "2489": " Richmond",
  "2490": " bitter",
  "2491": "BIANCA",
  "2492": " Thou",
  "2493": " This",
  "2494": "BOW",
  "2495": "Welcome",
  "2496": "king",
  "2497": "ls",
  "2498": "lish",
  "2499": "mb",
  "2500": "rt",
  "2501": "sp",
  "2502": "ura",
  "2503": " fres",
  "2504": " fetch",
  "2505": " col",
  "2506": " cross",
  "2507": " coward",
  "2508": "essed",
  "2509": " lim",
  "2510": " pen",
  "2511": "otion",
  "2512": "ated",
  "2513": "urch",
  "2514": " knock",
  "2515": "antage",
  "2516": "oney",
  "2517": " prot",
  "2518": " GAU",
  "2519": " Lady",
  "2520": " Saint",
  "2521": " Servant",
  "2522": " kingdom",
  "2523": " Pl",
  "2524": " sac",
  "2525": "ELBOW",
  "2526": " heads",
  "2527": " scorn",
  "2528": " rage",
  "2529": " appear",
  "2530": " lead",
  "2531": " witness",
  "2532": "RIVERS",
  "2533": " patient",
  "2534": " promise",
  "2535": " lament",
  "2536": " valiant",
  "2537": " Isab",
  "2538": "Speak",
  "2539": " success",
  "2540": " Baptista",
  "2541": " GAUNT",
  "2542": " KING",
  "2543": " ign",
  "2544": "Bes",
  "2545": "Ere",
  "2546": "GUE",
  "2547": "Hold",
  "2548": "TY",
  "2549": "cy",
  "2550": "coun",
  "2551": "nown",
  "2552": "sper",
  "2553": "will",
  "2554": "xford",
  "2555": " action",
  "2556": " bro",
  "2557": " bawd",
  "2558": "ities",
  "2559": " cle",
  "2560": " creat",
  "2561": " cap",
  "2562": " lack",
  "2563": " throw",
  "2564": " ow",
  "2565": " opp",
  "2566": " gall",
  "2567": " forward",
  "2568": " eat",
  "2569": " kins",
  "2570": "Their",
  "2571": "iff",
  "2572": " ang",
  "2573": " viol",
  "2574": "antag",
  "2575": " prin",
  "2576": " prithee",
  "2577": " My",
  "2578": " wash",
  "2579": "ortens",
  "2580": "aken",
  "2581": " Petruchio",
  "2582": " offer",
  "2583": " least",
  "2584": " slave",
  "2585": " flesh",
  "2586": " Tranio",
  "2587": " prepare",
  "2588": " prayers",
  "2589": "then",
  "2590": " appro",
  "2591": "TAGUE",
  "2592": " triump",
  "2593": " moon",
  "2594": " compl",
  "2595": "itted",
  "2596": " tribunes",
  "2597": " drink",
  "2598": " Christ",
  "2599": "Romeo",
  "2600": "ortensio",
  "2601": " id",
  "2602": "Yea",
  "2603": "bit",
  "2604": "but",
  "2605": "ees",
  "2606": "joy",
  "2607": "ler",
  "2608": "oor",
  "2609": "ohem",
  "2610": "vest",
  "2611": " sur",
  "2612": " mid",
  "2613": "ines",
  "2614": " fie",
  "2615": " dest",
  "2616": " nay",
  "2617": " thither",
  "2618": " hide",
  "2619": "athar",
  "2620": " beast",
  "2621": "ley",
  "2622": " reb",
  "2623": "raw",
  "2624": "als",
  "2625": "alth",
  "2626": "cks",
  "2627": "thumber",
  "2628": "host",
  "2629": "asters",
  "2630": "feit",
  "2631": "aked",
  "2632": "pey",
  "2633": " almost",
  "2634": "ully",
  "2635": " scar",
  "2636": " small",
  "2637": " presently",
  "2638": " faults",
  "2639": " depart",
  "2640": " secret",
  "2641": " subjects",
  "2642": " defend",
  "2643": " possess",
  "2644": "atharina",
  "2645": "thumberland",
  "2646": "Con",
  "2647": "DI",
  "2648": "GI",
  "2649": "IEL",
  "2650": "Pl",
  "2651": "VIR",
  "2652": "Whi",
  "2653": "aul",
  "2654": "hind",
  "2655": "ying",
  "2656": " tear",
  "2657": " wert",
  "2658": "rey",
  "2659": " ben",
  "2660": " base",
  "2661": " birth",
  "2662": " fill",
  "2663": " fond",
  "2664": " lab",
  "2665": "arl",
  "2666": " pain",
  "2667": "inger",
  "2668": " bec",
  "2669": " form",
  "2670": " eas",
  "2671": " stru",
  "2672": " living",
  "2673": "rue",
  "2674": "though",
  "2675": " goodly",
  "2676": " whence",
  "2677": " GREY",
  "2678": " usurp",
  "2679": "cience",
  "2680": " trump",
  "2681": " hearing",
  "2682": " slaughter",
  "2683": " perform",
  "2684": " writ",
  "2685": "perate",
  "2686": "ledge",
  "2687": "Stay",
  "2688": "Stand",
  "2689": " chance",
  "2690": "PERDI",
  "2691": " virtuous",
  "2692": " quickly",
  "2693": "MONTAGUE",
  "2694": " damn",
  "2695": "ural",
  "2696": "ohemia",
  "2697": "GILIA",
  "2698": "VIRGILIA",
  "2699": "PERDITA",
  "2700": " ut",
  "2701": "Ab",
  "2702": "Doth",
  "2703": "Peace",
  "2704": "SET",
  "2705": "SLY",
  "2706": "ding",
  "2707": "eem",
  "2708": "gg",
  "2709": "iest",
  "2710": "over",
  "2711": "oss",
  "2712": "ror",
  "2713": "your",
  "2714": "ze",
  "2715": " tor",
  "2716": " ay",
  "2717": " match",
  "2718": " mild",
  "2719": " wild",
  "2720": "read",
  "2721": "isure",
  "2722": " fier",
  "2723": "ony",
  "2724": " ca",
  "2725": " certain",
  "2726": "arn",
  "2727": " pu",
  "2728": " pit",
  "2729": "ingly",
  "2730": "sem",
  "2731": " inj",
  "2732": " ins",
  "2733": " inno",
  "2734": "eds",
  "2735": "edant",
  "2736": " ur",
  "2737": " shad",
  "2738": "Think",
  "2739": " knee",
  "2740": " kneel",
  "2741": "astard",
  "2742": "ustom",
  "2743": " blows",
  "2744": " St",
  "2745": " Oxford",
  "2746": " quiet",
  "2747": " proceed",
  "2748": " Paul",
  "2749": " hadst",
  "2750": " offence",
  "2751": " adm",
  "2752": " pleas",
  "2753": "force",
  "2754": " affection",
  "2755": " slew",
  "2756": "IANA",
  "2757": " lawful",
  "2758": " glad",
  "2759": "bling",
  "2760": " weeping",
  "2761": "MARIANA",
  "2762": " soldier",
  "2763": " awhile",
  "2764": " deserved",
  "2765": " execution",
  "2766": " Coriolanus",
  "2767": " guilty",
  "2768": " pretty",
  "2769": " Pompey",
  "2770": " angry",
  "2771": "Fa",
  "2772": "Mar",
  "2773": "Master",
  "2774": "PAR",
  "2775": "RA",
  "2776": "VINCENTIO",
  "2777": "awn",
  "2778": "dge",
  "2779": "fully",
  "2780": "gue",
  "2781": "ked",
  "2782": "med",
  "2783": "ual",
  "2784": "vol",
  "2785": "zen",
  "2786": " ap",
  "2787": " shi",
  "2788": " sho",
  "2789": " med",
  "2790": " mod",
  "2791": " walk",
  "2792": " fam",
  "2793": " fled",
  "2794": "eness",
  "2795": " year",
  "2796": " ob",
  "2797": " occ",
  "2798": " hap",
  "2799": " measure",
  "2800": " forsw",
  "2801": "adua",
  "2802": " reign",
  "2803": " doom",
  "2804": "ames",
  "2805": " nob",
  "2806": "rupt",
  "2807": " ourselves",
  "2808": " favour",
  "2809": " neck",
  "2810": " shows",
  "2811": "ended",
  "2812": " blow",
  "2813": " govern",
  "2814": " wouldst",
  "2815": " letters",
  "2816": " unc",
  "2817": " unk",
  "2818": " worst",
  "2819": " speaks",
  "2820": " march",
  "2821": " Katharina",
  "2822": "ighb",
  "2823": " greater",
  "2824": " leisure",
  "2825": "osition",
  "2826": " treason",
  "2827": " English",
  "2828": " banishment",
  "2829": " sense",
  "2830": "remio",
  "2831": " condemn",
  "2832": "ointed",
  "2833": " dishonour",
  "2834": " clouds",
  "2835": " breathe",
  "2836": " forbid",
  "2837": " liberty",
  "2838": " ladies",
  "2839": " trouble",
  "2840": "rumio",
  "2841": " Isabel",
  "2842": "counter",
  "2843": "antagen",
  "2844": "PARIS",
  "2845": " X",
  "2846": ":'",
  "2847": "Int",
  "2848": "Out",
  "2849": "Too",
  "2850": "While",
  "2851": "aves",
  "2852": "acle",
  "2853": "dle",
  "2854": "house",
  "2855": "rim",
  "2856": "rous",
  "2857": " sort",
  "2858": " morrow",
  "2859": " won",
  "2860": " dry",
  "2861": " cru",
  "2862": " lan",
  "2863": " list",
  "2864": " laid",
  "2865": "aring",
  "2866": " obey",
  "2867": " held",
  "2868": "vel",
  "2869": "ster",
  "2870": "ators",
  "2871": " behind",
  "2872": "set",
  "2873": " note",
  "2874": " stor",
  "2875": "ider",
  "2876": " ref",
  "2877": " lived",
  "2878": "urs",
  "2879": " aside",
  "2880": " dog",
  "2881": " noise",
  "2882": " seat",
  "2883": "iles",
  "2884": " vain",
  "2885": " Merc",
  "2886": " Bohemia",
  "2887": " letter",
  "2888": " join",
  "2889": "ounds",
  "2890": " prosper",
  "2891": " rough",
  "2892": " above",
  "2893": "ize",
  "2894": " remain",
  "2895": " longer",
  "2896": " womb",
  "2897": " needs",
  "2898": " choose",
  "2899": " church",
  "2900": " prisoner",
  "2901": " second",
  "2902": " temp",
  "2903": " golden",
  "2904": "undred",
  "2905": " dispatch",
  "2906": " piece",
  "2907": " fresh",
  "2908": " ignor",
  "2909": " because",
  "2910": "antagenet",
  "2911": " Now",
  "2912": "!--",
  "2913": "Am",
  "2914": "De",
  "2915": "DOR",
  "2916": "EW",
  "2917": "En",
  "2918": "Hark",
  "2919": "LAR",
  "2920": "Pr",
  "2921": "Su",
  "2922": "TIUS",
  "2923": "bb",
  "2924": "ban",
  "2925": "cal",
  "2926": "ffect",
  "2927": "him",
  "2928": "iled",
  "2929": "ny",
  "2930": "ts",
  "2931": "under",
  "2932": "ulet",
  "2933": " tent",
  "2934": " sch",
  "2935": " sus",
  "2936": " saint",
  "2937": " mut",
  "2938": "inius",
  "2939": " big",
  "2940": " broke",
  "2941": " bones",
  "2942": " fat",
  "2943": " fine",
  "2944": " five",
  "2945": "erle",
  "2946": "itors",
  "2947": " drown",
  "2948": " citizens",
  "2949": " len",
  "2950": " low",
  "2951": " lust",
  "2952": " lau",
  "2953": " threat",
  "2954": " hundred",
  "2955": " obed",
  "2956": " pet",
  "2957": "vey",
  "2958": "ang",
  "2959": " oft",
  "2960": " bend",
  "2961": " bell",
  "2962": " ind",
  "2963": "ceit",
  "2964": "lease",
  "2965": "ety",
  "2966": " effect",
  "2967": " yourselves",
  "2968": " stood",
  "2969": " stain",
  "2970": " steel",
  "2971": " steal",
  "2972": "ords",
  "2973": "asion",
  "2974": " revere",
  "2975": " sole",
  "2976": "ARIEL",
  "2977": "ease",
  "2978": " knees",
  "2979": "ular",
  "2980": "icious",
  "2981": " conqu",
  "2982": "ieu",
  "2983": " blessed",
  "2984": " Gaunt",
  "2985": " Gremio",
  "2986": " shed",
  "2987": " Let",
  "2988": " LEW",
  "2989": " swift",
  "2990": " Hortensio",
  "2991": " grand",
  "2992": " proclaim",
  "2993": " Pr",
  "2994": " Padua",
  "2995": " saf",
  "2996": "ume",
  "2997": " Watch",
  "2998": "istress",
  "2999": " exc",
  "3000": " desperate",
  "3001": " slander",
  "3002": " precious",
  "3003": " bears",
  "3004": " appare",
  "3005": " conscience",
  "3006": " entertain",
  "3007": "ontent",
  "3008": " pride",
  "3009": "Sirrah",
  "3010": "uthor",
  "3011": " glory",
  "3012": " double",
  "3013": "atesby",
  "3014": " woes",
  "3015": "posed",
  "3016": " lands",
  "3017": " sentence",
  "3018": " Northumberland",
  "3019": " drunk",
  "3020": " towards",
  "3021": " Capulet",
  "3022": "Unto",
  "3023": " forgot",
  "3024": " wisdom",
  "3025": " venge",
  "3026": "Sweet",
  "3027": " victory",
  "3028": " kinsman",
  "3029": " XI",
  "3030": "LARTIUS",
  "3031": " LEWIS",
  "3032": " Watchman",
  "3033": ";'",
  "3034": "Bel",
  "3035": "Could",
  "3036": "Hear",
  "3037": "MP",
  "3038": "Me",
  "3039": "Pardon",
  "3040": "Pedant",
  "3041": "RTIS",
  "3042": "bray",
  "3043": "den",
  "3044": "gment",
  "3045": "hn",
  "3046": "iance",
  "3047": "ohn",
  "3048": "pir",
  "3049": "ude",
  "3050": "vail",
  "3051": "which",
  "3052": "head",
  "3053": " author",
  "3054": " sour",
  "3055": " mount",
  "3056": " methinks",
  "3057": " money",
  "3058": " masters",
  "3059": "rent",
  "3060": "rence",
  "3061": " fe",
  "3062": " fru",
  "3063": " fought",
  "3064": " few",
  "3065": " died",
  "3066": " deter",
  "3067": " capt",
  "3068": " pun",
  "3069": "owbray",
  "3070": " hair",
  "3071": "irl",
  "3072": " eld",
  "3073": " stud",
  "3074": "estion",
  "3075": " doing",
  "3076": "iful",
  "3077": " seal",
  "3078": "ility",
  "3079": " Ca",
  "3080": "cted",
  "3081": "ETER",
  "3082": " manner",
  "3083": " Earl",
  "3084": " Go",
  "3085": " Grumio",
  "3086": " knowledge",
  "3087": "umerle",
  "3088": " enjoy",
  "3089": " ran",
  "3090": " Ant",
  "3091": "Within",
  "3092": " alive",
  "3093": " abro",
  "3094": "ways",
  "3095": " honours",
  "3096": " warm",
  "3097": "ations",
  "3098": " deadly",
  "3099": " kept",
  "3100": " contr",
  "3101": " contin",
  "3102": " army",
  "3103": " lordship",
  "3104": " guest",
  "3105": " guess",
  "3106": "CURTIS",
  "3107": " promised",
  "3108": "comes",
  "3109": "eeper",
  "3110": " wretched",
  "3111": " despair",
  "3112": " cheeks",
  "3113": "SAMP",
  "3114": " labour",
  "3115": " struck",
  "3116": "Faith",
  "3117": " determ",
  "3118": "SAMPSON",
  "3119": "'re",
  "3120": ":--",
  "3121": "BU",
  "3122": "Br",
  "3123": "Citizens",
  "3124": "Dis",
  "3125": "EX",
  "3126": "Either",
  "3127": "IGON",
  "3128": "bury",
  "3129": "ey",
  "3130": "good",
  "3131": "mit",
  "3132": "take",
  "3133": " try",
  "3134": " teach",
  "3135": " aid",
  "3136": "ounce",
  "3137": " sim",
  "3138": "reed",
  "3139": " bastard",
  "3140": "orious",
  "3141": "llow",
  "3142": "ited",
  "3143": " dance",
  "3144": " corn",
  "3145": " cred",
  "3146": " cried",
  "3147": " pal",
  "3148": " hel",
  "3149": " health",
  "3150": "stant",
  "3151": "utio",
  "3152": "ourn",
  "3153": " liest",
  "3154": " deg",
  "3155": " demand",
  "3156": " shake",
  "3157": "eaven",
  "3158": "ament",
  "3159": " sever",
  "3160": " herself",
  "3161": " spent",
  "3162": " Master",
  "3163": " Mowbray",
  "3164": " whether",
  "3165": " among",
  "3166": " shepherd",
  "3167": "othing",
  "3168": "ppy",
  "3169": " unp",
  "3170": " unw",
  "3171": " How",
  "3172": " quoth",
  "3173": " prov",
  "3174": "umb",
  "3175": " plant",
  "3176": " Will",
  "3177": " Why",
  "3178": " encounter",
  "3179": "osed",
  "3180": " rot",
  "3181": " officer",
  "3182": " brothers",
  "3183": " early",
  "3184": " honourable",
  "3185": " flowers",
  "3186": "LEY",
  "3187": " calls",
  "3188": " white",
  "3189": " remed",
  "3190": " moved",
  "3191": " account",
  "3192": "ewis",
  "3193": " kindred",
  "3194": " priest",
  "3195": " guard",
  "3196": " charity",
  "3197": " understand",
  "3198": " foolish",
  "3199": " humble",
  "3200": " counter",
  "3201": " dreams",
  "3202": " greet",
  "3203": "ANTIGON",
  "3204": " valour",
  "3205": " judge",
  "3206": " wretch",
  "3207": " beggar",
  "3208": " summer",
  "3209": " triumph",
  "3210": " cruel",
  "3211": "BURY",
  "3212": "ANTIGONUS",
  "3213": " And",
  "3214": "Bet",
  "3215": "Fear",
  "3216": "Lo",
  "3217": "Mine",
  "3218": "Made",
  "3219": "TCLIFF",
  "3220": "True",
  "3221": "fall",
  "3222": "mon",
  "3223": "rison",
  "3224": "heart",
  "3225": "ining",
  "3226": " wail",
  "3227": "orthy",
  "3228": " fart",
  "3229": " faint",
  "3230": "ites",
  "3231": " din",
  "3232": " dwell",
  "3233": " yea",
  "3234": " thro",
  "3235": " hung",
  "3236": " pack",
  "3237": " ga",
  "3238": " gent",
  "3239": "leep",
  "3240": " force",
  "3241": " weary",
  "3242": " stone",
  "3243": " stars",
  "3244": "ask",
  "3245": "roy",
  "3246": " butcher",
  "3247": "ify",
  "3248": " seven",
  "3249": " anon",
  "3250": " ours",
  "3251": " Com",
  "3252": " neighb",
  "3253": " Roman",
  "3254": " vie",
  "3255": "ief",
  "3256": " blame",
  "3257": " going",
  "3258": " Lewis",
  "3259": " thereof",
  "3260": " unf",
  "3261": " uns",
  "3262": " envy",
  "3263": " rise",
  "3264": " thinks",
  "3265": " rid",
  "3266": " party",
  "3267": " add",
  "3268": " others",
  "3269": " John",
  "3270": "ians",
  "3271": " kindness",
  "3272": " chast",
  "3273": " bids",
  "3274": " bright",
  "3275": " glass",
  "3276": " miser",
  "3277": " crave",
  "3278": "Twas",
  "3279": " winter",
  "3280": " month",
  "3281": " minister",
  "3282": " walls",
  "3283": " extrem",
  "3284": " satisfied",
  "3285": " private",
  "3286": " Volsces",
  "3287": " idle",
  "3288": " scarce",
  "3289": " benef",
  "3290": "RATCLIFF",
  "3291": " laugh",
  "3292": " vengeance",
  "3293": " abroad",
  "3294": " view",
  "3295": " ver",
  "3296": "After",
  "3297": "Bid",
  "3298": "BIS",
  "3299": "Fie",
  "3300": "Gentle",
  "3301": "HOP",
  "3302": "Ne",
  "3303": "Never",
  "3304": "Signior",
  "3305": "Under",
  "3306": "aff",
  "3307": "gra",
  "3308": "ners",
  "3309": "ope",
  "3310": "shall",
  "3311": "ued",
  "3312": "vious",
  "3313": "whe",
  "3314": "woman",
  "3315": "incentio",
  "3316": " wre",
  "3317": " wench",
  "3318": "rees",
  "3319": "have",
  "3320": "orous",
  "3321": " firm",
  "3322": " cir",
  "3323": " corse",
  "3324": "enes",
  "3325": " lest",
  "3326": " hol",
  "3327": "vell",
  "3328": "ott",
  "3329": "omas",
  "3330": "att",
  "3331": "ating",
  "3332": " incl",
  "3333": "cell",
  "3334": "utland",
  "3335": " former",
  "3336": " ease",
  "3337": "riar",
  "3338": "ident",
  "3339": " rel",
  "3340": " received",
  "3341": " deal",
  "3342": "amp",
  "3343": " sport",
  "3344": " faire",
  "3345": "ANLEY",
  "3346": " Rutland",
  "3347": " vile",
  "3348": " shrew",
  "3349": "antua",
  "3350": " Mantua",
  "3351": " concl",
  "3352": " convey",
  "3353": " god",
  "3354": "allow",
  "3355": " Barn",
  "3356": " arri",
  "3357": " unb",
  "3358": " Her",
  "3359": " Vincentio",
  "3360": " mayst",
  "3361": "eless",
  "3362": " quite",
  "3363": " provost",
  "3364": "IST",
  "3365": " truly",
  "3366": " dism",
  "3367": "Off",
  "3368": " foes",
  "3369": " root",
  "3370": " wherefore",
  "3371": " flower",
  "3372": " imag",
  "3373": " trial",
  "3374": "ailor",
  "3375": " smo",
  "3376": " trem",
  "3377": " fellows",
  "3378": "rench",
  "3379": " changed",
  "3380": " cover",
  "3381": " humour",
  "3382": " boot",
  "3383": " swords",
  "3384": " deputy",
  "3385": " condition",
  "3386": " judgment",
  "3387": "change",
  "3388": " tyrant",
  "3389": " acqu",
  "3390": " evil",
  "3391": "BALT",
  "3392": "TYBALT",
  "3393": "Whilst",
  "3394": " easy",
  "3395": " Mercutio",
  "3396": " school",
  "3397": " excuse",
  "3398": " fruit",
  "3399": "BISHOP",
  "3400": "'?",
  "3401": "AL",
  "3402": "Bl",
  "3403": "Des",
  "3404": "Ex",
  "3405": "KEN",
  "3406": "Methinks",
  "3407": "Put",
  "3408": "Tut",
  "3409": "ault",
  "3410": "after",
  "3411": "con",
  "3412": "ek",
  "3413": "ead",
  "3414": "ered",
  "3415": "his",
  "3416": "oot",
  "3417": "pin",
  "3418": "roth",
  "3419": "rate",
  "3420": "shi",
  "3421": "ta",
  "3422": "vish",
  "3423": " taken",
  "3424": " wither",
  "3425": " ba",
  "3426": " brow",
  "3427": " bite",
  "3428": " brows",
  "3429": " fain",
  "3430": " feed",
  "3431": "erona",
  "3432": " dust",
  "3433": " dull",
  "3434": "enance",
  "3435": " thunder",
  "3436": " pains",
  "3437": "anley",
  "3438": " gown",
  "3439": " grown",
  "3440": " gift",
  "3441": " ghost",
  "3442": " girl",
  "3443": " beha",
  "3444": " meat",
  "3445": "rift",
  "3446": " stab",
  "3447": " stoop",
  "3448": "idings",
  "3449": "ract",
  "3450": "arden",
  "3451": " spe",
  "3452": " spake",
  "3453": " spring",
  "3454": "ilia",
  "3455": " Catesby",
  "3456": " knave",
  "3457": "AND",
  "3458": " vice",
  "3459": "aste",
  "3460": " shore",
  "3461": " proof",
  "3462": " blest",
  "3463": " blind",
  "3464": "ement",
  "3465": " sirrah",
  "3466": " unl",
  "3467": " question",
  "3468": " joint",
  "3469": "cians",
  "3470": " We",
  "3471": " Al",
  "3472": " Aumerle",
  "3473": " honesty",
  "3474": "ursed",
  "3475": " leaves",
  "3476": " twice",
  "3477": " Keeper",
  "3478": "aper",
  "3479": " prevent",
  "3480": "OMAS",
  "3481": "there",
  "3482": " Mars",
  "3483": " repent",
  "3484": " traitors",
  "3485": "twixt",
  "3486": " import",
  "3487": " wrongs",
  "3488": " buried",
  "3489": "ealous",
  "3490": "place",
  "3491": " reasons",
  "3492": "Alack",
  "3493": " senate",
  "3494": " green",
  "3495": " affair",
  "3496": "acher",
  "3497": " choice",
  "3498": "azed",
  "3499": " divine",
  "3500": " Corioli",
  "3501": " whilst",
  "3502": " stop",
  "3503": " tyran",
  "3504": " prophe",
  "3505": " embrace",
  "3506": " malice",
  "3507": "BRAKEN",
  "3508": " Plantagenet",
  "3509": " sacred",
  "3510": " fiery",
  "3511": " innocent",
  "3512": " Paulina",
  "3513": " leng",
  "3514": " Prince",
  "3515": " safety",
  "3516": " Cominius",
  "3517": "BRAKENBURY",
  "3518": " ed",
  "3519": " To",
  "3520": "?'",
  "3521": "Ad",
  "3522": "DER",
  "3523": "DON",
  "3524": "Edward",
  "3525": "GOR",
  "3526": "Hence",
  "3527": "Ind",
  "3528": "MIST",
  "3529": "Once",
  "3530": "Richard",
  "3531": "RESS",
  "3532": "cha",
  "3533": "draw",
  "3534": "eld",
  "3535": "go",
  "3536": "mn",
  "3537": "my",
  "3538": "more",
  "3539": "nat",
  "3540": "op",
  "3541": "oly",
  "3542": "oard",
  "3543": "pet",
  "3544": "port",
  "3545": "poll",
  "3546": "sic",
  "3547": "would",
  "3548": " avo",
  "3549": " sits",
  "3550": "inous",
  "3551": " wag",
  "3552": " wings",
  "3553": "rehe",
  "3554": " bark",
  "3555": "orry",
  "3556": " fury",
  "3557": " finger",
  "3558": "erset",
  "3559": "itol",
  "3560": " custom",
  "3561": "enen",
  "3562": "anch",
  "3563": "omerset",
  "3564": " gross",
  "3565": " garden",
  "3566": " inform",
  "3567": "edious",
  "3568": " used",
  "3569": " weeds",
  "3570": " ele",
  "3571": " eag",
  "3572": " stones",
  "3573": " dec",
  "3574": " door",
  "3575": " nose",
  "3576": " allow",
  "3577": "think",
  "3578": " anger",
  "3579": "ardine",
  "3580": " loath",
  "3581": " loyal",
  "3582": "ellow",
  "3583": " fares",
  "3584": " necess",
  "3585": " knight",
  "3586": "ctise",
  "3587": " shr",
  "3588": " oracle",
  "3589": " OVER",
  "3590": "Myself",
  "3591": "hysic",
  "3592": " mayor",
  "3593": "elve",
  "3594": " hollow",
  "3595": " sail",
  "3596": " plague",
  "3597": "unning",
  "3598": " round",
  "3599": " fright",
  "3600": "icked",
  "3601": "Without",
  "3602": " always",
  "3603": " rob",
  "3604": " rock",
  "3605": " wherein",
  "3606": " design",
  "3607": "Wherein",
  "3608": "aughters",
  "3609": " adieu",
  "3610": " commend",
  "3611": " claim",
  "3612": " prevail",
  "3613": " prayer",
  "3614": "PETER",
  "3615": " plead",
  "3616": " perceive",
  "3617": " troth",
  "3618": " rude",
  "3619": " tongues",
  "3620": " subst",
  "3621": " smile",
  "3622": " imprison",
  "3623": " cares",
  "3624": "GREGOR",
  "3625": " drawn",
  "3626": " empt",
  "3627": " wanton",
  "3628": " assist",
  "3629": "unts",
  "3630": " tempt",
  "3631": " deserve",
  "3632": " delight",
  "3633": " Capitol",
  "3634": " practise",
  "3635": " cheek",
  "3636": " absence",
  "3637": " Thomas",
  "3638": " drop",
  "3639": " creature",
  "3640": " trumpets",
  "3641": " utter",
  "3642": " langu",
  "3643": " ignorant",
  "3644": "Brother",
  "3645": " rotten",
  "3646": " remedy",
  "3647": " circ",
  "3648": " Barnardine",
  "3649": "DERBY",
  "3650": "DONE",
  "3651": "Indeed",
  "3652": "MISTRESS",
  "3653": "enenius",
  "3654": " OVERDONE",
  "3655": "GREGORY",
  "3656": " es",
  "3657": " Where",
  "3658": "Art",
  "3659": "CH",
  "3660": "Dost",
  "3661": "FORD",
  "3662": "OX",
  "3663": "Poor",
  "3664": "Res",
  "3665": "RICH",
  "3666": "SOM",
  "3667": "Turn",
  "3668": "VAL",
  "3669": "act",
  "3670": "dy",
  "3671": "eous",
  "3672": "mion",
  "3673": "sing",
  "3674": "thi",
  "3675": "what",
  "3676": "yard",
  "3677": " tune",
  "3678": " tidings",
  "3679": " tedious",
  "3680": "held",
  "3681": " aim",
  "3682": " aught",
  "3683": " ship",
  "3684": " sens",
  "3685": " went",
  "3686": " wont",
  "3687": " wives",
  "3688": " wicked",
  "3689": "haps",
  "3690": "isa",
  "3691": "ises",
  "3692": "onounce",
  "3693": " dur",
  "3694": " cre",
  "3695": " cell",
  "3696": " cure",
  "3697": " carry",
  "3698": " cries",
  "3699": "esy",
  "3700": " number",
  "3701": " lar",
  "3702": " loud",
  "3703": " thrust",
  "3704": " hit",
  "3705": " hid",
  "3706": " pil",
  "3707": " pair",
  "3708": "othe",
  "3709": " becomes",
  "3710": "cend",
  "3711": "utes",
  "3712": "iment",
  "3713": "rious",
  "3714": " star",
  "3715": " stat",
  "3716": " steed",
  "3717": "ashi",
  "3718": " receive",
  "3719": " asleep",
  "3720": " dew",
  "3721": " deceived",
  "3722": " deposed",
  "3723": " shar",
  "3724": "this",
  "3725": "ards",
  "3726": "hant",
  "3727": " vantage",
  "3728": "ERIA",
  "3729": "ERSET",
  "3730": " Music",
  "3731": " conj",
  "3732": "ongs",
  "3733": " Grey",
  "3734": " sheep",
  "3735": " therein",
  "3736": " Sic",
  "3737": " Somerset",
  "3738": " Verona",
  "3739": " jealous",
  "3740": " shouldst",
  "3741": " proper",
  "3742": " ras",
  "3743": " outward",
  "3744": " whole",
  "3745": " offend",
  "3746": " Your",
  "3747": " alas",
  "3748": " heav",
  "3749": " earn",
  "3750": "eeth",
  "3751": " meaning",
  "3752": "aced",
  "3753": " chief",
  "3754": " begins",
  "3755": " Jove",
  "3756": " ruin",
  "3757": "loved",
  "3758": "ission",
  "3759": " resign",
  "3760": " follows",
  "3761": " tread",
  "3762": " treacher",
  "3763": "ethought",
  "3764": " banished",
  "3765": " passing",
  "3766": " woful",
  "3767": " devise",
  "3768": " followers",
  "3769": " fools",
  "3770": " maids",
  "3771": "Show",
  "3772": " advise",
  "3773": " gives",
  "3774": "itting",
  "3775": " rememb",
  "3776": " awake",
  "3777": " borne",
  "3778": " supper",
  "3779": " lamb",
  "3780": " condu",
  "3781": "aze",
  "3782": " silence",
  "3783": " possible",
  "3784": "Having",
  "3785": " profess",
  "3786": " despite",
  "3787": "MOND",
  "3788": " garments",
  "3789": " castle",
  "3790": " thrive",
  "3791": " express",
  "3792": " undone",
  "3793": " dreadful",
  "3794": " babe",
  "3795": " protect",
  "3796": "Besides",
  "3797": " broken",
  "3798": " violent",
  "3799": " Christian",
  "3800": " publ",
  "3801": " occasion",
  "3802": " nobles",
  "3803": "Into",
  "3804": "ursday",
  "3805": " fatal",
  "3806": " belly",
  "3807": " authority",
  "3808": " simple",
  "3809": " farther",
  "3810": " throat",
  "3811": " benefit",
  "3812": "pinion",
  "3813": " affairs",
  "3814": "pollo",
  "3815": "OXFORD",
  "3816": "RICHMOND",
  "3817": "SOMERSET",
  "3818": "VALERIA",
  "3819": "mione",
  "3820": " er",
  "3821": " ir",
  "3822": " There",
  "3823": "AMIL",
  "3824": "BUS",
  "3825": "Great",
  "3826": "HY",
  "3827": "Hast",
  "3828": "LIUS",
  "3829": "MOP",
  "3830": "MAMIL",
  "3831": "Per",
  "3832": "Tybalt",
  "3833": "Tailor",
  "3834": "Very",
  "3835": "app",
  "3836": "cing",
  "3837": "can",
  "3838": "eg",
  "3839": "fl",
  "3840": "father",
  "3841": "gle",
  "3842": "iond",
  "3843": "oat",
  "3844": "pr",
  "3845": "ron",
  "3846": "son",
  "3847": "ub",
  "3848": " tort",
  "3849": " taste",
  "3850": " san",
  "3851": " six",
  "3852": " sorry",
  "3853": " wine",
  "3854": " wander",
  "3855": " band",
  "3856": " bond",
  "3857": "erved",
  "3858": "itude",
  "3859": " det",
  "3860": " due",
  "3861": " cal",
  "3862": " cam",
  "3863": " cunning",
  "3864": "ene",
  "3865": "enn",
  "3866": " nine",
  "3867": " names",
  "3868": " lend",
  "3869": "arch",
  "3870": " top",
  "3871": " pin",
  "3872": " pawn",
  "3873": " paper",
  "3874": " physic",
  "3875": " gain",
  "3876": " gage",
  "3877": " belike",
  "3878": " beheld",
  "3879": " infect",
  "3880": "ldom",
  "3881": "eding",
  "3882": "utation",
  "3883": " weight",
  "3884": " weap",
  "3885": "ills",
  "3886": " equ",
  "3887": "enture",
  "3888": " store",
  "3889": " step",
  "3890": " stock",
  "3891": " stuff",
  "3892": " renown",
  "3893": "rand",
  "3894": " lip",
  "3895": " deare",
  "3896": "room",
  "3897": "eave",
  "3898": "usion",
  "3899": "iffe",
  "3900": " seas",
  "3901": " sup",
  "3902": "run",
  "3903": " ange",
  "3904": " lod",
  "3905": "ello",
  "3906": " spend",
  "3907": " spare",
  "3908": "hop",
  "3909": " van",
  "3910": "ouses",
  "3911": " shut",
  "3912": "ustice",
  "3913": " MOW",
  "3914": " Menenius",
  "3915": "olix",
  "3916": " sway",
  "3917": " brook",
  "3918": " kingly",
  "3919": " Bona",
  "3920": " unnat",
  "3921": " Harry",
  "3922": " quit",
  "3923": "imely",
  "3924": " envious",
  "3925": " rash",
  "3926": " disd",
  "3927": "ABHOR",
  "3928": " room",
  "3929": " exile",
  "3930": " excell",
  "3931": " desert",
  "3932": " gentlewoman",
  "3933": " flight",
  "3934": " twelve",
  "3935": " parts",
  "3936": " prey",
  "3937": "THOMAS",
  "3938": " peril",
  "3939": " perish",
  "3940": " trans",
  "3941": "iteous",
  "3942": " Friar",
  "3943": " whither",
  "3944": "swain",
  "3945": " until",
  "3946": " affect",
  "3947": " lean",
  "3948": " legs",
  "3949": "orses",
  "3950": " keeps",
  "3951": " accus",
  "3952": "STANLEY",
  "3953": " prize",
  "3954": " pursu",
  "3955": " chair",
  "3956": " countenance",
  "3957": " pleased",
  "3958": "ounty",
  "3959": " humbly",
  "3960": " courtesy",
  "3961": " advantage",
  "3962": " curst",
  "3963": "ploy",
  "3964": " spirits",
  "3965": "Two",
  "3966": " intend",
  "3967": " denied",
  "3968": "ancy",
  "3969": " disposition",
  "3970": " betwixt",
  "3971": " silver",
  "3972": " delay",
  "3973": " resolve",
  "3974": " Thursday",
  "3975": " wedding",
  "3976": " sighs",
  "3977": " hurt",
  "3978": "BRAY",
  "3979": " colour",
  "3980": " clear",
  "3981": " owe",
  "3982": " prepared",
  "3983": " damned",
  "3984": " shadow",
  "3985": " pleasant",
  "3986": " forsworn",
  "3987": " storm",
  "3988": "Death",
  "3989": " threaten",
  "3990": " conquer",
  "3991": " punish",
  "3992": " Caius",
  "3993": " contrary",
  "3994": "EXETER",
  "3995": " palace",
  "3996": " dinner",
  "3997": " neighbour",
  "3998": " miserable",
  "3999": " speci",
  "4000": " empty",
  "4001": " Musician",
  "4002": "BUSHY",
  "4003": "MOPSA",
  "4004": "MAMILLIUS",
  "4005": "iondello",
  "4006": " sanct",
  "4007": " MOWBRAY",
  "4008": "olixenes",
  "4009": "ABHORSON",
  "4010": " When",
  "4011": "CY",
  "4012": "Cousin",
  "4013": "Ed",
  "4014": "Know",
  "4015": "None",
  "4016": "Nothing",
  "4017": "Pre",
  "4018": "Ret",
  "4019": "Right",
  "4020": "Rem",
  "4021": "Rep",
  "4022": "Sc",
  "4023": "Sha",
  "4024": "Widow",
  "4025": "bow",
  "4026": "born",
  "4027": "grace",
  "4028": "hor",
  "4029": "hore",
  "4030": "lar",
  "4031": "mity",
  "4032": "oc",
  "4033": "oke",
  "4034": "par",
  "4035": "ping",
  "4036": "pic",
  "4037": "pass",
  "4038": "tune",
  "4039": "urious",
  "4040": "we",
  "4041": "wise",
  "4042": "yond",
  "4043": " tut",
  "4044": " table",
  "4045": " scept",
  "4046": " miss",
  "4047": " murderer",
  "4048": " making",
  "4049": " motion",
  "4050": " mourn",
  "4051": " wot",
  "4052": " wood",
  "4053": " wol",
  "4054": " wond",
  "4055": "rease",
  "4056": " bas",
  "4057": " bare",
  "4058": " ball",
  "4059": " bud",
  "4060": "ising",
  "4061": " fle",
  "4062": " fro",
  "4063": " fee",
  "4064": " fashi",
  "4065": "erve",
  "4066": " di",
  "4067": " dign",
  "4068": " dies",
  "4069": " dag",
  "4070": " daughters",
  "4071": " cens",
  "4072": " cup",
  "4073": " calm",
  "4074": "ency",
  "4075": " naked",
  "4076": " yonder",
  "4077": " opinion",
  "4078": " pure",
  "4079": " port",
  "4080": " painted",
  "4081": " piteous",
  "4082": " heed",
  "4083": "ote",
  "4084": "ane",
  "4085": " gate",
  "4086": " bew",
  "4087": " beloved",
  "4088": "sequ",
  "4089": "irg",
  "4090": " mend",
  "4091": "ourish",
  "4092": " weigh",
  "4093": "rib",
  "4094": " story",
  "4095": " reward",
  "4096": "urance",
  "4097": " debt",
  "4098": " ones",
  "4099": "ARCH",
  "4100": "amed",
  "4101": " seest",
  "4102": "Three",
  "4103": "ruly",
  "4104": "thou",
  "4105": " fail",
  "4106": "ERCY",
  "4107": "que",
  "4108": " goodness",
  "4109": " pronounce",
  "4110": " comple",
  "4111": " Messenger",
  "4112": " amb",
  "4113": " amen",
  "4114": "outs",
  "4115": "oler",
  "4116": " hatred",
  "4117": " theirs",
  "4118": " Biondello",
  "4119": " arg",
  "4120": "igence",
  "4121": " quench",
  "4122": " hopes",
  "4123": "cio",
  "4124": "cian",
  "4125": " seeing",
  "4126": " Pro",
  "4127": " Peter",
  "4128": " Pisa",
  "4129": " Polixenes",
  "4130": " PERCY",
  "4131": "umble",
  "4132": " plot",
  "4133": " diss",
  "4134": " expect",
  "4135": " slow",
  "4136": " ado",
  "4137": "THAS",
  "4138": " Did",
  "4139": " perfect",
  "4140": " perpet",
  "4141": " wrath",
  "4142": "Thanks",
  "4143": " Fl",
  "4144": "lesome",
  "4145": " remains",
  "4146": " crowns",
  "4147": " hark",
  "4148": " courage",
  "4149": " wits",
  "4150": "clock",
  "4151": " access",
  "4152": " accuse",
  "4153": " folly",
  "4154": "Only",
  "4155": " ends",
  "4156": " endure",
  "4157": " needful",
  "4158": "Still",
  "4159": " bodies",
  "4160": " joys",
  "4161": " joyful",
  "4162": " fortunes",
  "4163": " mistake",
  "4164": " natural",
  "4165": " happiness",
  "4166": " misery",
  "4167": " undertake",
  "4168": " chide",
  "4169": " attempt",
  "4170": " advance",
  "4171": " curses",
  "4172": " employ",
  "4173": " assurance",
  "4174": " persu",
  "4175": " discontent",
  "4176": " senators",
  "4177": " crack",
  "4178": " intent",
  "4179": " sometime",
  "4180": " wounded",
  "4181": " spoken",
  "4182": " drum",
  "4183": " market",
  "4184": "cape",
  "4185": " waters",
  "4186": " cursed",
  "4187": " instruct",
  "4188": " instrument",
  "4189": " Nap",
  "4190": " Rivers",
  "4191": " terror",
  "4192": " resolved",
  "4193": "chance",
  "4194": " whiles",
  "4195": " corrupt",
  "4196": "ney",
  "4197": " burthen",
  "4198": " griev",
  "4199": " duked",
  "4200": " accept",
  "4201": " groan",
  "4202": "BALTHAS",
  "4203": " colours",
  "4204": " penit",
  "4205": " protest",
  "4206": " princes",
  "4207": " princess",
  "4208": " Stanley",
  "4209": " government",
  "4210": "Prithee",
  "4211": " obedience",
  "4212": " petition",
  "4213": " solemn",
  "4214": "Believe",
  "4215": " continue",
  "4216": " credit",
  "4217": " several",
  "4218": "hearted",
  "4219": " wreck",
  "4220": " language",
  "4221": " circum",
  "4222": " durst",
  "4223": " remembrance",
  "4224": " public",
  "4225": " unnatural",
  "4226": "picion",
  "4227": " dukedom",
  "4228": "BALTHASAR",
  "4229": " Nay",
  "4230": " They",
  "4231": "?--",
  "4232": "Ar",
  "4233": "App",
  "4234": "AEd",
  "4235": "Bear",
  "4236": "Boat",
  "4237": "Father",
  "4238": "FOL",
  "4239": "Heaven",
  "4240": "Love",
  "4241": "Might",
  "4242": "Mark",
  "4243": "OS",
  "4244": "Post",
  "4245": "Page",
  "4246": "Save",
  "4247": "afe",
  "4248": "bear",
  "4249": "do",
  "4250": "dds",
  "4251": "ex",
  "4252": "fer",
  "4253": "gers",
  "4254": "how",
  "4255": "ipe",
  "4256": "just",
  "4257": "lic",
  "4258": "oe",
  "4259": "oved",
  "4260": "ped",
  "4261": "pro",
  "4262": "sc",
  "4263": "same",
  "4264": "time",
  "4265": "uary",
  "4266": "val",
  "4267": "vours",
  "4268": "yr",
  "4269": " test",
  "4270": " teeth",
  "4271": "hest",
  "4272": " sink",
  "4273": " sins",
  "4274": " mag",
  "4275": " mile",
  "4276": "ination",
  "4277": "happy",
  "4278": "ishop",
  "4279": " fame",
  "4280": "erd",
  "4281": "ita",
  "4282": " cock",
  "4283": " cease",
  "4284": "ences",
  "4285": " nought",
  "4286": " led",
  "4287": "aries",
  "4288": " host",
  "4289": " hunt",
  "4290": " houses",
  "4291": " horses",
  "4292": " odd",
  "4293": " obs",
  "4294": " odds",
  "4295": " tomb",
  "4296": " pol",
  "4297": " powers",
  "4298": "strous",
  "4299": "omp",
  "4300": "omen",
  "4301": "atic",
  "4302": "atience",
  "4303": " beyond",
  "4304": " haz",
  "4305": "uted",
  "4306": " mere",
  "4307": " isle",
  "4308": " island",
  "4309": "ourage",
  "4310": " east",
  "4311": " its",
  "4312": " kin",
  "4313": "idence",
  "4314": " repe",
  "4315": " realm",
  "4316": " shape",
  "4317": "uses",
  "4318": "ified",
  "4319": " seize",
  "4320": "Those",
  "4321": " spite",
  "4322": " faces",
  "4323": " Can",
  "4324": " Cal",
  "4325": " ROS",
  "4326": " vault",
  "4327": " virg",
  "4328": " shun",
  "4329": "ants",
  "4330": " comest",
  "4331": " manners",
  "4332": " El",
  "4333": "icular",
  "4334": " conc",
  "4335": "ieved",
  "4336": " block",
  "4337": " blush",
  "4338": " Good",
  "4339": "ared",
  "4340": "arent",
  "4341": "olute",
  "4342": " hereafter",
  "4343": " swallow",
  "4344": " brings",
  "4345": " So",
  "4346": " Bl",
  "4347": "elt",
  "4348": " qual",
  "4349": " jour",
  "4350": "Young",
  "4351": "akest",
  "4352": "ument",
  "4353": " fathers",
  "4354": " Who",
  "4355": " enmity",
  "4356": " ring",
  "4357": "CAS",
  "4358": " Yet",
  "4359": " alter",
  "4360": " looking",
  "4361": " friendly",
  "4362": " slay",
  "4363": " flies",
  "4364": " Take",
  "4365": " fairly",
  "4366": "tled",
  "4367": " advers",
  "4368": " clo",
  "4369": " write",
  "4370": " trade",
  "4371": " ways",
  "4372": " scope",
  "4373": " scene",
  "4374": "aintain",
  "4375": " key",
  "4376": "they",
  "4377": " French",
  "4378": " apprehe",
  "4379": " contract",
  "4380": " whore",
  "4381": " armour",
  "4382": "ctions",
  "4383": " untimely",
  "4384": "ression",
  "4385": " imm",
  "4386": " repair",
  "4387": " rule",
  "4388": " leads",
  "4389": " slept",
  "4390": " accord",
  "4391": " purcha",
  "4392": " compass",
  "4393": "orset",
  "4394": " seeming",
  "4395": " brain",
  "4396": " glorious",
  "4397": " imposs",
  "4398": " passage",
  "4399": " maiden",
  "4400": " hateful",
  "4401": " strew",
  "4402": " turns",
  "4403": "uteous",
  "4404": " instant",
  "4405": " boar",
  "4406": " wants",
  "4407": "NORFOL",
  "4408": " discover",
  "4409": " commanded",
  "4410": " hanging",
  "4411": " contented",
  "4412": " dares",
  "4413": " freely",
  "4414": " grey",
  "4415": " services",
  "4416": " temper",
  "4417": " drums",
  "4418": " choler",
  "4419": " grows",
  "4420": " deserves",
  "4421": "noon",
  "4422": " Lucio",
  "4423": " granted",
  "4424": "Comm",
  "4425": " terms",
  "4426": " increase",
  "4427": " resolution",
  "4428": " shortly",
  "4429": " vex",
  "4430": " praise",
  "4431": " absent",
  "4432": " venom",
  "4433": " drops",
  "4434": " privile",
  "4435": " respected",
  "4436": " frame",
  "4437": "Beseech",
  "4438": " approach",
  "4439": " complain",
  "4440": " torment",
  "4441": " unknown",
  "4442": " prosperous",
  "4443": "DORCAS",
  "4444": " suspicion",
  "4445": " reverend",
  "4446": " apparel",
  "4447": " captain",
  "4448": " degree",
  "4449": " Hermione",
  "4450": " smooth",
  "4451": " large",
  "4452": " sharp",
  "4453": " earnest",
  "4454": " camest",
  "4455": " disdain",
  "4456": " excellent",
  "4457": " sceptre",
  "4458": " dagger",
  "4459": " Naples",
  "4460": "Boatswain",
  "4461": " ROSS",
  "4462": "NORFOLK",
  "4463": " Therefore",
  "4464": "Amen",
  "4465": "Boy",
  "4466": "Came",
  "4467": "Cons",
  "4468": "DIN",
  "4469": "Dear",
  "4470": "FER",
  "4471": "GH",
  "4472": "Ghost",
  "4473": "Has",
  "4474": "Long",
  "4475": "Mistress",
  "4476": "NS",
  "4477": "Please",
  "4478": "RR",
  "4479": "Roman",
  "4480": "Set",
  "4481": "Wilt",
  "4482": "Worthy",
  "4483": "aces",
  "4484": "aily",
  "4485": "bri",
  "4486": "bra",
  "4487": "dis",
  "4488": "fret",
  "4489": "gl",
  "4490": "gar",
  "4491": "iven",
  "4492": "iate",
  "4493": "ipp",
  "4494": "kin",
  "4495": "ker",
  "4496": "law",
  "4497": "pul",
  "4498": "uce",
  "4499": "wife",
  "4500": " tame",
  "4501": " taught",
  "4502": " tap",
  "4503": " tide",
  "4504": " able",
  "4505": " squ",
  "4506": " south",
  "4507": " mor",
  "4508": " mill",
  "4509": " messenger",
  "4510": "iny",
  "4511": "reg",
  "4512": "reland",
  "4513": "reme",
  "4514": " bird",
  "4515": " bury",
  "4516": "isper",
  "4517": " fig",
  "4518": " furn",
  "4519": "itus",
  "4520": " dig",
  "4521": " dress",
  "4522": " daily",
  "4523": " chat",
  "4524": " catch",
  "4525": " lark",
  "4526": " thorn",
  "4527": " thief",
  "4528": " parent",
  "4529": " Ireland",
  "4530": "ances",
  "4531": "omans",
  "4532": "ater",
  "4533": "ature",
  "4534": "atcl",
  "4535": " bef",
  "4536": " beard",
  "4537": " bethink",
  "4538": " meant",
  "4539": " weather",
  "4540": " wept",
  "4541": "ades",
  "4542": "ricians",
  "4543": " stol",
  "4544": " stamp",
  "4545": " rej",
  "4546": " recom",
  "4547": " revol",
  "4548": " lion",
  "4549": "aline",
  "4550": " willing",
  "4551": " willingly",
  "4552": " nobl",
  "4553": " nobly",
  "4554": "andal",
  "4555": " season",
  "4556": " sull",
  "4557": " suck",
  "4558": " spr",
  "4559": " spur",
  "4560": " Co",
  "4561": " Cons",
  "4562": " knife",
  "4563": " Ros",
  "4564": " Romans",
  "4565": " vows",
  "4566": " comb",
  "4567": " May",
  "4568": " Mil",
  "4569": " amazed",
  "4570": " conce",
  "4571": " conceit",
  "4572": " constant",
  "4573": "ember",
  "4574": "Help",
  "4575": " lovely",
  "4576": " swell",
  "4577": " ST",
  "4578": " Be",
  "4579": " Ber",
  "4580": " unless",
  "4581": " worn",
  "4582": " worthi",
  "4583": " jew",
  "4584": " muster",
  "4585": " provo",
  "4586": " Pray",
  "4587": " ruth",
  "4588": " Ad",
  "4589": " Apollo",
  "4590": " disper",
  "4591": " abhor",
  "4592": " roar",
  "4593": " rogue",
  "4594": " tells",
  "4595": " whereof",
  "4596": " warlike",
  "4597": " hasty",
  "4598": " fears",
  "4599": " greatest",
  "4600": "oldier",
  "4601": " particular",
  "4602": " adver",
  "4603": " committed",
  "4604": " clam",
  "4605": " Do",
  "4606": " perj",
  "4607": " perforce",
  "4608": " wrought",
  "4609": "liament",
  "4610": " north",
  "4611": " press",
  "4612": " rap",
  "4613": " raise",
  "4614": " Farewell",
  "4615": " begun",
  "4616": "forth",
  "4617": " Jack",
  "4618": " consider",
  "4619": " peers",
  "4620": "love",
  "4621": " witch",
  "4622": " accused",
  "4623": " kindly",
  "4624": " compan",
  "4625": " smiles",
  "4626": " county",
  "4627": " finds",
  "4628": "Stri",
  "4629": " braw",
  "4630": " charged",
  "4631": " passion",
  "4632": "Clarence",
  "4633": " holds",
  "4634": "GREEN",
  "4635": " streets",
  "4636": " build",
  "4637": " soundly",
  "4638": " serves",
  "4639": " boots",
  "4640": " advice",
  "4641": " current",
  "4642": " revenged",
  "4643": " assured",
  "4644": " sends",
  "4645": " giving",
  "4646": " winds",
  "4647": " hanged",
  "4648": " darest",
  "4649": " intell",
  "4650": " supposed",
  "4651": " afford",
  "4652": "ALONS",
  "4653": "Whither",
  "4654": " hardly",
  "4655": " profit",
  "4656": " parliament",
  "4657": " record",
  "4658": " veins",
  "4659": " waste",
  "4660": " stopp",
  "4661": "Until",
  "4662": " pieces",
  "4663": " wait",
  "4664": " garland",
  "4665": " grieve",
  "4666": " sky",
  "4667": " forbear",
  "4668": " Pomfret",
  "4669": " direct",
  "4670": " groans",
  "4671": " thrice",
  "4672": " estate",
  "4673": "erns",
  "4674": "TYRR",
  "4675": " oppos",
  "4676": " destroy",
  "4677": "About",
  "4678": " urged",
  "4679": " affections",
  "4680": " famous",
  "4681": " haply",
  "4682": "DORSET",
  "4683": "Supp",
  "4684": " lusty",
  "4685": " elder",
  "4686": " study",
  "4687": " counterfeit",
  "4688": "Gentlemen",
  "4689": " arrived",
  "4690": " behalf",
  "4691": " Marshal",
  "4692": " avoid",
  "4693": " imprisonment",
  "4694": "untsman",
  "4695": " rascal",
  "4696": " treacherous",
  "4697": " conduct",
  "4698": " protector",
  "4699": " special",
  "4700": " sanctuary",
  "4701": " perpetual",
  "4702": " grievous",
  "4703": "AEdile",
  "4704": " virgin",
  "4705": " journey",
  "4706": "DINAND",
  "4707": "FERDINAND",
  "4708": "atcliff",
  "4709": " Conspir",
  "4710": "ALONSO",
  "4711": "TYRREL",
  "4712": " z",
  "4713": " ing",
  "4714": " Then",
  "4715": ";--",
  "4716": "Acc",
  "4717": "Bring",
  "4718": "Coriol",
  "4719": "Keep",
  "4720": "Leave",
  "4721": "Makes",
  "4722": "Vols",
  "4723": "af",
  "4724": "cure",
  "4725": "des",
  "4726": "dig",
  "4727": "eat",
  "4728": "erer",
  "4729": "fess",
  "4730": "fellow",
  "4731": "faced",
  "4732": "grim",
  "4733": "groom",
  "4734": "ib",
  "4735": "iving",
  "4736": "ienn",
  "4737": "lanch",
  "4738": "master",
  "4739": "mory",
  "4740": "maid",
  "4741": "nal",
  "4742": "sha",
  "4743": "ser",
  "4744": "some",
  "4745": "ties",
  "4746": "upt",
  "4747": "vior",
  "4748": "wear",
  "4749": "xeter",
  "4750": "zz",
  "4751": " task",
  "4752": " ach",
  "4753": " apt",
  "4754": " aunt",
  "4755": " sy",
  "4756": " sal",
  "4757": " sire",
  "4758": " mult",
  "4759": " maintain",
  "4760": " wing",
  "4761": " wide",
  "4762": " whip",
  "4763": " waking",
  "4764": "reen",
  "4765": " bade",
  "4766": "isbury",
  "4767": " fi",
  "4768": " food",
  "4769": " frow",
  "4770": " fun",
  "4771": " feet",
  "4772": " fires",
  "4773": " fancy",
  "4774": "erity",
  "4775": "erby",
  "4776": "itation",
  "4777": "onci",
  "4778": " dow",
  "4779": " dim",
  "4780": " dri",
  "4781": " dying",
  "4782": " cher",
  "4783": " caught",
  "4784": " cere",
  "4785": "esar",
  "4786": "essel",
  "4787": "enant",
  "4788": " nail",
  "4789": " lin",
  "4790": " yond",
  "4791": " yoke",
  "4792": " third",
  "4793": " hor",
  "4794": " hie",
  "4795": " pi",
  "4796": " pot",
  "4797": " pound",
  "4798": " purse",
  "4799": " pier",
  "4800": "vet",
  "4801": "ative",
  "4802": "sell",
  "4803": " inqu",
  "4804": "etite",
  "4805": "eder",
  "4806": "utenant",
  "4807": " melt",
  "4808": " melanch",
  "4809": " fors",
  "4810": " forced",
  "4811": " forfeit",
  "4812": "ourse",
  "4813": "ourth",
  "4814": " event",
  "4815": "adv",
  "4816": "aded",
  "4817": "rick",
  "4818": " sting",
  "4819": " stro",
  "4820": " stout",
  "4821": " stret",
  "4822": " stroke",
  "4823": " reck",
  "4824": "rac",
  "4825": "ales",
  "4826": "alisbury",
  "4827": " sore",
  "4828": " sooth",
  "4829": " deceit",
  "4830": "roll",
  "4831": "ested",
  "4832": "earer",
  "4833": "amb",
  "4834": "ams",
  "4835": "aming",
  "4836": " sees",
  "4837": " alliance",
  "4838": " sue",
  "4839": "ruction",
  "4840": "ellion",
  "4841": " sple",
  "4842": "ilence",
  "4843": " knaves",
  "4844": " vessel",
  "4845": "ulate",
  "4846": "arts",
  "4847": "nty",
  "4848": " Exeter",
  "4849": "icy",
  "4850": " confe",
  "4851": " blunt",
  "4852": " Give",
  "4853": "ares",
  "4854": " Le",
  "4855": " saying",
  "4856": " Soldier",
  "4857": " unjust",
  "4858": " unhappy",
  "4859": "ignty",
  "4860": "LIS",
  "4861": " graves",
  "4862": " Well",
  "4863": " enforce",
  "4864": "deem",
  "4865": " All",
  "4866": " Away",
  "4867": "irect",
  "4868": "harge",
  "4869": " offended",
  "4870": " dissem",
  "4871": " disgrace",
  "4872": " alack",
  "4873": " alike",
  "4874": " although",
  "4875": " abide",
  "4876": " aboard",
  "4877": "Noble",
  "4878": " rose",
  "4879": " exchange",
  "4880": "Soft",
  "4881": "ages",
  "4882": " desires",
  "4883": " descend",
  "4884": " slaves",
  "4885": " flood",
  "4886": " flatt",
  "4887": " twain",
  "4888": " Titus",
  "4889": " betray",
  "4890": " betimes",
  "4891": " newly",
  "4892": " parting",
  "4893": " partly",
  "4894": " called",
  "4895": " commons",
  "4896": " commission",
  "4897": " standing",
  "4898": " clim",
  "4899": " De",
  "4900": " Dorset",
  "4901": " Derby",
  "4902": "ullus",
  "4903": " wrink",
  "4904": " bearing",
  "4905": "aints",
  "4906": " rare",
  "4907": "thee",
  "4908": " Froth",
  "4909": " appeal",
  "4910": " appetite",
  "4911": " contempt",
  "4912": " whisper",
  "4913": " image",
  "4914": " Marian",
  "4915": "forced",
  "4916": " rust",
  "4917": " ruled",
  "4918": " household",
  "4919": " restra",
  "4920": "ercy",
  "4921": " sets",
  "4922": "clam",
  "4923": "osing",
  "4924": " resist",
  "4925": " trick",
  "4926": " puts",
  "4927": " powerful",
  "4928": " chase",
  "4929": " charac",
  "4930": " smell",
  "4931": " treasure",
  "4932": " brace",
  "4933": "iety",
  "4934": " mistrust",
  "4935": " native",
  "4936": " boys",
  "4937": " weeps",
  "4938": " patricians",
  "4939": " below",
  "4940": "Lords",
  "4941": " falsehood",
  "4942": " sovereignty",
  "4943": "ouchs",
  "4944": " assure",
  "4945": " secure",
  "4946": "Twere",
  "4947": " sometimes",
  "4948": " oaths",
  "4949": " merit",
  "4950": "upon",
  "4951": " faithful",
  "4952": " defence",
  "4953": " affli",
  "4954": " surely",
  "4955": "should",
  "4956": " silent",
  "4957": " instruments",
  "4958": "Cannot",
  "4959": " beholding",
  "4960": " reconci",
  "4961": " ago",
  "4962": " agree",
  "4963": " corre",
  "4964": " single",
  "4965": " breathed",
  "4966": " forgive",
  "4967": " weakness",
  "4968": " prett",
  "4969": " sickness",
  "4970": " regal",
  "4971": " regard",
  "4972": " mouths",
  "4973": " books",
  "4974": " barren",
  "4975": " beasts",
  "4976": " trumpet",
  "4977": "eeming",
  "4978": " pitch",
  "4979": " shield",
  "4980": " unkind",
  "4981": " tempest",
  "4982": " suspect",
  "4983": " obedient",
  "4984": " reverence",
  "4985": " apparent",
  "4986": " entertainment",
  "4987": " Anti",
  "4988": " determined",
  "4989": " helm",
  "4990": " gently",
  "4991": " holp",
  "4992": " fairest",
  "4993": " tremble",
  "4994": "shire",
  "4995": " stabb",
  "4996": " tyranny",
  "4997": " length",
  "4998": " pilgrim",
  "4999": "<|endoftext|>"
}