{
  "0": "\u0000",
  "1": "\u0001",
  "2": "\u0002",
  "3": "\u0003",
  "4": "\u0004",
  "5": "\u0005",
  "6": "\u0006",
  "7": "\u0007",
  "8": "\b",
  "9": "\t",
  "10": "\n",
  "11": "\u000b",
  "12": "\f",
  "13": "\r",
  "14": "\u000e",
  "15": "\u000f",
  "16": "\u0010",
  "17": "\u0011",
  "18": "\u0012",
  "19": "\u0013",
  "20": "\u0014",
  "21": "\u0015",
  "22": "\u0016",
  "23": "\u0017",
  "24": "\u0018",
  "25": "\u0019",
  "26": "\u001a",
  "27": "\u001b",
  "28": "\u001c",
  "29": "\u001d",
  "30": "\u001e",
  "31": "\u001f",
  "32": " ",
  "33": "!",
  "34": "\"",
  "35": "#",
  "36": "$",
  "37": "%",
  "38": "&",
  "39": "'",
  "40": "(",
  "41": ")",
  "42": "*",
  "43": "+",
  "44": ",",
  "45": "-",
  "46": ".",
  "47": "/",
  "48": "0",
  "49": "1",
  "50": "2",
  "51": "3",
  "52": "4",
  "53": "5",
  "54": "6",
  "55": "7",
  "56": "8",
  "57": "9",
  "58": ":",
  "59": ";",
  "60": "<",
  "61": "=",
  "62": ">",
  "63": "?",
  "64": "@",
  "65": "A",
  "66": "B",
  "67": "C",
  "68": "D",
  "69": "E",
  "70": "F",
  "71": "G",
  "72": "H",
  "73": "I",
  "74": "J",
  "75": "K",
  "76": "L",
  "77": "M",
  "78": "N",
  "79": "O",
  "80": "P",
  "81": "Q",
  "82": "R",
  "83": "S",
  "84": "T",
  "85": "U",
  "86": "V",
  "87": "W",
  "88": "X",
  "89": "Y",
  "90": "Z",
  "91": "[",
  "92": "\\",
  "93": "]",
  "94": "^",
  "95": "_",
  "96": "`",
  "97": "a",
  "98": "b",
  "99": "c",
  "100": "d",
  "101": "e",
  "102": "f",
  "103": "g",
  "104": "h",
  "105": "i",
  "106": "j",
  "107": "k",
  "108": "l",
  "109": "m",
  "110": "n",
  "111": "o",
  "112": "p",
  "113": "q",
  "114": "r",
  "115": "s",
  "116": "t",
  "117": "u",
  "118": "v",
  "119": "w",
  "120": "x",
  "121": "y",
  "122": "z",
  "123": "{",
  "124": "|",
  "125": "}",
  "126": "~",
  "127": "",
  "128": "�",
  "129": "�",
  "130": "�",
  "131": "�",
  "132": "�",
  "133": "�",
  "134": "�",
  "135": "�",
  "136": "�",
  "137": "�",
  "138": "�",
  "139": "�",
  "140": "�",
  "141": "�",
  "142": "�",
  "143": "�",
  "144": "�",
  "145": "�",
  "146": "�",
  "147": "�",
  "148": "�",
  "149": "�",
  "150": "�",
  "151": "�",
  "152": "�",
  "153": "�",
  "154": "�",
  "155": "�",
  "156": "�",
  "157": "�",
  "158": "�",
  "159": "�",
  "160": "�",
  "161": "�",
  "162": "�",
  "163": "�",
  "164": "�",
  "165": "�",
  "166": "�",
  "167": "�",
  "168": "�",
  "169": "�",
  "170": "�",
  "171": "�",
  "172": "�",
  "173": "�",
  "174": "�",
  "175": "�",
  "176": "�",
  "177": "�",
  "178": "�",
  "179": "�",
  "180": "�",
  "181": "�",
  "182": "�",
  "183": "�",
  "184": "�",
  "185": "�",
  "186": "�",
  "187": "�",
  "188": "�",
  "189": "�",
  "190": "�",
  "191": "�",
  "192": "�",
  "193": "�",
  "194": "�",
  "195": "�",
  "196": "�",
  "197": "�",
  "198": "�",
  "199": "�",
  "200": "�",
  "201": "�",
  "202": "�",
  "203": "�",
  "204": "�",
  "205": "�",
  "206": "�",
  "207": "�",
  "208": "�",
  "209": "�",
  "210": "�",
  "211": "�",
  "212": "�",
  "213": "�",
  "214": "�",
  "215": "�",
  "216": "�",
  "217": "�",
  "218": "�",
  "219": "�",
  "220": "�",
  "221": "�",
  "222": "�",
  "223": "�",
  "224": "�",
  "225": "�",
  "226": "�",
  "227": "�",
  "228": "�",
  "229": "�",
  "230": "�",
  "231": "�",
  "232": "�",
  "233": "�",
  "234": "�",
  "235": "�",
  "236": "�",
  "237": "�",
  "238": "�",
  "239": "�",
  "240": "�",
  "241": "�",
  "242": "�",
  "243": "�",
  "244": "�",
  "245": "�",
  "246": "�",
  "247": "�",
  "248": "�",
  "249": "�",
  "250": "�",
  "251": "�",
  "252": "�",
  "253": "�",
  "254": "�",
  "255": "�",
  "256": " t",
  "257": "he",
  "258": "ou",
  "259": " a",
  "260": " the",
  "261": " s",
  "262": " w",
  "263": "re",
  "264": "ha",
  "265": "in",
  "266": " m",
  "267": " b",
  "268": "nd",
  "269": "it",
  "270": "on",
  "271": "er",
  "272": " y",
  "273": "or",
  "274": "es",
  "275": "ll",
  "276": "is",
  "277": "en",
  "278": " c",
  "279": " f",
  "280": " you",
  "281": " p",
  "282": "US",
  "283": " h",
  "284": " n",
  "285": "ar",
  "286": " d",
  "287": " to",
  "288": " o",
  "289": "us",
  "290": "hat",
  "291": "ve",
  "292": "at",
  "293": " he",
  "294": "le",
  "295": "om",
  "296": " g",
  "297": " no",
  "298": "IUS",
  "299": "an",
  "300": " be",
  "301": " and",
  "302": "ir",
  "303": " of",
  "304": "ow",
  "305": " th",
  "306": " ha",
  "307": " I",
  "308": " l",
  "309": "st",
  "310": "ing",
  "311": "ld",
  "312": "NIUS",
  "313": "ce",
  "314": " in",
  "315": "our",
  "316": "ed",
  "317": "im",
  "318": "se",
  "319": "ay",
  "320": "ic",
  "321": "ut",
  "322": " we",
  "323": "ith",
  "324": "et",
  "325": " your",
  "326": " not",
  "327": " that",
  "328": "The",
  "329": " for",
  "330": "'s",
  "331": "ome",
  "332": " him",
  "333": "CO",
  "334": "oo",
  "335": "ke",
  "336": "OL",
  "337": " have",
  "338": " it",
  "339": " C",
  "340": " st",
  "341": " e",
  "342": " re",
  "343": "gh",
  "344": "ri",
  "345": " is",
  "346": "her",
  "347": "'d",
  "348": " with",
  "349": "INIUS",
  "350": "ot",
  "351": " my",
  "352": " his",
  "353": "ould",
  "354": " me",
  "355": "ill",
  "356": "ent",
  "357": "ius",
  "358": " v",
  "359": "ly",
  "360": "RI",
  "361": "ore",
  "362": " on",
  "363": "as",
  "364": "iti",
  "365": "ad",
  "366": "id",
  "367": "EN",
  "368": "ENIUS",
  "369": "MEN",
  "370": "al",
  "371": "MENENIUS",
  "372": " as",
  "373": "ch",
  "374": " them",
  "375": " do",
  "376": "AN",
  "377": "CORI",
  "378": "OLAN",
  "379": "CORIOLAN",
  "380": "CORIOLANUS",
  "381": "And",
  "382": "ur",
  "383": "han",
  "384": "un",
  "385": "ol",
  "386": "ra",
  "387": " are",
  "388": " their",
  "389": " our",
  "390": "ion",
  "391": "zen",
  "392": "hall",
  "393": "ea",
  "394": "th",
  "395": "ood",
  "396": "itizen",
  "397": "op",
  "398": " wh",
  "399": " but",
  "400": " us",
  "401": "ter",
  "402": " so",
  "403": "He",
  "404": " '",
  "405": "CINIUS",
  "406": "ICINIUS",
  "407": "SICINIUS",
  "408": "We",
  "409": "ain",
  "410": " they",
  "411": " sp",
  "412": "irst",
  "413": "ght",
  "414": "Th",
  "415": "To",
  "416": "ver",
  "417": "TUS",
  "418": "if",
  "419": "ul",
  "420": " shall",
  "421": " wor",
  "422": "ess",
  "423": "est",
  "424": " pr",
  "425": "up",
  "426": " all",
  "427": " will",
  "428": " k",
  "429": "BR",
  "430": "UTUS",
  "431": "BRUTUS",
  "432": " r",
  "433": "ec",
  "434": " hear",
  "435": " sh",
  "436": " con",
  "437": "ich",
  "438": "ake",
  "439": " an",
  "440": "ust",
  "441": " le",
  "442": "ee",
  "443": " go",
  "444": "That",
  "445": " this",
  "446": "--",
  "447": "ble",
  "448": " whe",
  "449": " pe",
  "450": " M",
  "451": "First",
  "452": "am",
  "453": " Citizen",
  "454": "ople",
  "455": " people",
  "456": "ive",
  "457": " de",
  "458": "IA",
  "459": "Wh",
  "460": "You",
  "461": "AR",
  "462": "one",
  "463": "ck",
  "464": " what",
  "465": "ds",
  "466": " li",
  "467": "il",
  "468": "now",
  "469": "ves",
  "470": " would",
  "471": "arc",
  "472": "end",
  "473": " than",
  "474": "out",
  "475": " at",
  "476": " su",
  "477": "arcius",
  "478": " up",
  "479": "and",
  "480": " com",
  "481": " good",
  "482": " ca",
  "483": "ond",
  "484": "ove",
  "485": "ue",
  "486": "ate",
  "487": " R",
  "488": " man",
  "489": "What",
  "490": "ose",
  "491": "ers",
  "492": "MINIUS",
  "493": "Whe",
  "494": " by",
  "495": "sel",
  "496": "COMINIUS",
  "497": " Marcius",
  "498": "'ll",
  "499": "em",
  "500": "ie",
  "501": "ous",
  "502": " more",
  "503": "ity",
  "504": "ge",
  "505": "ry",
  "506": "um",
  "507": " ne",
  "508": " fa",
  "509": "ant",
  "510": "eak",
  "511": " know",
  "512": "gain",
  "513": "ound",
  "514": "ong",
  "515": " can",
  "516": "'t",
  "517": " hat",
  "518": " if",
  "519": "As",
  "520": "ct",
  "521": "ell",
  "522": " was",
  "523": " thou",
  "524": "MN",
  "525": "UMN",
  "526": "VOL",
  "527": "ost",
  "528": "rom",
  "529": " tr",
  "530": " say",
  "531": " dis",
  "532": " vo",
  "533": "UMNIA",
  "534": "VOLUMNIA",
  "535": "ice",
  "536": " sir",
  "537": " must",
  "538": "CIUS",
  "539": "oun",
  "540": " then",
  "541": " had",
  "542": "ARCIUS",
  "543": " S",
  "544": " en",
  "545": "MARCIUS",
  "546": "ther",
  "547": "ure",
  "548": "ind",
  "549": "art",
  "550": "ices",
  "551": " were",
  "552": " one",
  "553": " speak",
  "554": "ave",
  "555": "fore",
  "556": " make",
  "557": "onour",
  "558": " well",
  "559": "In",
  "560": "Of",
  "561": "With",
  "562": "ear",
  "563": "reat",
  "564": " which",
  "565": "ast",
  "566": "ight",
  "567": " see",
  "568": " pre",
  "569": "ator",
  "570": "ower",
  "571": " A",
  "572": " or",
  "573": "Let",
  "574": "wn",
  "575": " sw",
  "576": "ine",
  "577": " here",
  "578": " cons",
  "579": " upon",
  "580": " Rome",
  "581": "ire",
  "582": "iol",
  "583": " al",
  "584": " war",
  "585": "enator",
  "586": " did",
  "587": " now",
  "588": " when",
  "589": "For",
  "590": " bl",
  "591": "rib",
  "592": " should",
  "593": " let",
  "594": "Be",
  "595": "ile",
  "596": " am",
  "597": " there",
  "598": "ence",
  "599": " power",
  "600": " voices",
  "601": "Your",
  "602": "qu",
  "603": "ven",
  "604": "ough",
  "605": " again",
  "606": "ink",
  "607": " br",
  "608": "ish",
  "609": " from",
  "610": "ard",
  "611": " heart",
  "612": " out",
  "613": "la",
  "614": "oriol",
  "615": " honour",
  "616": "oth",
  "617": " like",
  "618": " thee",
  "619": " mad",
  "620": " give",
  "621": " noble",
  "622": " consul",
  "623": "Than",
  "624": " ar",
  "625": " fo",
  "626": " des",
  "627": "ath",
  "628": "own",
  "629": "Which",
  "630": "ribun",
  "631": "ies",
  "632": " sa",
  "633": " off",
  "634": " thy",
  "635": "other",
  "636": "econd",
  "637": " gods",
  "638": " un",
  "639": "But",
  "640": "ier",
  "641": "mon",
  "642": "os",
  "643": " fri",
  "644": "ark",
  "645": "ation",
  "646": " love",
  "647": "ime",
  "648": " where",
  "649": "ount",
  "650": " T",
  "651": " i",
  "652": "No",
  "653": "de",
  "654": "ep",
  "655": "ip",
  "656": "old",
  "657": "pp",
  "658": " way",
  "659": "ise",
  "660": " come",
  "661": "They",
  "662": " Coriol",
  "663": "self",
  "664": " friend",
  "665": "If",
  "666": "Second",
  "667": "ger",
  "668": "ian",
  "669": " tribun",
  "670": " ab",
  "671": " se",
  "672": " part",
  "673": " too",
  "674": "ather",
  "675": " great",
  "676": " bear",
  "677": " ever",
  "678": "ame",
  "679": "Where",
  "680": "How",
  "681": "ak",
  "682": "ap",
  "683": "not",
  "684": "ock",
  "685": "tis",
  "686": " these",
  "687": " may",
  "688": " yet",
  "689": "orn",
  "690": " ch",
  "691": "atter",
  "692": " worth",
  "693": " hath",
  "694": " Senator",
  "695": ",--",
  "696": "uf",
  "697": "ither",
  "698": "ord",
  "699": "ort",
  "700": " city",
  "701": " fl",
  "702": " po",
  "703": " done",
  "704": " own",
  "705": " gr",
  "706": " la",
  "707": " str",
  "708": "When",
  "709": "are",
  "710": "cc",
  "711": "od",
  "712": "tle",
  "713": " time",
  "714": " most",
  "715": "use",
  "716": "ows",
  "717": " thus",
  "718": "ect",
  "719": " such",
  "720": " common",
  "721": "All",
  "722": "GI",
  "723": "IR",
  "724": "LIA",
  "725": "LAR",
  "726": "TIUS",
  "727": "VIR",
  "728": "all",
  "729": "und",
  "730": " some",
  "731": "ons",
  "732": " home",
  "733": " her",
  "734": "ance",
  "735": "eace",
  "736": "itizens",
  "737": " pres",
  "738": " tribunes",
  "739": "GILIA",
  "740": "LARTIUS",
  "741": "VIRGILIA",
  "742": "It",
  "743": "On",
  "744": "we",
  "745": " wound",
  "746": " been",
  "747": " think",
  "748": " has",
  "749": "Well",
  "750": " cont",
  "751": " cannot",
  "752": "Come",
  "753": "sw",
  "754": "to",
  "755": "ts",
  "756": " ser",
  "757": "ery",
  "758": " count",
  "759": " how",
  "760": " nor",
  "761": " being",
  "762": "ook",
  "763": " stand",
  "764": "idius",
  "765": "urn",
  "766": "This",
  "767": " call",
  "768": "ction",
  "769": " enem",
  "770": " friends",
  "771": "My",
  "772": "Pr",
  "773": "ber",
  "774": "ces",
  "775": "li",
  "776": "ought",
  "777": "inius",
  "778": " mark",
  "779": "lly",
  "780": " cha",
  "781": " pl",
  "782": " put",
  "783": " pri",
  "784": "oman",
  "785": " gra",
  "786": "anus",
  "787": " ex",
  "788": " rem",
  "789": " who",
  "790": "selves",
  "791": "ield",
  "792": " blood",
  "793": " made",
  "794": " arm",
  "795": "ufidius",
  "796": " country",
  "797": " j",
  "798": "be",
  "799": "bl",
  "800": "come",
  "801": "ff",
  "802": "for",
  "803": "ild",
  "804": " take",
  "805": " tong",
  "806": " tell",
  "807": "ren",
  "808": " men",
  "809": " could",
  "810": " fur",
  "811": " other",
  "812": "ings",
  "813": "ady",
  "814": " pray",
  "815": " show",
  "816": " Aufidius",
  "817": " against",
  "818": "swer",
  "819": " V",
  "820": "By",
  "821": "Citizens",
  "822": "Not",
  "823": "ric",
  "824": "sh",
  "825": "the",
  "826": "way",
  "827": " app",
  "828": " she",
  "829": " sen",
  "830": "ree",
  "831": "ved",
  "832": "ates",
  "833": "There",
  "834": " rep",
  "835": "ition",
  "836": "ife",
  "837": " answer",
  "838": " death",
  "839": "Why",
  "840": " many",
  "841": " never",
  "842": "lace",
  "843": " further",
  "844": "Nay",
  "845": "Or",
  "846": "Our",
  "847": "ment",
  "848": "uch",
  "849": "uck",
  "850": " acc",
  "851": "red",
  "852": " mother",
  "853": " ba",
  "854": "ener",
  "855": " per",
  "856": " peace",
  "857": "ominius",
  "858": " gener",
  "859": " beg",
  "860": " bet",
  "861": " before",
  "862": "ird",
  "863": " forth",
  "864": "ool",
  "865": " pro",
  "866": " rather",
  "867": " foll",
  "868": " deser",
  "869": "AL",
  "870": "ERI",
  "871": "VAL",
  "872": "ig",
  "873": "pt",
  "874": "ving",
  "875": " tw",
  "876": "oud",
  "877": " sc",
  "878": " mine",
  "879": " first",
  "880": " thr",
  "881": " those",
  "882": " lit",
  "883": " less",
  "884": " ear",
  "885": "Thou",
  "886": "eech",
  "887": " Roman",
  "888": " Coriolanus",
  "889": " worthy",
  "890": " wounds",
  "891": " general",
  "892": "ERIA",
  "893": "VALERIA",
  "894": " L",
  "895": "Have",
  "896": "eet",
  "897": "ience",
  "898": "lp",
  "899": "ouse",
  "900": " ad",
  "901": " sm",
  "902": " matter",
  "903": " bod",
  "904": " down",
  "905": " gone",
  "906": " hand",
  "907": "eds",
  "908": "uth",
  "909": " Cominius",
  "910": " very",
  "911": "ass",
  "912": "ide",
  "913": "Third",
  "914": " word",
  "915": " any",
  "916": " hate",
  "917": " true",
  "918": " present",
  "919": " little",
  "920": " You",
  "921": ",'",
  "922": "Now",
  "923": "So",
  "924": "Tis",
  "925": "bly",
  "926": "el",
  "927": "ft",
  "928": "fter",
  "929": "ness",
  "930": "tend",
  "931": "ues",
  "932": " ta",
  "933": " son",
  "934": "ince",
  "935": " much",
  "936": " best",
  "937": " both",
  "938": " pat",
  "939": " ple",
  "940": " hum",
  "941": " dr",
  "942": " dou",
  "943": "ceive",
  "944": "ick",
  "945": " state",
  "946": " requ",
  "947": "ols",
  "948": " proud",
  "949": " heard",
  "950": "gainst",
  "951": "ears",
  "952": " sword",
  "953": " alone",
  "954": " Corioli",
  "955": "ians",
  "956": " serv",
  "957": " enemy",
  "958": "Pray",
  "959": " char",
  "960": " Vols",
  "961": "ship",
  "962": " senate",
  "963": " follow",
  "964": " P",
  "965": " ke",
  "966": " ri",
  "967": " He",
  "968": " What",
  "969": "!'",
  "970": "AU",
  "971": "At",
  "972": "DIUS",
  "973": "Ed",
  "974": "FI",
  "975": "Go",
  "976": "His",
  "977": "Will",
  "978": "ase",
  "979": "age",
  "980": "che",
  "981": "eed",
  "982": "get",
  "983": "ike",
  "984": "oves",
  "985": "ten",
  "986": "ud",
  "987": " away",
  "988": " sha",
  "989": " wish",
  "990": "iness",
  "991": " might",
  "992": " bes",
  "993": " bra",
  "994": "itol",
  "995": "ors",
  "996": " cur",
  "997": " nat",
  "998": " old",
  "999": " help",
  "1000": " belly",
  "1001": "Their",
  "1002": " Cap",
  "1003": " ey",
  "1004": " end",
  "1005": " val",
  "1006": "ult",
  "1007": " world",
  "1008": " kind",
  "1009": "Who",
  "1010": " thank",
  "1011": " comp",
  "1012": " cause",
  "1013": " new",
  "1014": " wars",
  "1015": " every",
  "1016": " remain",
  "1017": " tongue",
  "1018": " better",
  "1019": " body",
  "1020": "AUFI",
  "1021": " Capitol",
  "1022": "AUFIDIUS",
  "1023": " J",
  "1024": " ent",
  "1025": " ra",
  "1026": ".'",
  "1027": "Ay",
  "1028": "AEd",
  "1029": "From",
  "1030": "More",
  "1031": "ag",
  "1032": "aius",
  "1033": "able",
  "1034": "fe",
  "1035": "ng",
  "1036": "sol",
  "1037": "tw",
  "1038": "ull",
  "1039": "wh",
  "1040": "ward",
  "1041": "you",
  "1042": "hee",
  "1043": " set",
  "1044": " wife",
  "1045": "itus",
  "1046": "ert",
  "1047": "ist",
  "1048": "ens",
  "1049": " cr",
  "1050": " cour",
  "1051": " chan",
  "1052": " cra",
  "1053": " cry",
  "1054": " find",
  "1055": " fight",
  "1056": " pur",
  "1057": " hour",
  "1058": "irit",
  "1059": " lose",
  "1060": " lord",
  "1061": " look",
  "1062": "icer",
  "1063": " ret",
  "1064": " only",
  "1065": " whose",
  "1066": "Were",
  "1067": " spo",
  "1068": " spirit",
  "1069": "Thy",
  "1070": "Though",
  "1071": " words",
  "1072": " ru",
  "1073": " leave",
  "1074": " disc",
  "1075": " voice",
  "1076": "enators",
  "1077": " therefore",
  "1078": " bring",
  "1079": " honours",
  "1080": " madam",
  "1081": " said",
  "1082": " poor",
  "1083": " Volsces",
  "1084": " keep",
  "1085": " nature",
  "1086": " O",
  "1087": " qu",
  "1088": "Sh",
  "1089": "Shall",
  "1090": "Up",
  "1091": "Was",
  "1092": "bt",
  "1093": "ful",
  "1094": "ied",
  "1095": "igh",
  "1096": "ily",
  "1097": "ious",
  "1098": "king",
  "1099": "les",
  "1100": "lcome",
  "1101": "men",
  "1102": "ob",
  "1103": "per",
  "1104": "place",
  "1105": "ty",
  "1106": "ude",
  "1107": "well",
  "1108": "outh",
  "1109": " after",
  "1110": " mal",
  "1111": " bre",
  "1112": " bus",
  "1113": " bat",
  "1114": " ban",
  "1115": "ite",
  "1116": " ye",
  "1117": "enen",
  "1118": " corn",
  "1119": " fit",
  "1120": " fear",
  "1121": " fought",
  "1122": " fool",
  "1123": " pra",
  "1124": " name",
  "1125": "ush",
  "1126": "led",
  "1127": " gi",
  "1128": " gent",
  "1129": " gates",
  "1130": " har",
  "1131": " into",
  "1132": " yourselves",
  "1133": " Come",
  "1134": " Caius",
  "1135": " still",
  "1136": " el",
  "1137": " rest",
  "1138": " receive",
  "1139": " without",
  "1140": " kn",
  "1141": " deeds",
  "1142": "iles",
  "1143": " comes",
  "1144": " fair",
  "1145": " Sold",
  "1146": " enough",
  "1147": "Off",
  "1148": " hearts",
  "1149": " desire",
  "1150": " Titus",
  "1151": " strong",
  "1152": "under",
  "1153": " market",
  "1154": " report",
  "1155": " two",
  "1156": " beseech",
  "1157": " eyes",
  "1158": "AEdile",
  "1159": " purp",
  "1160": "Upon",
  "1161": "enenius",
  "1162": " Soldier",
  "1163": " H",
  "1164": "Against",
  "1165": "Mess",
  "1166": "Nor",
  "1167": "Sp",
  "1168": "St",
  "1169": "Sir",
  "1170": "Wor",
  "1171": "ach",
  "1172": "dd",
  "1173": "ix",
  "1174": "lf",
  "1175": "less",
  "1176": "oy",
  "1177": "pe",
  "1178": "ple",
  "1179": "ru",
  "1180": "ti",
  "1181": "tun",
  "1182": "vent",
  "1183": " till",
  "1184": "ouch",
  "1185": " sound",
  "1186": "res",
  "1187": " mut",
  "1188": " mock",
  "1189": "ithee",
  "1190": "itude",
  "1191": "iss",
  "1192": "enger",
  "1193": " cl",
  "1194": " came",
  "1195": " fell",
  "1196": " field",
  "1197": " pa",
  "1198": " pass",
  "1199": " house",
  "1200": " day",
  "1201": "atch",
  "1202": " head",
  "1203": " gu",
  "1204": "ang",
  "1205": "anger",
  "1206": " bel",
  "1207": " beat",
  "1208": " thing",
  "1209": " things",
  "1210": " hast",
  "1211": " lay",
  "1212": " loves",
  "1213": "ldier",
  "1214": "ceed",
  "1215": " inc",
  "1216": " yours",
  "1217": "oot",
  "1218": " meet",
  "1219": " soldier",
  "1220": "Here",
  "1221": " work",
  "1222": " prom",
  "1223": "ustom",
  "1224": " lead",
  "1225": " suff",
  "1226": " known",
  "1227": " though",
  "1228": " disp",
  "1229": "artius",
  "1230": " seem",
  "1231": " art",
  "1232": " about",
  "1233": " seen",
  "1234": "akes",
  "1235": " flatter",
  "1236": "One",
  "1237": " content",
  "1238": "form",
  "1239": " Lartius",
  "1240": " doubt",
  "1241": " request",
  "1242": "ches",
  "1243": " banish",
  "1244": " else",
  "1245": "Officer",
  "1246": " purpose",
  "1247": "Messenger",
  "1248": " Officer",
  "1249": "Fare",
  "1250": "Like",
  "1251": "Must",
  "1252": "Re",
  "1253": "ail",
  "1254": "aves",
  "1255": "bs",
  "1256": "bers",
  "1257": "gs",
  "1258": "ged",
  "1259": "ks",
  "1260": "kes",
  "1261": "me",
  "1262": "most",
  "1263": "over",
  "1264": "rue",
  "1265": "sp",
  "1266": "ugh",
  "1267": "will",
  "1268": "your",
  "1269": " tal",
  "1270": " tra",
  "1271": " turn",
  "1272": " action",
  "1273": " sur",
  "1274": " since",
  "1275": " senators",
  "1276": " want",
  "1277": "int",
  "1278": " met",
  "1279": "its",
  "1280": "ison",
  "1281": " cal",
  "1282": " cond",
  "1283": " coun",
  "1284": " fee",
  "1285": " place",
  "1286": " ho",
  "1287": " hold",
  "1288": " nec",
  "1289": " danger",
  "1290": " town",
  "1291": " toget",
  "1292": " gar",
  "1293": " nobl",
  "1294": " become",
  "1295": " thine",
  "1296": " hang",
  "1297": " lady",
  "1298": " inst",
  "1299": " inde",
  "1300": " yourself",
  "1301": "Then",
  "1302": " himself",
  "1303": " stay",
  "1304": " vir",
  "1305": " once",
  "1306": "asure",
  "1307": "ities",
  "1308": "ider",
  "1309": " does",
  "1310": "ions",
  "1311": " why",
  "1312": " used",
  "1313": " prove",
  "1314": " rock",
  "1315": " conf",
  "1316": " Menenius",
  "1317": " dear",
  "1318": " lie",
  "1319": "nown",
  "1320": " attend",
  "1321": " sure",
  "1322": " cap",
  "1323": " truth",
  "1324": "asters",
  "1325": " An",
  "1326": " sweet",
  "1327": "Before",
  "1328": " saw",
  "1329": " Tar",
  "1330": "were",
  "1331": " enemies",
  "1332": " pluck",
  "1333": " grave",
  "1334": " drum",
  "1335": " service",
  "1336": " news",
  "1337": "ertain",
  "1338": " business",
  "1339": " suffer",
  "1340": " trait",
  "1341": " together",
  "1342": " indeed",
  "1343": " G",
  "1344": " We",
  "1345": " For",
  "1346": " They",
  "1347": "Are",
  "1348": "Both",
  "1349": "Do",
  "1350": "Even",
  "1351": "Marcius",
  "1352": "Most",
  "1353": "Would",
  "1354": "Yet",
  "1355": "com",
  "1356": "gn",
  "1357": "honour",
  "1358": "lin",
  "1359": "mer",
  "1360": "mand",
  "1361": "nce",
  "1362": "oice",
  "1363": "rous",
  "1364": "rant",
  "1365": "te",
  "1366": "ught",
  "1367": "vy",
  "1368": "ze",
  "1369": " tre",
  "1370": " tri",
  "1371": " aff",
  "1372": " sing",
  "1373": " sil",
  "1374": " wr",
  "1375": " won",
  "1376": " wall",
  "1377": "ret",
  "1378": " mer",
  "1379": " mind",
  "1380": " mult",
  "1381": " makes",
  "1382": " breat",
  "1383": "ords",
  "1384": " car",
  "1385": " custom",
  "1386": " pers",
  "1387": "ars",
  "1388": "ards",
  "1389": " die",
  "1390": "used",
  "1391": "ats",
  "1392": "omet",
  "1393": " gl",
  "1394": " nobly",
  "1395": " often",
  "1396": " three",
  "1397": " half",
  "1398": " If",
  "1399": " live",
  "1400": " late",
  "1401": " fortun",
  "1402": " store",
  "1403": " stood",
  "1404": " ele",
  "1405": "ries",
  "1406": " mem",
  "1407": " mean",
  "1408": "ease",
  "1409": "thy",
  "1410": " whom",
  "1411": "Hear",
  "1412": " another",
  "1413": " dev",
  "1414": "ility",
  "1415": " care",
  "1416": "ump",
  "1417": "antage",
  "1418": " thought",
  "1419": " warrant",
  "1420": " letter",
  "1421": " loved",
  "1422": " ign",
  "1423": " greater",
  "1424": " law",
  "1425": " lack",
  "1426": " struck",
  "1427": " wounded",
  "1428": "like",
  "1429": " pride",
  "1430": " arms",
  "1431": " tongues",
  "1432": "ricians",
  "1433": "ments",
  "1434": " ears",
  "1435": " right",
  "1436": " return",
  "1437": "Should",
  "1438": " gentle",
  "1439": " mutin",
  "1440": " talk",
  "1441": " dangerous",
  "1442": " virt",
  "1443": " Anti",
  "1444": " traitor",
  "1445": " breath",
  "1446": " ignor",
  "1447": " ve",
  "1448": " est",
  "1449": "Con",
  "1450": "Coriol",
  "1451": "Call",
  "1452": "Cons",
  "1453": "De",
  "1454": "Ere",
  "1455": "Ind",
  "1456": "May",
  "1457": "Peace",
  "1458": "Say",
  "1459": "Take",
  "1460": "True",
  "1461": "ause",
  "1462": "bour",
  "1463": "but",
  "1464": "cy",
  "1465": "cher",
  "1466": "dis",
  "1467": "ef",
  "1468": "ever",
  "1469": "fer",
  "1470": "fect",
  "1471": "gu",
  "1472": "gth",
  "1473": "gry",
  "1474": "hy",
  "1475": "hing",
  "1476": "ient",
  "1477": "iant",
  "1478": "land",
  "1479": "ms",
  "1480": "mit",
  "1481": "no",
  "1482": "ning",
  "1483": "of",
  "1484": "oll",
  "1485": "oke",
  "1486": "pres",
  "1487": "ran",
  "1488": "whe",
  "1489": "ying",
  "1490": " tent",
  "1491": " tears",
  "1492": " touch",
  "1493": "head",
  "1494": " act",
  "1495": " auth",
  "1496": " sent",
  "1497": " sup",
  "1498": " send",
  "1499": " save",
  "1500": " somet",
  "1501": " wond",
  "1502": " wind",
  "1503": "rem",
  "1504": "ins",
  "1505": " min",
  "1506": " mar",
  "1507": " mot",
  "1508": " mouth",
  "1509": " bri",
  "1510": " yield",
  "1511": "orr",
  "1512": "ory",
  "1513": "eny",
  "1514": " citizens",
  "1515": " certain",
  "1516": " four",
  "1517": " fore",
  "1518": " fire",
  "1519": " free",
  "1520": " pard",
  "1521": " hun",
  "1522": " hop",
  "1523": " hither",
  "1524": " none",
  "1525": " num",
  "1526": "ary",
  "1527": " da",
  "1528": " dra",
  "1529": " dec",
  "1530": " doth",
  "1531": " over",
  "1532": " hea",
  "1533": " held",
  "1534": " hence",
  "1535": " got",
  "1536": " noise",
  "1537": "ange",
  "1538": " beh",
  "1539": " thous",
  "1540": " last",
  "1541": " life",
  "1542": "ced",
  "1543": " inform",
  "1544": "sem",
  "1545": "ict",
  "1546": "ute",
  "1547": "ution",
  "1548": " welcome",
  "1549": " stri",
  "1550": " even",
  "1551": " reb",
  "1552": " ready",
  "1553": "ents",
  "1554": " vent",
  "1555": "ash",
  "1556": "ason",
  "1557": "adies",
  "1558": " ask",
  "1559": " themselves",
  "1560": " doing",
  "1561": "olic",
  "1562": "ular",
  "1563": "ults",
  "1564": " prithee",
  "1565": " hearing",
  "1566": "amp",
  "1567": " deli",
  "1568": " lies",
  "1569": " coming",
  "1570": " need",
  "1571": " neither",
  "1572": " fare",
  "1573": " faults",
  "1574": " says",
  "1575": " dist",
  "1576": " dishonour",
  "1577": " speaks",
  "1578": " swords",
  "1579": " blows",
  "1580": "Being",
  "1581": " among",
  "1582": "lag",
  "1583": " unb",
  "1584": " unto",
  "1585": "oss",
  "1586": "ations",
  "1587": " wherein",
  "1588": "Noble",
  "1589": " party",
  "1590": " child",
  "1591": " choice",
  "1592": " point",
  "1593": " poison",
  "1594": " grat",
  "1595": " grant",
  "1596": " contem",
  "1597": " serve",
  "1598": " stands",
  "1599": " remem",
  "1600": " army",
  "1601": " joy",
  "1602": "ildly",
  "1603": "rician",
  "1604": " appear",
  "1605": "Therefore",
  "1606": " back",
  "1607": " begg",
  "1608": " proceed",
  "1609": " deserve",
  "1610": " deserved",
  "1611": "ign",
  "1612": " through",
  "1613": " adv",
  "1614": " hands",
  "1615": " patricians",
  "1616": " human",
  "1617": " charge",
  "1618": " valiant",
  "1619": " Jove",
  "1620": " rage",
  "1621": " received",
  "1622": "Speak",
  "1623": "Worthy",
  "1624": "peian",
  "1625": " promise",
  "1626": " dispos",
  "1627": " calm",
  "1628": " Tarpeian",
  "1629": " affect",
  "1630": " walls",
  "1631": "retch",
  "1632": " person",
  "1633": " members",
  "1634": "Indeed",
  "1635": "press",
  "1636": " author",
  "1637": " thousand",
  "1638": " ut",
  "1639": " The",
  "1640": " When",
  "1641": " und",
  "1642": " This",
  "1643": " By",
  "1644": " Thou",
  "1645": " under",
  "1646": "An",
  "1647": "Bid",
  "1648": "Bec",
  "1649": "Des",
  "1650": "En",
  "1651": "Give",
  "1652": "Ha",
  "1653": "Her",
  "1654": "Hath",
  "1655": "Is",
  "1656": "Look",
  "1657": "Make",
  "1658": "Put",
  "1659": "Rep",
  "1660": "Sc",
  "1661": "See",
  "1662": "ac",
  "1663": "abl",
  "1664": "by",
  "1665": "bed",
  "1666": "band",
  "1667": "bility",
  "1668": "coun",
  "1669": "cious",
  "1670": "dain",
  "1671": "ees",
  "1672": "ges",
  "1673": "hink",
  "1674": "house",
  "1675": "ject",
  "1676": "ls",
  "1677": "ling",
  "1678": "lain",
  "1679": "man",
  "1680": "miss",
  "1681": "night",
  "1682": "og",
  "1683": "okes",
  "1684": "pin",
  "1685": "rs",
  "1686": "so",
  "1687": "sing",
  "1688": "sic",
  "1689": "shall",
  "1690": "sue",
  "1691": "sence",
  "1692": "sist",
  "1693": "ting",
  "1694": "ted",
  "1695": "tent",
  "1696": "ties",
  "1697": "ully",
  "1698": "ubl",
  "1699": " tim",
  "1700": " tem",
  "1701": "hest",
  "1702": "held",
  "1703": " sl",
  "1704": " sou",
  "1705": " sit",
  "1706": " side",
  "1707": " south",
  "1708": " wit",
  "1709": " wis",
  "1710": "rees",
  "1711": "rest",
  "1712": "reed",
  "1713": "har",
  "1714": " mon",
  "1715": " mile",
  "1716": " mod",
  "1717": " masters",
  "1718": " bu",
  "1719": " bar",
  "1720": " ble",
  "1721": "nder",
  "1722": "nded",
  "1723": " years",
  "1724": "esome",
  "1725": "ench",
  "1726": " cow",
  "1727": " far",
  "1728": " father",
  "1729": " foot",
  "1730": " pet",
  "1731": " phy",
  "1732": " hus",
  "1733": " host",
  "1734": " hund",
  "1735": " high",
  "1736": " di",
  "1737": " oak",
  "1738": " obe",
  "1739": "ating",
  "1740": "atrician",
  "1741": "leep",
  "1742": " get",
  "1743": " nobility",
  "1744": "any",
  "1745": " beheld",
  "1746": " thither",
  "1747": " thunder",
  "1748": " long",
  "1749": " ladies",
  "1750": "sell",
  "1751": "icious",
  "1752": "utus",
  "1753": " weal",
  "1754": " weep",
  "1755": "eter",
  "1756": " forget",
  "1757": " former",
  "1758": "oof",
  "1759": " itself",
  "1760": " stra",
  "1761": " steed",
  "1762": " em",
  "1763": " ere",
  "1764": " eat",
  "1765": " eas",
  "1766": " each",
  "1767": " rev",
  "1768": "otten",
  "1769": " myself",
  "1770": " vis",
  "1771": " viol",
  "1772": "ury",
  "1773": "oler",
  "1774": "olesome",
  "1775": "rain",
  "1776": " theirs",
  "1777": " ourselves",
  "1778": " use",
  "1779": " worship",
  "1780": " rotten",
  "1781": " anc",
  "1782": " left",
  "1783": " whether",
  "1784": " My",
  "1785": "amb",
  "1786": " def",
  "1787": " lip",
  "1788": " liber",
  "1789": "ils",
  "1790": " sub",
  "1791": " succ",
  "1792": " sudd",
  "1793": "ieve",
  "1794": " fall",
  "1795": " face",
  "1796": " faces",
  "1797": " fault",
  "1798": "ctor",
  "1799": " trust",
  "1800": " trump",
  "1801": " disdain",
  "1802": " envy",
  "1803": "ured",
  "1804": "Within",
  "1805": "ired",
  "1806": " along",
  "1807": " almost",
  "1808": " brought",
  "1809": " desp",
  "1810": "ribunes",
  "1811": " safe",
  "1812": " offic",
  "1813": " tribune",
  "1814": " absence",
  "1815": " flat",
  "1816": " laugh",
  "1817": " strange",
  "1818": " strokes",
  "1819": "Only",
  "1820": "ween",
  "1821": " contr",
  "1822": " price",
  "1823": " ext",
  "1824": " whole",
  "1825": " bloody",
  "1826": " jud",
  "1827": "beians",
  "1828": "force",
  "1829": " appr",
  "1830": " accus",
  "1831": " account",
  "1832": " begin",
  "1833": " between",
  "1834": " scorn",
  "1835": " earn",
  "1836": " Romans",
  "1837": " patience",
  "1838": " pleas",
  "1839": " Patrician",
  "1840": " shake",
  "1841": " curse",
  "1842": " valour",
  "1843": "solved",
  "1844": "twas",
  "1845": "ullus",
  "1846": " course",
  "1847": " chance",
  "1848": " change",
  "1849": " spoke",
  "1850": " ruin",
  "1851": " break",
  "1852": " battle",
  "1853": " praise",
  "1854": " harm",
  "1855": "ruction",
  "1856": " fellow",
  "1857": " guard",
  "1858": "Farewell",
  "1859": " neck",
  "1860": " garland",
  "1861": " drums",
  "1862": " multitude",
  "1863": " carry",
  "1864": " glad",
  "1865": " fortune",
  "1866": " virtue",
  "1867": "Coriolanus",
  "1868": "Consider",
  "1869": " motion",
  "1870": " brief",
  "1871": " hope",
  "1872": " heaven",
  "1873": " deliver",
  "1874": " farewell",
  "1875": " remember",
  "1876": "counter",
  "1877": " modest",
  "1878": " physic",
  "1879": " husband",
  "1880": " hundred",
  "1881": " obey",
  "1882": " straight",
  "1883": " violent",
  "1884": " success",
  "1885": " sudden",
  "1886": " B",
  "1887": " Y",
  "1888": " im",
  "1889": " ill",
  "1890": " id",
  "1891": " To",
  "1892": " Let",
  "1893": " Your",
  "1894": " Pr",
  "1895": " Nay",
  "1896": " Therefore",
  "1897": "'re",
  "1898": "Away",
  "1899": "Amen",
  "1900": "Bes",
  "1901": "Did",
  "1902": "Down",
  "1903": "Four",
  "1904": "Good",
  "1905": "Has",
  "1906": "Had",
  "1907": "Hence",
  "1908": "Hark",
  "1909": "Know",
  "1910": "Lest",
  "1911": "Met",
  "1912": "Mark",
  "1913": "Masters",
  "1914": "Rather",
  "1915": "Se",
  "1916": "Some",
  "1917": "Senators",
  "1918": "Un",
  "1919": "aw",
  "1920": "air",
  "1921": "bble",
  "1922": "cri",
  "1923": "cal",
  "1924": "dom",
  "1925": "fa",
  "1926": "fl",
  "1927": "gg",
  "1928": "gment",
  "1929": "him",
  "1930": "ia",
  "1931": "ior",
  "1932": "iers",
  "1933": "known",
  "1934": "med",
  "1935": "mend",
  "1936": "oon",
  "1937": "pr",
  "1938": "ped",
  "1939": "que",
  "1940": "rat",
  "1941": "rate",
  "1942": "rown",
  "1943": "sc",
  "1944": "ses",
  "1945": "that",
  "1946": "tles",
  "1947": "vour",
  "1948": "vail",
  "1949": "yond",
  "1950": " try",
  "1951": " tren",
  "1952": "hes",
  "1953": " air",
  "1954": " aid",
  "1955": " awh",
  "1956": " aught",
  "1957": " soo",
  "1958": " sch",
  "1959": " sight",
  "1960": " sla",
  "1961": " second",
  "1962": " same",
  "1963": " sleep",
  "1964": " wa",
  "1965": " win",
  "1966": " wom",
  "1967": " wore",
  "1968": " woman",
  "1969": "read",
  "1970": "ready",
  "1971": "have",
  "1972": "ined",
  "1973": " mis",
  "1974": " mid",
  "1975": " mag",
  "1976": " mildly",
  "1977": " moon",
  "1978": " bad",
  "1979": " burn",
  "1980": "iter",
  "1981": "itation",
  "1982": "itable",
  "1983": "onest",
  "1984": "erves",
  "1985": " yes",
  "1986": " yea",
  "1987": "orse",
  "1988": "ises",
  "1989": "ised",
  "1990": " cat",
  "1991": " cens",
  "1992": " fly",
  "1993": " fra",
  "1994": " fam",
  "1995": " found",
  "1996": " fine",
  "1997": " fier",
  "1998": " fame",
  "1999": " full",
  "2000": " fully",
  "2001": " pow",
  "2002": " pot",
  "2003": " pal",
  "2004": " pop",
  "2005": " pity",
  "2006": " past",
  "2007": " plag",
  "2008": " publ",
  "2009": " hur",
  "2010": " hire",
  "2011": " hors",
  "2012": " honest",
  "2013": " horse",
  "2014": "arn",
  "2015": " dea",
  "2016": " dest",
  "2017": " dust",
  "2018": " dam",
  "2019": " dire",
  "2020": " deny",
  "2021": " deter",
  "2022": " toe",
  "2023": " told",
  "2024": " opp",
  "2025": " owe",
  "2026": "vere",
  "2027": " heel",
  "2028": "lean",
  "2029": " gave",
  "2030": " gown",
  "2031": "ank",
  "2032": " bed",
  "2033": " beast",
  "2034": " haz",
  "2035": " lo",
  "2036": " len",
  "2037": " lim",
  "2038": " lamb",
  "2039": "ster",
  "2040": "ingly",
  "2041": " inter",
  "2042": " insol",
  "2043": "ims",
  "2044": "imation",
  "2045": "sely",
  "2046": "icul",
  "2047": "icinius",
  "2048": " weap",
  "2049": "ets",
  "2050": " force",
  "2051": "oop",
  "2052": " stir",
  "2053": " stren",
  "2054": " stamp",
  "2055": " stretch",
  "2056": " ree",
  "2057": " rel",
  "2058": " reven",
  "2059": " resp",
  "2060": " renown",
  "2061": " resolved",
  "2062": "right",
  "2063": " issue",
  "2064": "enty",
  "2065": " ven",
  "2066": " vie",
  "2067": " vantage",
  "2068": "ask",
  "2069": "ides",
  "2070": " ass",
  "2071": " assem",
  "2072": " dogs",
  "2073": "ural",
  "2074": " ours",
  "2075": "thing",
  "2076": "though",
  "2077": "opp",
  "2078": " wholesome",
  "2079": " soft",
  "2080": " spend",
  "2081": " speech",
  "2082": "Thus",
  "2083": "Those",
  "2084": "Think",
  "2085": "ift",
  "2086": "ifest",
  "2087": " worse",
  "2088": "upiter",
  "2089": " ro",
  "2090": " run",
  "2091": " rich",
  "2092": " shut",
  "2093": " shun",
  "2094": " shout",
  "2095": " shield",
  "2096": " anger",
  "2097": " angry",
  "2098": "ustice",
  "2099": "eep",
  "2100": " goes",
  "2101": " dep",
  "2102": " demand",
  "2103": " light",
  "2104": " lives",
  "2105": "ilt",
  "2106": " command",
  "2107": "oved",
  "2108": "ief",
  "2109": "ume",
  "2110": " fast",
  "2111": "antly",
  "2112": "cted",
  "2113": "ellion",
  "2114": " wash",
  "2115": " trad",
  "2116": " troth",
  "2117": " disease",
  "2118": "ounce",
  "2119": " thence",
  "2120": " seek",
  "2121": " prep",
  "2122": " sworn",
  "2123": " consent",
  "2124": " alike",
  "2125": " already",
  "2126": "Bel",
  "2127": "quin",
  "2128": " brow",
  "2129": "laim",
  "2130": " foe",
  "2131": " folly",
  "2132": " office",
  "2133": "osper",
  "2134": " abh",
  "2135": " abund",
  "2136": " absol",
  "2137": " seven",
  "2138": " parties",
  "2139": " took",
  "2140": " bearing",
  "2141": "aked",
  "2142": " chose",
  "2143": " choler",
  "2144": "uff",
  "2145": " fliers",
  "2146": " ground",
  "2147": " labour",
  "2148": "ared",
  "2149": "ected",
  "2150": "ally",
  "2151": " herd",
  "2152": " press",
  "2153": "lied",
  "2154": " marks",
  "2155": " plot",
  "2156": " priv",
  "2157": " grain",
  "2158": " gracious",
  "2159": " express",
  "2160": " justice",
  "2161": "rent",
  "2162": " others",
  "2163": "there",
  "2164": " base",
  "2165": " perceive",
  "2166": " perform",
  "2167": " prof",
  "2168": " follows",
  "2169": " twenty",
  "2170": " throw",
  "2171": "eeth",
  "2172": " smile",
  "2173": " plebeians",
  "2174": " humble",
  "2175": " double",
  "2176": " services",
  "2177": " Hector",
  "2178": " brain",
  "2179": " brace",
  "2180": " helps",
  "2181": " complain",
  "2182": " company",
  "2183": " remains",
  "2184": " Jupiter",
  "2185": " enter",
  "2186": "feit",
  "2187": "which",
  "2188": " crave",
  "2189": " crack",
  "2190": " looks",
  "2191": " retire",
  "2192": " spoil",
  "2193": " discover",
  "2194": "obation",
  "2195": " malice",
  "2196": " malicious",
  "2197": " breast",
  "2198": " battles",
  "2199": " fools",
  "2200": " praises",
  "2201": " given",
  "2202": " knee",
  "2203": " knaves",
  "2204": "Stand",
  "2205": " heads",
  "2206": " below",
  "2207": " leads",
  "2208": " dispatch",
  "2209": "overs",
  "2210": "ughter",
  "2211": " condu",
  "2212": " condition",
  "2213": " counsel",
  "2214": " feel",
  "2215": " nobler",
  "2216": " nobles",
  "2217": " proved",
  "2218": " dearth",
  "2219": " caps",
  "2220": "comes",
  "2221": " single",
  "2222": " silence",
  "2223": " wrath",
  "2224": " wont",
  "2225": " merit",
  "2226": " election",
  "2227": " means",
  "2228": " devise",
  "2229": " mutinous",
  "2230": " Antium",
  "2231": " Antiates",
  "2232": " ignorant",
  "2233": " ignorance",
  "2234": "Death",
  "2235": " something",
  "2236": " wondrous",
  "2237": " mouths",
  "2238": " pardon",
  "2239": " number",
  "2240": " daughter",
  "2241": " behind",
  "2242": " strike",
  "2243": " rebellion",
  "2244": " distrib",
  "2245": " children",
  "2246": " gratis",
  "2247": " granted",
  "2248": " contempt",
  "2249": " advance",
  "2250": " authority",
  "2251": "Because",
  "2252": "hinks",
  "2253": "pinion",
  "2254": " times",
  "2255": " temper",
  "2256": " soul",
  "2257": " wisdom",
  "2258": " monster",
  "2259": " buy",
  "2260": " coward",
  "2261": " easy",
  "2262": " visit",
  "2263": " worships",
  "2264": " ancient",
  "2265": " defend",
  "2266": " liberties",
  "2267": " officers",
  "2268": " extrem",
  "2269": " judgment",
  "2270": " pleased",
  "2271": "Fourth",
  "2272": "Methinks",
  "2273": " trenches",
  "2274": " awhile",
  "2275": " school",
  "2276": " slaves",
  "2277": " magist",
  "2278": " popular",
  "2279": " public",
  "2280": " direct",
  "2281": " determ",
  "2282": " heels",
  "2283": " insolence",
  "2284": " weapons",
  "2285": " strength",
  "2286": " revenge",
  "2287": " renowned",
  "2288": " view",
  "2289": " absolute",
  "2290": "  ",
  "2291": " &",
  "2292": " F",
  "2293": " N",
  "2294": " ing",
  "2295": " ed",
  "2296": " But",
  "2297": " How",
  "2298": " Well",
  "2299": " ought",
  "2300": " Pray",
  "2301": " His",
  "2302": " Will",
  "2303": " Yet",
  "2304": " De",
  "2305": ";'",
  "2306": "?--",
  "2307": "Ab",
  "2308": "App",
  "2309": "Br",
  "2310": "Bet",
  "2311": "Ch",
  "2312": "Com",
  "2313": "Can",
  "2314": "Could",
  "2315": "Cond",
  "2316": "Cominius",
  "2317": "Dis",
  "2318": "Ever",
  "2319": "Either",
  "2320": "Fie",
  "2321": "Foll",
  "2322": "Gi",
  "2323": "Get",
  "2324": "Hal",
  "2325": "Honour",
  "2326": "ITUS",
  "2327": "Le",
  "2328": "Lay",
  "2329": "Lea",
  "2330": "Man",
  "2331": "Mad",
  "2332": "Menenius",
  "2333": "Pat",
  "2334": "Res",
  "2335": "Ret",
  "2336": "Sha",
  "2337": "Set",
  "2338": "Such",
  "2339": "Since",
  "2340": "Six",
  "2341": "Sicinius",
  "2342": "Tw",
  "2343": "Too",
  "2344": "Twere",
  "2345": "Tribunes",
  "2346": "Tullus",
  "2347": "TITUS",
  "2348": "Under",
  "2349": "Very",
  "2350": "Yield",
  "2351": "ald",
  "2352": "awn",
  "2353": "after",
  "2354": "aze",
  "2355": "bar",
  "2356": "bid",
  "2357": "bra",
  "2358": "bound",
  "2359": "bric",
  "2360": "con",
  "2361": "car",
  "2362": "cus",
  "2363": "cing",
  "2364": "cip",
  "2365": "cons",
  "2366": "cience",
  "2367": "cause",
  "2368": "do",
  "2369": "den",
  "2370": "dra",
  "2371": "dec",
  "2372": "dition",
  "2373": "eb",
  "2374": "ere",
  "2375": "eat",
  "2376": "eal",
  "2377": "fus",
  "2378": "fir",
  "2379": "fly",
  "2380": "fice",
  "2381": "fort",
  "2382": "foot",
  "2383": "gar",
  "2384": "gra",
  "2385": "good",
  "2386": "ial",
  "2387": "iest",
  "2388": "ible",
  "2389": "ives",
  "2390": "iber",
  "2391": "ize",
  "2392": "ially",
  "2393": "ken",
  "2394": "lm",
  "2395": "lt",
  "2396": "ler",
  "2397": "lar",
  "2398": "lam",
  "2399": "lier",
  "2400": "loves",
  "2401": "liness",
  "2402": "ma",
  "2403": "more",
  "2404": "mal",
  "2405": "mity",
  "2406": "mock",
  "2407": "ner",
  "2408": "nic",
  "2409": "net",
  "2410": "ners",
  "2411": "oa",
  "2412": "oc",
  "2413": "occ",
  "2414": "oceed",
  "2415": "oats",
  "2416": "oils",
  "2417": "pl",
  "2418": "po",
  "2419": "pes",
  "2420": "pen",
  "2421": "part",
  "2422": "port",
  "2423": "pts",
  "2424": "ror",
  "2425": "rup",
  "2426": "rum",
  "2427": "rons",
  "2428": "rates",
  "2429": "su",
  "2430": "sion",
  "2431": "since",
  "2432": "tong",
  "2433": "tty",
  "2434": "twere",
  "2435": "ub",
  "2436": "uke",
  "2437": "uri",
  "2438": "uous",
  "2439": "uity",
  "2440": "ubs",
  "2441": "uced",
  "2442": "vin",
  "2443": "vest",
  "2444": "vide",
  "2445": "vied",
  "2446": "ws",
  "2447": "with",
  "2448": "wise",
  "2449": "wards",
  "2450": "yll",
  "2451": "yran",
  "2452": " ter",
  "2453": " ten",
  "2454": " tea",
  "2455": " treat",
  "2456": " tast",
  "2457": " teeth",
  "2458": "ouble",
  "2459": "oured",
  "2460": " ag",
  "2461": " aw",
  "2462": " aed",
  "2463": " aud",
  "2464": " sin",
  "2465": " sore",
  "2466": " sal",
  "2467": " sun",
  "2468": " sea",
  "2469": " sake",
  "2470": " sell",
  "2471": " sink",
  "2472": " sons",
  "2473": " sick",
  "2474": " six",
  "2475": " syll",
  "2476": " wat",
  "2477": " woo",
  "2478": " wid",
  "2479": " west",
  "2480": " wave",
  "2481": " wine",
  "2482": " wild",
  "2483": " wits",
  "2484": " wretch",
  "2485": " wilt",
  "2486": "rer",
  "2487": "rehe",
  "2488": "reak",
  "2489": "rease",
  "2490": "rers",
  "2491": "inu",
  "2492": "inds",
  "2493": " ma",
  "2494": " mir",
  "2495": " ming",
  "2496": " mill",
  "2497": " mul",
  "2498": " mount",
  "2499": " bon",
  "2500": " bas",
  "2501": " band",
  "2502": " bound",
  "2503": " bold",
  "2504": " born",
  "2505": " bred",
  "2506": " big",
  "2507": " bud",
  "2508": " boy",
  "2509": " biss",
  "2510": " bench",
  "2511": "ital",
  "2512": "itch",
  "2513": "once",
  "2514": "onounce",
  "2515": "erc",
  "2516": "erv",
  "2517": "erve",
  "2518": "erved",
  "2519": "erwhe",
  "2520": "erfl",
  "2521": "eria",
  "2522": " yond",
  "2523": "orous",
  "2524": "ising",
  "2525": "ister",
  "2526": "ene",
  "2527": "eness",
  "2528": "ency",
  "2529": " co",
  "2530": " che",
  "2531": " cor",
  "2532": " cut",
  "2533": " col",
  "2534": " cup",
  "2535": " cove",
  "2536": " cure",
  "2537": " chee",
  "2538": " catch",
  "2539": " cease",
  "2540": " camp",
  "2541": " clean",
  "2542": " claim",
  "2543": " fan",
  "2544": " fill",
  "2545": " fal",
  "2546": " five",
  "2547": " fie",
  "2548": " file",
  "2549": " fears",
  "2550": " fash",
  "2551": " freed",
  "2552": " frown",
  "2553": " finds",
  "2554": " young",
  "2555": " par",
  "2556": " pay",
  "2557": " poo",
  "2558": " pain",
  "2559": " pie",
  "2560": " pound",
  "2561": " port",
  "2562": " polic",
  "2563": " poss",
  "2564": " puff",
  "2565": " horn",
  "2566": " hig",
  "2567": " hide",
  "2568": " nour",
  "2569": " net",
  "2570": " nam",
  "2571": " night",
  "2572": " nap",
  "2573": " naked",
  "2574": "aring",
  "2575": " din",
  "2576": " dri",
  "2577": " dark",
  "2578": " dare",
  "2579": " dig",
  "2580": " toward",
  "2581": " ost",
  "2582": " odd",
  "2583": " ope",
  "2584": " obed",
  "2585": " opinion",
  "2586": "ushes",
  "2587": "ative",
  "2588": " hell",
  "2589": " heal",
  "2590": " heap",
  "2591": "lew",
  "2592": "lease",
  "2593": " gul",
  "2594": " gate",
  "2595": " gees",
  "2596": "ansp",
  "2597": " beard",
  "2598": " beyond",
  "2599": " oft",
  "2600": "owest",
  "2601": " thri",
  "2602": " hail",
  "2603": " having",
  "2604": " Is",
  "2605": " lun",
  "2606": " lock",
  "2607": " list",
  "2608": " loss",
  "2609": " lift",
  "2610": " lowest",
  "2611": "strous",
  "2612": "inger",
  "2613": "lders",
  "2614": " ind",
  "2615": " inj",
  "2616": " ins",
  "2617": " inher",
  "2618": " intend",
  "2619": " infect",
  "2620": "ourn",
  "2621": "iment",
  "2622": "aying",
  "2623": "icts",
  "2624": "utch",
  "2625": " weeds",
  "2626": "etite",
  "2627": " note",
  "2628": " nothing",
  "2629": "These",
  "2630": " form",
  "2631": " fort",
  "2632": " forbid",
  "2633": "oose",
  "2634": " stre",
  "2635": " stat",
  "2636": " stif",
  "2637": " stout",
  "2638": " stem",
  "2639": " ev",
  "2640": " east",
  "2641": " equ",
  "2642": " either",
  "2643": " elders",
  "2644": " red",
  "2645": " rej",
  "2646": " rein",
  "2647": " recom",
  "2648": " reason",
  "2649": " resist",
  "2650": " render",
  "2651": " revere",
  "2652": "riors",
  "2653": " within",
  "2654": "ote",
  "2655": "illing",
  "2656": " vol",
  "2657": " vul",
  "2658": " vile",
  "2659": " vip",
  "2660": " vouch",
  "2661": " ones",
  "2662": "ascal",
  "2663": "itions",
  "2664": "add",
  "2665": "adv",
  "2666": "aded",
  "2667": "ided",
  "2668": "aleria",
  "2669": " aside",
  "2670": " asking",
  "2671": "chy",
  "2672": " dozen",
  "2673": " doors",
  "2674": "ram",
  "2675": " while",
  "2676": " soon",
  "2677": "Help",
  "2678": "Welcome",
  "2679": " spr",
  "2680": " spare",
  "2681": " spect",
  "2682": "Three",
  "2683": "vers",
  "2684": "versely",
  "2685": "ulation",
  "2686": " worn",
  "2687": " worst",
  "2688": "essors",
  "2689": "ests",
  "2690": " prosper",
  "2691": " pronounce",
  "2692": "upt",
  "2693": " wills",
  "2694": " rum",
  "2695": " rough",
  "2696": " rob",
  "2697": " root",
  "2698": " rats",
  "2699": " rushes",
  "2700": " rascal",
  "2701": "ecution",
  "2702": "ecially",
  "2703": " short",
  "2704": " shows",
  "2705": " lean",
  "2706": " least",
  "2707": " leaves",
  "2708": " legs",
  "2709": " learn",
  "2710": " god",
  "2711": " going",
  "2712": "--'",
  "2713": " wheel",
  "2714": " perem",
  "2715": " Citizens",
  "2716": " deb",
  "2717": " deed",
  "2718": " dead",
  "2719": "Whom",
  "2720": "While",
  "2721": "Whither",
  "2722": " suit",
  "2723": " suck",
  "2724": " sugg",
  "2725": " comfort",
  "2726": " cast",
  "2727": " cares",
  "2728": " caught",
  "2729": "uel",
  "2730": "ately",
  "2731": " Rather",
  "2732": " manifest",
  "2733": " manner",
  "2734": "Whether",
  "2735": "ieu",
  "2736": "ieved",
  "2737": "geance",
  "2738": " near",
  "2739": " fawn",
  "2740": " favour",
  "2741": " fabric",
  "2742": " knowled",
  "2743": " canon",
  "2744": " hated",
  "2745": " hatred",
  "2746": "ctise",
  "2747": "osture",
  "2748": " trouble",
  "2749": " transp",
  "2750": " saying",
  "2751": " encounter",
  "2752": "ures",
  "2753": "arts",
  "2754": "Into",
  "2755": "aster",
  "2756": " seeing",
  "2757": " seeking",
  "2758": " prevail",
  "2759": " precip",
  "2760": " predec",
  "2761": " pretty",
  "2762": " sway",
  "2763": " swear",
  "2764": " sweat",
  "2765": " hereafter",
  "2766": " consider",
  "2767": " alway",
  "2768": " alms",
  "2769": " warm",
  "2770": " warriors",
  "2771": " whence",
  "2772": " blush",
  "2773": " lets",
  "2774": " amen",
  "2775": " bran",
  "2776": " brother",
  "2777": " brows",
  "2778": " heartily",
  "2779": " outd",
  "2780": " outward",
  "2781": "othing",
  "2782": " consulship",
  "2783": " fox",
  "2784": " foes",
  "2785": " sacri",
  "2786": " offices",
  "2787": " officer",
  "2788": "iercing",
  "2789": "monstrous",
  "2790": "osen",
  "2791": "osers",
  "2792": "osition",
  "2793": " Tr",
  "2794": " Tribunes",
  "2795": " Tullus",
  "2796": "olding",
  "2797": " sever",
  "2798": " parts",
  "2799": " partic",
  "2800": " partly",
  "2801": " bears",
  "2802": " beards",
  "2803": "Wherein",
  "2804": "aking",
  "2805": " chief",
  "2806": " choose",
  "2807": " chosen",
  "2808": " worthier",
  "2809": " worthily",
  "2810": " worthiest",
  "2811": "uffer",
  "2812": "ortal",
  "2813": " poll",
  "2814": " grow",
  "2815": " grows",
  "2816": "tled",
  "2817": " commons",
  "2818": "Prithee",
  "2819": " play",
  "2820": " plain",
  "2821": " puts",
  "2822": " putting",
  "2823": " prize",
  "2824": " priests",
  "2825": " exam",
  "2826": " exile",
  "2827": " execution",
  "2828": "rench",
  "2829": " prayers",
  "2830": " showing",
  "2831": " Valeria",
  "2832": "Note",
  "2833": "they",
  "2834": " apprehe",
  "2835": " appetite",
  "2836": " shed",
  "2837": " sens",
  "2838": "reece",
  "2839": " repeal",
  "2840": " accused",
  "2841": " bald",
  "2842": " peril",
  "2843": " perish",
  "2844": " proc",
  "2845": " desert",
  "2846": " deserves",
  "2847": "ptory",
  "2848": " scar",
  "2849": " throng",
  "2850": " lesser",
  "2851": " earth",
  "2852": "eeting",
  "2853": " addition",
  "2854": " adieu",
  "2855": " small",
  "2856": " smiles",
  "2857": "asses",
  "2858": " presently",
  "2859": " tale",
  "2860": " taun",
  "2861": " bestow",
  "2862": " please",
  "2863": " humility",
  "2864": " drop",
  "2865": "icks",
  "2866": " require",
  "2867": " servant",
  "2868": " charter",
  "2869": " charged",
  "2870": " Volsce",
  "2871": " followed",
  "2872": " Please",
  "2873": " rid",
  "2874": "Attend",
  "2875": "ched",
  "2876": " shame",
  "2877": " brave",
  "2878": " curs",
  "2879": " eye",
  "2880": " value",
  "2881": " kindle",
  "2882": " kindly",
  "2883": " Jun",
  "2884": " entreat",
  "2885": " rabble",
  "2886": "ages",
  "2887": "feits",
  "2888": "twould",
  "2889": "twix",
  "2890": "ensed",
  "2891": " crush",
  "2892": " cruel",
  "2893": " court",
  "2894": " courage",
  "2895": " craves",
  "2896": " hours",
  "2897": " rub",
  "2898": " rule",
  "2899": " ruled",
  "2900": " dischar",
  "2901": " quar",
  "2902": " quick",
  "2903": "Show",
  "2904": " malign",
  "2905": " bats",
  "2906": " practise",
  "2907": "ushions",
  "2908": " gives",
  "2909": " giving",
  "2910": " gentry",
  "2911": " hard",
  "2912": " restrain",
  "2913": " knees",
  "2914": " Hoo",
  "2915": "Still",
  "2916": "Worse",
  "2917": "please",
  "2918": "pleasure",
  "2919": "tune",
  "2920": "vention",
  "2921": " sounds",
  "2922": " clubs",
  "2923": " fellows",
  "2924": " pale",
  "2925": " pace",
  "2926": " pack",
  "2927": " guess",
  "2928": " believe",
  "2929": " beloved",
  "2930": " inclin",
  "2931": " increase",
  "2932": " incensed",
  "2933": " prompt",
  "2934": " leaden",
  "2935": " actions",
  "2936": " surfeits",
  "2937": " wants",
  "2938": " counter",
  "2939": " counsell",
  "2940": " holy",
  "2941": " holding",
  "2942": " necess",
  "2943": " garments",
  "2944": " hangmen",
  "2945": " ladyship",
  "2946": " instruction",
  "2947": " instrum",
  "2948": " confess",
  "2949": " Tarquin",
  "2950": " suffering",
  "2951": " God",
  "2952": " Greece",
  "2953": " Welcome",
  "2954": "lines",
  "2955": "terers",
  "2956": " tread",
  "2957": " treasure",
  "2958": " mercy",
  "2959": " fortunes",
  "2960": " stored",
  "2961": " devour",
  "2962": " lawful",
  "2963": " breaths",
  "2964": " vex",
  "2965": " veil",
  "2966": " estimation",
  "2967": "guard",
  "2968": "noon",
  "2969": "where",
  "2970": " sentence",
  "2971": " superfl",
  "2972": " sometime",
  "2973": " wonder",
  "2974": " minister",
  "2975": " march",
  "2976": " forehead",
  "2977": " fires",
  "2978": " pardons",
  "2979": " hunt",
  "2980": " hunger",
  "2981": " numbers",
  "2982": " daily",
  "2983": " draw",
  "2984": " declines",
  "2985": "semble",
  "2986": " rebuke",
  "2987": " venture",
  "2988": " distin",
  "2989": " advantage",
  "2990": " humane",
  "2991": " disposition",
  "2992": " dispositions",
  "2993": " affections",
  "2994": " authorities",
  "2995": " utter",
  "2996": " utmost",
  "2997": " undone",
  "2998": "Deserves",
  "2999": "Enforce",
  "3000": "Having",
  "3001": "Herald",
  "3002": "Repent",
  "3003": "Repair",
  "3004": "acles",
  "3005": "ables",
  "3006": " slave",
  "3007": " bleed",
  "3008": " petition",
  "3009": " petty",
  "3010": " emulation",
  "3011": " revol",
  "3012": " revoke",
  "3013": " lips",
  "3014": " trumpets",
  "3015": " despite",
  "3016": " flatterers",
  "3017": " controvers",
  "3018": " approbation",
  "3019": " accusations",
  "3020": " earnest",
  "3021": " briefly",
  "3022": " heavens",
  "3023": " successes",
  "3024": " Ye",
  "3025": " imped",
  "3026": " idle",
  "3027": " Proceed",
  "3028": "Beseech",
  "3029": "ratitude",
  "3030": "rateful",
  "3031": " soothing",
  "3032": " seconds",
  "3033": " womb",
  "3034": " misery",
  "3035": " midst",
  "3036": " censure",
  "3037": " frame",
  "3038": " famish",
  "3039": " fierce",
  "3040": " powers",
  "3041": " plague",
  "3042": " hurt",
  "3043": " horses",
  "3044": " dearer",
  "3045": " destruction",
  "3046": " opposers",
  "3047": " hazard",
  "3048": " length",
  "3049": " respect",
  "3050": " vengeance",
  "3051": " assembly",
  "3052": " shouts",
  "3053": " shields",
  "3054": " depend",
  "3055": " trades",
  "3056": " prepared",
  "3057": "Below",
  "3058": " abhorr",
  "3059": " abundance",
  "3060": " private",
  "3061": " counsels",
  "3062": " advanced",
  "3063": " temperately",
  "3064": " cowardly",
  "3065": " magistrates",
  "3066": " determine",
  "3067": "Appear",
  "3068": "Better",
  "3069": "Follow",
  "3070": "Given",
  "3071": "Half",
  "3072": "Lead",
  "3073": "Leave",
  "3074": "carries",
  "3075": "doing",
  "3076": "malice",
  "3077": "nical",
  "3078": "tongues",
  "3079": "yrannical",
  "3080": " treaty",
  "3081": " taste",
  "3082": " aediles",
  "3083": " syllables",
  "3084": " mirth",
  "3085": " bands",
  "3086": " bisson",
  "3087": "erwhelm",
  "3088": " cheeks",
  "3089": " fashion",
  "3090": " freedom",
  "3091": " poorest",
  "3092": " piece",
  "3093": " policy",
  "3094": " possess",
  "3095": " highest",
  "3096": " nourish",
  "3097": " nettle",
  "3098": " named",
  "3099": " digest",
  "3100": " obedience",
  "3101": " gulf",
  "3102": " geese",
  "3103": " lungs",
  "3104": " inherit",
  "3105": " stiff",
  "3106": " equal",
  "3107": " resisted",
  "3108": " reverend",
  "3109": " vulgar",
  "3110": " viper",
  "3111": " rumour",
  "3112": " peremptory",
  "3113": " suggest",
  "3114": " knowledge",
  "3115": " transport",
  "3116": " precipitation",
  "3117": " predecessors",
  "3118": " always",
  "3119": " sacrifice",
  "3120": "twixt",
  "3121": " instruments",
  "3122": " superfluity",
  "3123": " controversy",
  "3124": " impediment",
  "3125": " D",
  "3126": " Q",
  "3127": " U",
  "3128": " er",
  "3129": " es",
  "3130": " CORIOLANUS",
  "3131": " Wh",
  "3132": " ice",
  "3133": " Of",
  "3134": " With",
  "3135": " Which",
  "3136": " Where",
  "3137": " There",
  "3138": " Why",
  "3139": " Have",
  "3140": " Now",
  "3141": " Go",
  "3142": " Was",
  "3143": " Wor",
  "3144": " Fare",
  "3145": " Do",
  "3146": " Being",
  "3147": " Des",
  "3148": " Farewell",
  "3149": " Thus",
  "3150": " ounce",
  "3151": " Note",
  "3152": "!--",
  "3153": "'!",
  "3154": "'?",
  "3155": "'ve",
  "3156": "'--",
  "3157": ".--",
  "3158": ":'",
  "3159": ":--'",
  "3160": "Ag",
  "3161": "Al",
  "3162": "Am",
  "3163": "AIUS",
  "3164": "Able",
  "3165": "Action",
  "3166": "Aufidius",
  "3167": "After",
  "3168": "Aged",
  "3169": "Bear",
  "3170": "Breat",
  "3171": "Bold",
  "3172": "Bury",
  "3173": "Boils",
  "3174": "Break",
  "3175": "Bene",
  "3176": "Co",
  "3177": "Cle",
  "3178": "Cal",
  "3179": "Cast",
  "3180": "Cla",
  "3181": "Corn",
  "3182": "Care",
  "3183": "Caius",
  "3184": "Certain",
  "3185": "Cog",
  "3186": "Clam",
  "3187": "CAIUS",
  "3188": "Di",
  "3189": "Dr",
  "3190": "Dou",
  "3191": "Dur",
  "3192": "Dra",
  "3193": "Done",
  "3194": "Deny",
  "3195": "Em",
  "3196": "End",
  "3197": "Each",
  "3198": "Esp",
  "3199": "Fa",
  "3200": "Fl",
  "3201": "Fan",
  "3202": "Fore",
  "3203": "Fal",
  "3204": "Fur",
  "3205": "Fif",
  "3206": "Five",
  "3207": "Fear",
  "3208": "Fast",
  "3209": "Fine",
  "3210": "Fame",
  "3211": "Fall",
  "3212": "Fool",
  "3213": "Filling",
  "3214": "Gent",
  "3215": "Gal",
  "3216": "God",
  "3217": "Har",
  "3218": "Him",
  "3219": "Hea",
  "3220": "Hast",
  "3221": "Hang",
  "3222": "Hail",
  "3223": "Holl",
  "3224": "Holding",
  "3225": "Irons",
  "3226": "Kind",
  "3227": "Keep",
  "3228": "Killing",
  "3229": "Lo",
  "3230": "Less",
  "3231": "Lose",
  "3232": "Lie",
  "3233": "Lear",
  "3234": "List",
  "3235": "Ladies",
  "3236": "Mis",
  "3237": "Mar",
  "3238": "Mine",
  "3239": "Mother",
  "3240": "Meet",
  "3241": "Mang",
  "3242": "Makes",
  "3243": "Mere",
  "3244": "Making",
  "3245": "Mortal",
  "3246": "Ne",
  "3247": "Nat",
  "3248": "Never",
  "3249": "Nothing",
  "3250": "Out",
  "3251": "Opp",
  "3252": "Opinion",
  "3253": "Pl",
  "3254": "Pre",
  "3255": "Pur",
  "3256": "Pass",
  "3257": "Plag",
  "3258": "Piercing",
  "3259": "Ran",
  "3260": "Rome",
  "3261": "Run",
  "3262": "Sm",
  "3263": "She",
  "3264": "Sit",
  "3265": "Sup",
  "3266": "Sde",
  "3267": "Swe",
  "3268": "Somet",
  "3269": "Slain",
  "3270": "Saw",
  "3271": "Served",
  "3272": "Slew",
  "3273": "Suffer",
  "3274": "Tar",
  "3275": "Tow",
  "3276": "Till",
  "3277": "Tent",
  "3278": "Tie",
  "3279": "Tell",
  "3280": "Time",
  "3281": "Turn",
  "3282": "Tick",
  "3283": "Titus",
  "3284": "Tush",
  "3285": "Touch",
  "3286": "Twill",
  "3287": "Tran",
  "3288": "Tying",
  "3289": "Tutus",
  "3290": "Tiber",
  "3291": "Tyrannical",
  "3292": "Ver",
  "3293": "Vag",
  "3294": "Win",
  "3295": "Wed",
  "3296": "Wea",
  "3297": "Wond",
  "3298": "Wave",
  "3299": "Wish",
  "3300": "Wert",
  "3301": "Watch",
  "3302": "Wrench",
  "3303": "Ye",
  "3304": "Yes",
  "3305": "Yond",
  "3306": "ab",
  "3307": "ale",
  "3308": "ace",
  "3309": "ack",
  "3310": "again",
  "3311": "act",
  "3312": "app",
  "3313": "action",
  "3314": "aff",
  "3315": "aving",
  "3316": "ably",
  "3317": "award",
  "3318": "abs",
  "3319": "aught",
  "3320": "bo",
  "3321": "br",
  "3322": "bon",
  "3323": "ben",
  "3324": "bing",
  "3325": "biti",
  "3326": "bun",
  "3327": "best",
  "3328": "bout",
  "3329": "bell",
  "3330": "bear",
  "3331": "bine",
  "3332": "bies",
  "3333": "bount",
  "3334": "bod",
  "3335": "bred",
  "3336": "boy",
  "3337": "bran",
  "3338": "bolic",
  "3339": "bject",
  "3340": "bench",
  "3341": "bingly",
  "3342": "boured",
  "3343": "break",
  "3344": "ca",
  "3345": "cl",
  "3346": "cr",
  "3347": "cha",
  "3348": "cle",
  "3349": "cce",
  "3350": "could",
  "3351": "cent",
  "3352": "cur",
  "3353": "cter",
  "3354": "cond",
  "3355": "cum",
  "3356": "count",
  "3357": "cian",
  "3358": "cuse",
  "3359": "cens",
  "3360": "cush",
  "3361": "custom",
  "3362": "certain",
  "3363": "clin",
  "3364": "crest",
  "3365": "crown",
  "3366": "cible",
  "3367": "cub",
  "3368": "cram",
  "3369": "dv",
  "3370": "dy",
  "3371": "din",
  "3372": "dit",
  "3373": "dow",
  "3374": "ded",
  "3375": "day",
  "3376": "dent",
  "3377": "dds",
  "3378": "down",
  "3379": "dues",
  "3380": "diness",
  "3381": "dull",
  "3382": "dens",
  "3383": "danger",
  "3384": "dict",
  "3385": "drench",
  "3386": "ev",
  "3387": "ex",
  "3388": "ey",
  "3389": "een",
  "3390": "ele",
  "3391": "eves",
  "3392": "ewe",
  "3393": "ered",
  "3394": "eats",
  "3395": "fr",
  "3396": "fs",
  "3397": "fed",
  "3398": "fet",
  "3399": "fess",
  "3400": "fec",
  "3401": "five",
  "3402": "fant",
  "3403": "found",
  "3404": "fell",
  "3405": "from",
  "3406": "fuse",
  "3407": "fall",
  "3408": "fidius",
  "3409": "fric",
  "3410": "fob",
  "3411": "fused",
  "3412": "fully",
  "3413": "gr",
  "3414": "gre",
  "3415": "gin",
  "3416": "gon",
  "3417": "gus",
  "3418": "ging",
  "3419": "gri",
  "3420": "gher",
  "3421": "got",
  "3422": "gent",
  "3423": "give",
  "3424": "gil",
  "3425": "gure",
  "3426": "gard",
  "3427": "gged",
  "3428": "gments",
  "3429": "geny",
  "3430": "gations",
  "3431": "grees",
  "3432": "grain",
  "3433": "gaw",
  "3434": "gorous",
  "3435": "ho",
  "3436": "his",
  "3437": "how",
  "3438": "home",
  "3439": "hun",
  "3440": "hood",
  "3441": "hous",
  "3442": "hound",
  "3443": "hip",
  "3444": "hold",
  "3445": "hings",
  "3446": "ii",
  "3447": "ias",
  "3448": "iand",
  "3449": "iger",
  "3450": "ibly",
  "3451": "iable",
  "3452": "ikes",
  "3453": "jor",
  "3454": "kin",
  "3455": "ker",
  "3456": "kind",
  "3457": "kull",
  "3458": "kling",
  "3459": "lay",
  "3460": "lut",
  "3461": "lot",
  "3462": "live",
  "3463": "lves",
  "3464": "love",
  "3465": "late",
  "3466": "line",
  "3467": "look",
  "3468": "lms",
  "3469": "lcomes",
  "3470": "licts",
  "3471": "my",
  "3472": "mor",
  "3473": "mes",
  "3474": "met",
  "3475": "mly",
  "3476": "mble",
  "3477": "mers",
  "3478": "mum",
  "3479": "mire",
  "3480": "mmon",
  "3481": "matter",
  "3482": "mber",
  "3483": "mel",
  "3484": "mness",
  "3485": "mildly",
  "3486": "master",
  "3487": "meeting",
  "3488": "nes",
  "3489": "nat",
  "3490": "ned",
  "3491": "nine",
  "3492": "nger",
  "3493": "nel",
  "3494": "never",
  "3495": "naw",
  "3496": "nsion",
  "3497": "nothing",
  "3498": "oes",
  "3499": "oat",
  "3500": "oil",
  "3501": "oices",
  "3502": "oast",
  "3503": "oqu",
  "3504": "oven",
  "3505": "oking",
  "3506": "oating",
  "3507": "pre",
  "3508": "por",
  "3509": "pat",
  "3510": "pan",
  "3511": "pir",
  "3512": "pet",
  "3513": "pher",
  "3514": "pot",
  "3515": "pent",
  "3516": "pest",
  "3517": "peak",
  "3518": "pound",
  "3519": "power",
  "3520": "pect",
  "3521": "pons",
  "3522": "pli",
  "3523": "pric",
  "3524": "ples",
  "3525": "pitable",
  "3526": "plied",
  "3527": "pising",
  "3528": "pecially",
  "3529": "posture",
  "3530": "piercing",
  "3531": "position",
  "3532": "rong",
  "3533": "rices",
  "3534": "rather",
  "3535": "ratch",
  "3536": "roll",
  "3537": "rog",
  "3538": "rutus",
  "3539": "roof",
  "3540": "robation",
  "3541": "roc",
  "3542": "son",
  "3543": "som",
  "3544": "sse",
  "3545": "say",
  "3546": "soo",
  "3547": "sent",
  "3548": "sup",
  "3549": "sil",
  "3550": "sult",
  "3551": "smen",
  "3552": "sses",
  "3553": "serv",
  "3554": "sadd",
  "3555": "suffer",
  "3556": "slate",
  "3557": "ta",
  "3558": "tin",
  "3559": "too",
  "3560": "than",
  "3561": "tain",
  "3562": "tous",
  "3563": "tell",
  "3564": "ture",
  "3565": "time",
  "3566": "tock",
  "3567": "tach",
  "3568": "tru",
  "3569": "titude",
  "3570": "true",
  "3571": "tling",
  "3572": "trees",
  "3573": "teeth",
  "3574": "uce",
  "3575": "uly",
  "3576": "ual",
  "3577": "uild",
  "3578": "uage",
  "3579": "uint",
  "3580": "uities",
  "3581": "uries",
  "3582": "uary",
  "3583": "ubble",
  "3584": "ucal",
  "3585": "ually",
  "3586": "uising",
  "3587": "uaded",
  "3588": "ugure",
  "3589": "vot",
  "3590": "vand",
  "3591": "vice",
  "3592": "vator",
  "3593": "vine",
  "3594": "vish",
  "3595": "vict",
  "3596": "vior",
  "3597": "vial",
  "3598": "voc",
  "3599": "voices",
  "3600": "won",
  "3601": "wor",
  "3602": "war",
  "3603": "wing",
  "3604": "would",
  "3605": "wound",
  "3606": "wart",
  "3607": "wear",
  "3608": "wife",
  "3609": "wag",
  "3610": "witch",
  "3611": "waving",
  "3612": "xed",
  "3613": "xions",
  "3614": "yet",
  "3615": "years",
  "3616": "yper",
  "3617": "ypress",
  "3618": "ydra",
  "3619": "ycur",
  "3620": "yhound",
  "3621": "zon",
  "3622": "zed",
  "3623": " tit",
  "3624": " ton",
  "3625": " tun",
  "3626": " test",
  "3627": " tend",
  "3628": " tie",
  "3629": " tind",
  "3630": " tear",
  "3631": " tire",
  "3632": " trib",
  "3633": " tak",
  "3634": " tap",
  "3635": " tatter",
  "3636": " tush",
  "3637": " takes",
  "3638": " tired",
  "3639": " task",
  "3640": " tyrannical",
  "3641": " tiger",
  "3642": "hed",
  "3643": "here",
  "3644": "hence",
  "3645": "herent",
  "3646": "ouds",
  "3647": "ouches",
  "3648": "ougher",
  "3649": " ay",
  "3650": " aim",
  "3651": " ach",
  "3652": " age",
  "3653": " awe",
  "3654": " apt",
  "3655": " aches",
  "3656": " agu",
  "3657": " ages",
  "3658": " aims",
  "3659": " afoot",
  "3660": " apes",
  "3661": " apart",
  "3662": " aub",
  "3663": " acce",
  "3664": " augure",
  "3665": " theft",
  "3666": " sat",
  "3667": " san",
  "3668": " sow",
  "3669": " sed",
  "3670": " sad",
  "3671": " sol",
  "3672": " senator",
  "3673": " sort",
  "3674": " sli",
  "3675": " sought",
  "3676": " sigh",
  "3677": " sland",
  "3678": " solic",
  "3679": " sign",
  "3680": " sides",
  "3681": " sided",
  "3682": " skull",
  "3683": " wow",
  "3684": " wed",
  "3685": " wot",
  "3686": " wal",
  "3687": " wol",
  "3688": " wast",
  "3689": " wip",
  "3690": " wise",
  "3691": " wool",
  "3692": " wail",
  "3693": " wives",
  "3694": "rew",
  "3695": "reet",
  "3696": "rely",
  "3697": "reds",
  "3698": "rect",
  "3699": "rection",
  "3700": "resh",
  "3701": "rept",
  "3702": "reaves",
  "3703": "reme",
  "3704": "renown",
  "3705": "reason",
  "3706": "repr",
  "3707": "report",
  "3708": "recian",
  "3709": "reyhound",
  "3710": "had",
  "3711": "hal",
  "3712": "has",
  "3713": "hand",
  "3714": "having",
  "3715": "half",
  "3716": "haca",
  "3717": "havior",
  "3718": "inn",
  "3719": "iny",
  "3720": "inal",
  "3721": "inous",
  "3722": "ints",
  "3723": "invent",
  "3724": "infect",
  "3725": " mor",
  "3726": " mat",
  "3727": " mow",
  "3728": " mic",
  "3729": " mould",
  "3730": " mur",
  "3731": " mun",
  "3732": " mood",
  "3733": " main",
  "3734": " mam",
  "3735": " move",
  "3736": " moth",
  "3737": " map",
  "3738": " morn",
  "3739": " muse",
  "3740": " mild",
  "3741": " muck",
  "3742": " mouse",
  "3743": " miles",
  "3744": " miss",
  "3745": " match",
  "3746": " mail",
  "3747": " morr",
  "3748": " mask",
  "3749": " moved",
  "3750": " movers",
  "3751": " making",
  "3752": " mortal",
  "3753": " ben",
  "3754": " bow",
  "3755": " bot",
  "3756": " bent",
  "3757": " bid",
  "3758": " bal",
  "3759": " bur",
  "3760": " bol",
  "3761": " bul",
  "3762": " bate",
  "3763": " bast",
  "3764": " bower",
  "3765": " brib",
  "3766": " bath",
  "3767": " bos",
  "3768": " bark",
  "3769": " bare",
  "3770": " bows",
  "3771": " book",
  "3772": " bled",
  "3773": " bury",
  "3774": " boats",
  "3775": " boast",
  "3776": "iton",
  "3777": "ites",
  "3778": "iting",
  "3779": "itche",
  "3780": "itud",
  "3781": "itors",
  "3782": "itcher",
  "3783": "itution",
  "3784": "ones",
  "3785": "onation",
  "3786": "onts",
  "3787": "ontent",
  "3788": "erle",
  "3789": "ervy",
  "3790": "erbear",
  "3791": "erdict",
  "3792": " yoke",
  "3793": " yarn",
  "3794": " yawn",
  "3795": "orch",
  "3796": "orough",
  "3797": "ormity",
  "3798": "orpor",
  "3799": "esh",
  "3800": "esy",
  "3801": "ester",
  "3802": "essel",
  "3803": "llen",
  "3804": "llent",
  "3805": "isen",
  "3806": "isher",
  "3807": "istled",
  "3808": "ished",
  "3809": "ening",
  "3810": "enant",
  "3811": "enance",
  "3812": "enel",
  "3813": "enied",
  "3814": "encounter",
  "3815": " chat",
  "3816": " cir",
  "3817": " cic",
  "3818": " cri",
  "3819": " cent",
  "3820": " cun",
  "3821": " citizen",
  "3822": " cam",
  "3823": " carc",
  "3824": " creat",
  "3825": " cold",
  "3826": " cock",
  "3827": " cool",
  "3828": " cob",
  "3829": " cover",
  "3830": " cities",
  "3831": " cries",
  "3832": " coll",
  "3833": " corr",
  "3834": " colic",
  "3835": " chest",
  "3836": " camb",
  "3837": " cere",
  "3838": " cushions",
  "3839": " cypress",
  "3840": " crept",
  "3841": " fen",
  "3842": " fat",
  "3843": " fed",
  "3844": " fet",
  "3845": " fea",
  "3846": " food",
  "3847": " fust",
  "3848": " fond",
  "3849": " fund",
  "3850": " feed",
  "3851": " fens",
  "3852": " fled",
  "3853": " fix",
  "3854": " fever",
  "3855": " fran",
  "3856": " fins",
  "3857": " flag",
  "3858": " finger",
  "3859": " feats",
  "3860": " fester",
  "3861": " youth",
  "3862": " younger",
  "3863": " pent",
  "3864": " pun",
  "3865": " pest",
  "3866": " pup",
  "3867": " pec",
  "3868": " pant",
  "3869": " pile",
  "3870": " pence",
  "3871": " pla",
  "3872": " pother",
  "3873": " pier",
  "3874": " pip",
  "3875": " pock",
  "3876": " pick",
  "3877": " page",
  "3878": " piles",
  "3879": " pins",
  "3880": " pict",
  "3881": " posture",
  "3882": " pikes",
  "3883": " pinn",
  "3884": " porch",
  "3885": " hoo",
  "3886": " hot",
  "3887": " hill",
  "3888": " hol",
  "3889": " hie",
  "3890": " hos",
  "3891": " huse",
  "3892": " hint",
  "3893": " horr",
  "3894": " hyper",
  "3895": " nur",
  "3896": " nup",
  "3897": " nice",
  "3898": " nave",
  "3899": " nation",
  "3900": " nought",
  "3901": " nerves",
  "3902": " naught",
  "3903": " nervy",
  "3904": "arve",
  "3905": "arge",
  "3906": "arum",
  "3907": "aration",
  "3908": "arison",
  "3909": "arbed",
  "3910": "ariable",
  "3911": " dut",
  "3912": " dry",
  "3913": " dum",
  "3914": " dies",
  "3915": " died",
  "3916": " dries",
  "3917": " dying",
  "3918": " dict",
  "3919": " dign",
  "3920": " dread",
  "3921": " dined",
  "3922": " deep",
  "3923": " ditch",
  "3924": " dote",
  "3925": " darts",
  "3926": " donation",
  "3927": " denied",
  "3928": " top",
  "3929": " toge",
  "3930": " topp",
  "3931": " token",
  "3932": " towards",
  "3933": " occ",
  "3934": " obs",
  "3935": " omit",
  "3936": " open",
  "3937": " object",
  "3938": " odds",
  "3939": "usion",
  "3940": "vey",
  "3941": "vely",
  "3942": "veter",
  "3943": "veying",
  "3944": "ato",
  "3945": "ated",
  "3946": "atte",
  "3947": "atrices",
  "3948": "attling",
  "3949": " heat",
  "3950": " hews",
  "3951": " helms",
  "3952": "lect",
  "3953": "lemness",
  "3954": "lexions",
  "3955": "omes",
  "3956": "omous",
  "3957": "ombed",
  "3958": "ompan",
  "3959": " gan",
  "3960": " gri",
  "3961": " gid",
  "3962": " gain",
  "3963": " gif",
  "3964": " gust",
  "3965": " gap",
  "3966": " gall",
  "3967": " gild",
  "3968": " gird",
  "3969": " gang",
  "3970": " gash",
  "3971": " glean",
  "3972": " gilt",
  "3973": " gaze",
  "3974": " gnaw",
  "3975": " greyhound",
  "3976": " nod",
  "3977": " noon",
  "3978": " nose",
  "3979": " nodd",
  "3980": "ane",
  "3981": "ann",
  "3982": "anet",
  "3983": "anion",
  "3984": "anqu",
  "3985": "another",
  "3986": "anks",
  "3987": " bend",
  "3988": " beam",
  "3989": " bended",
  "3990": " becomes",
  "3991": " bereaves",
  "3992": " behalf",
  "3993": "irm",
  "3994": "irs",
  "3995": "irgil",
  "3996": "owance",
  "3997": " thirst",
  "3998": " threat",
  "3999": " third",
  "4000": " thigh",
  "4001": " threes",
  "4002": " thread",
  "4003": " thief",
  "4004": " thwart",
  "4005": " threw",
  "4006": " thorough",
  "4007": " hap",
  "4008": " hare",
  "4009": " hair",
  "4010": " haver",
  "4011": " hares",
  "4012": " havoc",
  "4013": " It",
  "4014": " Ing",
  "4015": " lur",
  "4016": " lion",
  "4017": " lone",
  "4018": " lout",
  "4019": " lost",
  "4020": " link",
  "4021": " lance",
  "4022": " loud",
  "4023": " lick",
  "4024": " lull",
  "4025": " lang",
  "4026": " lions",
  "4027": " lords",
  "4028": " lying",
  "4029": " linger",
  "4030": " large",
  "4031": "stood",
  "4032": "stone",
  "4033": "stand",
  "4034": "stant",
  "4035": "stable",
  "4036": "ingrateful",
  "4037": "ldst",
  "4038": "cely",
  "4039": "ceal",
  "4040": "ceip",
  "4041": "ceeds",
  "4042": "cease",
  "4043": "ceful",
  "4044": "cements",
  "4045": "cels",
  "4046": "cended",
  "4047": "cepts",
  "4048": "cellent",
  "4049": " inqu",
  "4050": " inte",
  "4051": " infer",
  "4052": " inno",
  "4053": " intent",
  "4054": " infir",
  "4055": " invin",
  "4056": " invest",
  "4057": " invention",
  "4058": " inev",
  "4059": " infant",
  "4060": " inkling",
  "4061": " inherent",
  "4062": " inveter",
  "4063": "ourge",
  "4064": "edy",
  "4065": "edience",
  "4066": "imate",
  "4067": "iments",
  "4068": "iminal",
  "4069": "sever",
  "4070": "seven",
  "4071": "second",
  "4072": "icle",
  "4073": "icut",
  "4074": "ichest",
  "4075": "utes",
  "4076": "uted",
  "4077": "utel",
  "4078": "utenant",
  "4079": " wear",
  "4080": " weed",
  "4081": " weigh",
  "4082": " weary",
  "4083": " welcomes",
  "4084": "ithmet",
  "4085": "eted",
  "4086": "etition",
  "4087": "etency",
  "4088": " notice",
  "4089": " nothings",
  "4090": " forty",
  "4091": " forced",
  "4092": " forges",
  "4093": " forgot",
  "4094": " forsoo",
  "4095": "keep",
  "4096": " itch",
  "4097": " Cond",
  "4098": " Custom",
  "4099": " Cushions",
  "4100": " Cato",
  "4101": " stain",
  "4102": " stake",
  "4103": " stee",
  "4104": " stone",
  "4105": " stink",
  "4106": " station",
  "4107": " stock",
  "4108": " stall",
  "4109": " stuck",
  "4110": " staves",
  "4111": " stoop",
  "4112": " stopp",
  "4113": " steep",
  "4114": " stuff",
  "4115": " starts",
  "4116": " sticks",
  "4117": " stale",
  "4118": " stubble",
  "4119": " stitcher",
  "4120": " stones",
  "4121": " starve",
  "4122": " eun",
  "4123": " eff",
  "4124": " ease",
  "4125": " eag",
  "4126": " event",
  "4127": " eject",
  "4128": " rend",
  "4129": " reas",
  "4130": " read",
  "4131": " reck",
  "4132": " reel",
  "4133": " reward",
  "4134": " reins",
  "4135": " rector",
  "4136": " resc",
  "4137": " refus",
  "4138": " rewards",
  "4139": " refuse",
  "4140": " reserv",
  "4141": " receip",
  "4142": "rid",
  "4143": "rike",
  "4144": "rible",
  "4145": "rived",
  "4146": "riving",
  "4147": "riages",
  "4148": " issu",
  "4149": "hers",
  "4150": " withdra",
  "4151": " mend",
  "4152": " meat",
  "4153": " meed",
  "4154": " meas",
  "4155": " meal",
  "4156": " measure",
  "4157": "enter",
  "4158": "ented",
  "4159": "ental",
  "4160": "entation",
  "4161": " vest",
  "4162": " vast",
  "4163": " vows",
  "4164": " vig",
  "4165": " vass",
  "4166": " vail",
  "4167": " vaward",
  "4168": " viand",
  "4169": " vouches",
  "4170": " verdict",
  "4171": " vessel",
  "4172": " variable",
  "4173": " vanqu",
  "4174": "lying",
  "4175": "lysses",
  "4176": " onward",
  "4177": "asion",
  "4178": "asers",
  "4179": "asite",
  "4180": "ascent",
  "4181": "ade",
  "4182": "adst",
  "4183": "aders",
  "4184": "advent",
  "4185": "adict",
  "4186": "ids",
  "4187": "als",
  "4188": "aling",
  "4189": "alike",
  "4190": "alty",
  "4191": "alog",
  "4192": " asunder",
  "4193": " assist",
  "4194": " asleep",
  "4195": "chm",
  "4196": "ching",
  "4197": "child",
  "4198": " theme",
  "4199": " themes",
  "4200": " dog",
  "4201": " doit",
  "4202": " door",
  "4203": " doom",
  "4204": " dost",
  "4205": " doings",
  "4206": "urchy",
  "4207": "urrection",
  "4208": "ung",
  "4209": "unt",
  "4210": "olved",
  "4211": "rage",
  "4212": "raged",
  "4213": "racter",
  "4214": "this",
  "4215": "thren",
  "4216": "thresh",
  "4217": "ope",
  "4218": "opt",
  "4219": "oper",
  "4220": "opul",
  "4221": "opert",
  "4222": "ophy",
  "4223": " whip",
  "4224": " white",
  "4225": " butts",
  "4226": " butcher",
  "4227": " buttock",
  "4228": " usure",
  "4229": " usury",
  "4230": " ushers",
  "4231": "tering",
  "4232": "terfly",
  "4233": " sovere",
  "4234": " soaring",
  "4235": "Held",
  "4236": "Heart",
  "4237": "Wears",
  "4238": "ainous",
  "4239": " spit",
  "4240": " spot",
  "4241": " spur",
  "4242": " spun",
  "4243": " spake",
  "4244": " spire",
  "4245": " sport",
  "4246": " speed",
  "4247": " spawn",
  "4248": "ghted",
  "4249": "Thither",
  "4250": "Throng",
  "4251": "very",
  "4252": "verbs",
  "4253": "verses",
  "4254": "ify",
  "4255": "ifter",
  "4256": "iful",
  "4257": "ifies",
  "4258": "iffe",
  "4259": "ules",
  "4260": "ulse",
  "4261": "estor",
  "4262": "estion",
  "4263": "establ",
  "4264": "estimation",
  "4265": " prate",
  "4266": " prince",
  "4267": " prud",
  "4268": " prison",
  "4269": " prating",
  "4270": " proof",
  "4271": " prank",
  "4272": " prattling",
  "4273": " proper",
  "4274": "upon",
  "4275": "upied",
  "4276": "upations",
  "4277": " allaying",
  "4278": " allowance",
  "4279": " willing",
  "4280": " willingly",
  "4281": " king",
  "4282": " kill",
  "4283": " kam",
  "4284": " kings",
  "4285": " kick",
  "4286": " kiss",
  "4287": " kingly",
  "4288": " kitche",
  "4289": " ran",
  "4290": " rove",
  "4291": " rise",
  "4292": " rod",
  "4293": " rates",
  "4294": " ruth",
  "4295": " rang",
  "4296": " rash",
  "4297": " rog",
  "4298": " roof",
  "4299": " rank",
  "4300": " raying",
  "4301": " rougher",
  "4302": " risen",
  "4303": " richest",
  "4304": " shop",
  "4305": " shower",
  "4306": " shown",
  "4307": " shru",
  "4308": " shoes",
  "4309": " shreds",
  "4310": " conn",
  "4311": " conqu",
  "4312": " convent",
  "4313": " convers",
  "4314": " concl",
  "4315": " congre",
  "4316": " conveying",
  "4317": " constant",
  "4318": " conceal",
  "4319": " converses",
  "4320": " anon",
  "4321": " anti",
  "4322": " leg",
  "4323": " lend",
  "4324": " lect",
  "4325": " leash",
  "4326": " goat",
  "4327": " gold",
  "4328": " godd",
  "4329": " goaded",
  "4330": "bled",
  "4331": " Marc",
  "4332": " Mend",
  "4333": " MARCIUS",
  "4334": " Mars",
  "4335": " Mildly",
  "4336": " Meeting",
  "4337": "amour",
  "4338": "amity",
  "4339": "amens",
  "4340": "amental",
  "4341": " deal",
  "4342": " demer",
  "4343": " defect",
  "4344": " dews",
  "4345": " degrees",
  "4346": " delay",
  "4347": "Whil",
  "4348": " whatso",
  "4349": "dsmen",
  "4350": " liest",
  "4351": " liking",
  "4352": "iling",
  "4353": "ilius",
  "4354": "ilant",
  "4355": "ilence",
  "4356": "ilities",
  "4357": "nows",
  "4358": " wouldst",
  "4359": "outing",
  "4360": "outed",
  "4361": " attain",
  "4362": " sued",
  "4363": " summon",
  "4364": "andal",
  "4365": " commiss",
  "4366": " commend",
  "4367": " combine",
  "4368": " goodly",
  "4369": " cared",
  "4370": " capt",
  "4371": " caused",
  "4372": " caution",
  "4373": " cautel",
  "4374": "ateful",
  "4375": " mantled",
  "4376": " manacles",
  "4377": " manhood",
  "4378": " mankind",
  "4379": "seless",
  "4380": "emning",
  "4381": "emned",
  "4382": "ieving",
  "4383": "ously",
  "4384": "uma",
  "4385": "umes",
  "4386": "ummon",
  "4387": " needs",
  "4388": " neigh",
  "4389": " faith",
  "4390": " faction",
  "4391": " fails",
  "4392": "ants",
  "4393": "anted",
  "4394": " knows",
  "4395": " knowing",
  "4396": "ongst",
  "4397": "onging",
  "4398": " hatching",
  "4399": "Assemble",
  "4400": "ctly",
  "4401": "ctuary",
  "4402": "ostilius",
  "4403": " trim",
  "4404": " troop",
  "4405": " tricks",
  "4406": " truly",
  "4407": " trophy",
  "4408": " disob",
  "4409": " dismiss",
  "4410": " dissolved",
  "4411": " disgra",
  "4412": " disadv",
  "4413": " dissemble",
  "4414": " disbench",
  "4415": " dissent",
  "4416": " sirs",
  "4417": " musty",
  "4418": " hadst",
  "4419": " So",
  "4420": " Sir",
  "4421": " Say",
  "4422": " See",
  "4423": " Sicinius",
  "4424": " Speak",
  "4425": " Summon",
  "4426": " enig",
  "4427": " enforce",
  "4428": " envied",
  "4429": " enroll",
  "4430": " enormity",
  "4431": " enraged",
  "4432": "Insist",
  "4433": "Inclin",
  "4434": "Insult",
  "4435": "ightness",
  "4436": " seeks",
  "4437": " preten",
  "4438": " prefer",
  "4439": " precious",
  "4440": " prerog",
  "4441": " precepts",
  "4442": " At",
  "4443": " Ay",
  "4444": " Ala",
  "4445": " AEd",
  "4446": " Aud",
  "4447": " Ama",
  "4448": " Adv",
  "4449": " Afric",
  "4450": " Agri",
  "4451": " orange",
  "4452": " ordin",
  "4453": "Lets",
  "4454": " swims",
  "4455": " swift",
  "4456": " swifter",
  "4457": " hereto",
  "4458": " heredit",
  "4459": " conscience",
  "4460": " also",
  "4461": " although",
  "4462": " alias",
  "4463": " altitude",
  "4464": " alarum",
  "4465": " warlike",
  "4466": " blow",
  "4467": " bless",
  "4468": " blest",
  "4469": " blind",
  "4470": " blast",
  "4471": " blame",
  "4472": " block",
  "4473": " blaze",
  "4474": " black",
  "4475": " shoulder",
  "4476": " shouldst",
  "4477": "Beating",
  "4478": "Beyond",
  "4479": "Behold",
  "4480": "ilege",
  "4481": " ambiti",
  "4482": " therein",
  "4483": " thereto",
  "4484": "Yourself",
  "4485": "quick",
  "4486": "quite",
  "4487": "vens",
  "4488": "venient",
  "4489": " brown",
  "4490": " brook",
  "4491": " brings",
  "4492": " broke",
  "4493": " broils",
  "4494": " broil",
  "4495": " bruising",
  "4496": " bristled",
  "4497": " brunt",
  "4498": "arding",
  "4499": "arded",
  "4500": " outwe",
  "4501": "lause",
  "4502": " honourable",
  "4503": " likely",
  "4504": " madst",
  "4505": " consuls",
  "4506": "Thanks",
  "4507": " argu",
  "4508": " arithmet",
  "4509": " arriving",
  "4510": " fog",
  "4511": " fold",
  "4512": " foil",
  "4513": " fosse",
  "4514": " descended",
  "4515": " sack",
  "4516": " sail",
  "4517": " safer",
  "4518": " sauced",
  "4519": " safet",
  "4520": " offend",
  "4521": " offence",
  "4522": " thyself",
  "4523": " unsw",
  "4524": " unach",
  "4525": " unmer",
  "4526": " unlike",
  "4527": " unknown",
  "4528": " unsc",
  "4529": " ungra",
  "4530": " unwise",
  "4531": " unact",
  "4532": " uncertain",
  "4533": " unele",
  "4534": " unnat",
  "4535": " unroof",
  "4536": " unwor",
  "4537": " unreason",
  "4538": " unstable",
  "4539": " unsever",
  "4540": "mony",
  "4541": "osm",
  "4542": "osing",
  "4543": "osed",
  "4544": "osity",
  "4545": "osite",
  "4546": " frighted",
  "4547": " lovelier",
  "4548": " whereof",
  "4549": " Take",
  "4550": " Tell",
  "4551": " True",
  "4552": " Tiber",
  "4553": "delive",
  "4554": "devot",
  "4555": "ept",
  "4556": "eptune",
  "4557": "ipate",
  "4558": "iplin",
  "4559": "iplying",
  "4560": "ppa",
  "4561": " ways",
  "4562": " comeliness",
  "4563": " friendly",
  "4564": " friendliness",
  "4565": " abed",
  "4566": " above",
  "4567": " abused",
  "4568": " abilities",
  "4569": " seat",
  "4570": " seld",
  "4571": " seal",
  "4572": " seest",
  "4573": " self",
  "4574": " sevent",
  "4575": " seats",
  "4576": " season",
  "4577": " seize",
  "4578": " selves",
  "4579": " sewing",
  "4580": " select",
  "4581": " greatest",
  "4582": " greatness",
  "4583": "Whereof",
  "4584": "Whereby",
  "4585": "ape",
  "4586": " mayst",
  "4587": " chin",
  "4588": " churchy",
  "4589": " worthiness",
  "4590": "ording",
  "4591": " flour",
  "4592": " flay",
  "4593": " flight",
  "4594": " floating",
  "4595": " flesh",
  "4596": " flung",
  "4597": " flamens",
  "4598": " flouted",
  "4599": " points",
  "4600": " owns",
  "4601": " grim",
  "4602": " grove",
  "4603": " grind",
  "4604": " grown",
  "4605": " groats",
  "4606": " grateful",
  "4607": " laid",
  "4608": " laboured",
  "4609": "ares",
  "4610": " commoners",
  "4611": " commonalty",
  "4612": "Allow",
  "4613": " herdsmen",
  "4614": " presence",
  "4615": " prescri",
  "4616": " presume",
  "4617": " preserv",
  "4618": " preserve",
  "4619": "Ithaca",
  "4620": "Once",
  "4621": " contag",
  "4622": " continu",
  "4623": " contrived",
  "4624": "sworn",
  "4625": " serves",
  "4626": " serpent",
  "4627": " countenance",
  "4628": " howbe",
  "4629": " north",
  "4630": "ooked",
  "4631": " standing",
  "4632": " calls",
  "4633": " calling",
  "4634": " called",
  "4635": "Prosper",
  "4636": "bering",
  "4637": "berate",
  "4638": "berry",
  "4639": "liver",
  "4640": "likes",
  "4641": " chain",
  "4642": " chase",
  "4643": " chafed",
  "4644": " chamber",
  "4645": " chairs",
  "4646": " character",
  "4647": " plant",
  "4648": " plough",
  "4649": " planet",
  "4650": " plumes",
  "4651": " prized",
  "4652": " graver",
  "4653": " graves",
  "4654": " graft",
  "4655": " graced",
  "4656": " graceful",
  "4657": " exceed",
  "4658": " exped",
  "4659": " exerc",
  "4660": " excuse",
  "4661": " exposture",
  "4662": " remove",
  "4663": " remedy",
  "4664": " armour",
  "4665": " armies",
  "4666": " countrymen",
  "4667": " jot",
  "4668": " jest",
  "4669": " jump",
  "4670": " journ",
  "4671": " jewe",
  "4672": "been",
  "4673": "being",
  "4674": "before",
  "4675": "begged",
  "4676": "beii",
  "4677": "bewitch",
  "4678": "behavior",
  "4679": "bler",
  "4680": "bling",
  "4681": "ffin",
  "4682": "ildings",
  "4683": " tells",
  "4684": "rened",
  "4685": " couldst",
  "4686": " fury",
  "4687": " otherwise",
  "4688": " prayer",
  "4689": " Vel",
  "4690": " Virgil",
  "4691": "show",
  "4692": "should",
  "4693": "shown",
  "4694": "thed",
  "4695": "them",
  "4696": " apply",
  "4697": " applied",
  "4698": " applause",
  "4699": " sheep",
  "4700": " shepher",
  "4701": " sense",
  "4702": " senseless",
  "4703": "reeing",
  "4704": "Therein",
  "4705": " repose",
  "4706": " repined",
  "4707": " replied",
  "4708": " repetition",
  "4709": " repulse",
  "4710": " deaths",
  "4711": " accuse",
  "4712": " accents",
  "4713": " acclam",
  "4714": " accompan",
  "4715": " according",
  "4716": " mothers",
  "4717": " baes",
  "4718": " bale",
  "4719": " baits",
  "4720": " baby",
  "4721": " babies",
  "4722": " permit",
  "4723": " percus",
  "4724": " perpet",
  "4725": " pertin",
  "4726": " peradvent",
  "4727": " generosity",
  "4728": " began",
  "4729": " begun",
  "4730": " provide",
  "4731": " progeny",
  "4732": " provand",
  "4733": " proceeds",
  "4734": " proverbs",
  "4735": " deserving",
  "4736": "igate",
  "4737": "ption",
  "4738": "pture",
  "4739": "ptance",
  "4740": " twice",
  "4741": " twos",
  "4742": " scatter",
  "4743": " scars",
  "4744": " sconce",
  "4745": " scene",
  "4746": " scabs",
  "4747": " scratch",
  "4748": " scourge",
  "4749": " scape",
  "4750": " thrust",
  "4751": " thrown",
  "4752": " throws",
  "4753": " throat",
  "4754": " litter",
  "4755": " lesson",
  "4756": " Lay",
  "4757": " Look",
  "4758": " Lady",
  "4759": " Ladd",
  "4760": " Lycur",
  "4761": " admit",
  "4762": " adversely",
  "4763": " admire",
  "4764": " adopt",
  "4765": " smart",
  "4766": " smear",
  "4767": " smother",
  "4768": " smote",
  "4769": " smoking",
  "4770": " smiling",
  "4771": " bodies",
  "4772": " bodily",
  "4773": " downright",
  "4774": " handling",
  "4775": " handker",
  "4776": ",'--",
  "4777": "Soft",
  "4778": "eless",
  "4779": "tender",
  "4780": " tag",
  "4781": " table",
  "4782": " tabour",
  "4783": " bestrid",
  "4784": " patch",
  "4785": " patient",
  "4786": " patrician",
  "4787": " pleasure",
  "4788": " pleaders",
  "4789": " plebeii",
  "4790": " humorous",
  "4791": " humbler",
  "4792": " drove",
  "4793": " drink",
  "4794": " dropp",
  "4795": " doubly",
  "4796": " required",
  "4797": " requital",
  "4798": " charms",
  "4799": " charges",
  "4800": " charitable",
  "4801": "shipful",
  "4802": " followers",
  "4803": " Peace",
  "4804": " Publ",
  "4805": " Pho",
  "4806": " Plut",
  "4807": " Penel",
  "4808": " kept",
  "4809": " rivers",
  "4810": " rigorous",
  "4811": " ripest",
  "4812": " Here",
  "4813": " Hear",
  "4814": " Hecub",
  "4815": "Attach",
  "4816": " shamed",
  "4817": " shalt",
  "4818": " shapes",
  "4819": " shadow",
  "4820": " shames",
  "4821": " beside",
  "4822": " besides",
  "4823": " brag",
  "4824": " brand",
  "4825": " bragg",
  "4826": " curb",
  "4827": " curbs",
  "4828": " cursing",
  "4829": " curses",
  "4830": " current",
  "4831": " natural",
  "4832": " ends",
  "4833": " endure",
  "4834": " endures",
  "4835": " kinder",
  "4836": " kindest",
  "4837": "Whoever",
  "4838": " thanks",
  "4839": " thankful",
  "4840": " compass",
  "4841": " composition",
  "4842": " complexions",
  "4843": " companion",
  "4844": " competency",
  "4845": " newly",
  "4846": " enters",
  "4847": " entire",
  "4848": " entang",
  "4849": " entered",
  "4850": " entombed",
  "4851": " rare",
  "4852": " rakes",
  "4853": " rapture",
  "4854": "AEdiles",
  "4855": "aged",
  "4856": "two",
  "4857": "twill",
  "4858": "who",
  "4859": "whom",
  "4860": "whither",
  "4861": "wholesome",
  "4862": "youth",
  "4863": " sets",
  "4864": "ertake",
  "4865": " crown",
  "4866": " crows",
  "4867": " cross",
  "4868": " crutch",
  "4869": " cranks",
  "4870": " criminal",
  "4871": " courts",
  "4872": " courte",
  "4873": " chances",
  "4874": " channel",
  "4875": " crab",
  "4876": " craft",
  "4877": " fighting",
  "4878": " purcha",
  "4879": " looked",
  "4880": " retired",
  "4881": " spoons",
  "4882": " spoils",
  "4883": " spoken",
  "4884": " spirits",
  "4885": "Thyself",
  "4886": " discret",
  "4887": " disclaim",
  "4888": " discreet",
  "4889": " discontent",
  "4890": " disciplin",
  "4891": " bringing",
  "4892": " quoth",
  "4893": " quench",
  "4894": " quired",
  "4895": " quaked",
  "4896": " question",
  "4897": "Shouting",
  "4898": "Wash",
  "4899": "ighs",
  "4900": "perfect",
  "4901": "perfec",
  "4902": " afternoon",
  "4903": " malkin",
  "4904": " bread",
  "4905": " brethren",
  "4906": " busied",
  "4907": " bussing",
  "4908": " banners",
  "4909": " fitly",
  "4910": " fitness",
  "4911": " fearing",
  "4912": " fearful",
  "4913": " foolish",
  "4914": " foolery",
  "4915": " giber",
  "4916": " gibingly",
  "4917": " gentler",
  "4918": " hark",
  "4919": " harvest",
  "4920": " harlot",
  "4921": " eloqu",
  "4922": " resting",
  "4923": " restitution",
  "4924": " knave",
  "4925": " fairness",
  "4926": "Officious",
  "4927": " desires",
  "4928": " desirers",
  "4929": " strongly",
  "4930": " strongest",
  "4931": " marketplace",
  "4932": " purposed",
  "4933": " Hob",
  "4934": " Hang",
  "4935": " Herc",
  "4936": " Hydra",
  "4937": " Hadst",
  "4938": " Hostilius",
  "4939": "Spies",
  "4940": "Spoke",
  "4941": "Spread",
  "4942": "Stay",
  "4943": "Stop",
  "4944": "Strike",
  "4945": "achieving",
  "4946": "lessness",
  "4947": "peer",
  "4948": "plebeians",
  "4949": "pleasers",
  "4950": "ruct",
  "4951": "ruised",
  "4952": "tial",
  "4953": "venth",
  "4954": " soundly",
  "4955": " mutable",
  "4956": " mutually",
  "4957": " mockers",
  "4958": " mockery",
  "4959": " cloth",
  "4960": " clip",
  "4961": " clutch",
  "4962": " cloven",
  "4963": " clouds",
  "4964": " clamour",
  "4965": " camels",
  "4966": " fielded",
  "4967": " pair",
  "4968": " pawn",
  "4969": " passes",
  "4970": " passing",
  "4971": " days",
  "4972": " guider",
  "4973": " guided",
  "4974": " belonging",
  "4975": " haste",
  "4976": " hasty",
  "4977": " incline",
  "4978": " incorpor",
  "4979": " prompts",
  "4980": " leader",
  "4981": " suffrage",
  "4982": " articul",
  "4983": " article",
  "4984": " flattery",
  "4985": " doubtless",
  "4986": " requests",
  "4987": " requested",
  "4988": " banishment",
  "4989": " elsewhere",
  "4990": "Real",
  "4991": "Ready",
  "4992": "Rebell",
  "4993": "Refused",
  "4994": "Regard",
  "4995": "Requite",
  "4996": "measure",
  "4997": "speak",
  "4998": " talking",
  "4999": "<|endoftext|>"
}