{
  "0": "\u0000",
  "1": "\u0001",
  "2": "\u0002",
  "3": "\u0003",
  "4": "\u0004",
  "5": "\u0005",
  "6": "\u0006",
  "7": "\u0007",
  "8": "\b",
  "9": "\t",
  "10": "\n",
  "11": "\u000b",
  "12": "\f",
  "13": "\r",
  "14": "\u000e",
  "15": "\u000f",
  "16": "\u0010",
  "17": "\u0011",
  "18": "\u0012",
  "19": "\u0013",
  "20": "\u0014",
  "21": "\u0015",
  "22": "\u0016",
  "23": "\u0017",
  "24": "\u0018",
  "25": "\u0019",
  "26": "\u001a",
  "27": "\u001b",
  "28": "\u001c",
  "29": "\u001d",
  "30": "\u001e",
  "31": "\u001f",
  "32": " ",
  "33": "!",
  "34": "\"",
  "35": "#",
  "36": "$",
  "37": "%",
  "38": "&",
  "39": "'",
  "40": "(",
  "41": ")",
  "42": "*",
  "43": "+",
  "44": ",",
  "45": "-",
  "46": ".",
  "47": "/",
  "48": "0",
  "49": "1",
  "50": "2",
  "51": "3",
  "52": "4",
  "53": "5",
  "54": "6",
  "55": "7",
  "56": "8",
  "57": "9",
  "58": ":",
  "59": ";",
  "60": "<",
  "61": "=",
  "62": ">",
  "63": "?",
  "64": "@",
  "65": "A",
  "66": "B",
  "67": "C",
  "68": "D",
  "69": "E",
  "70": "F",
  "71": "G",
  "72": "H",
  "73": "I",
  "74": "J",
  "75": "K",
  "76": "L",
  "77": "M",
  "78": "N",
  "79": "O",
  "80": "P",
  "81": "Q",
  "82": "R",
  "83": "S",
  "84": "T",
  "85": "U",
  "86": "V",
  "87": "W",
  "88": "X",
  "89": "Y",
  "90": "Z",
  "91": "[",
  "92": "\\",
  "93": "]",
  "94": "^",
  "95": "_",
  "96": "`",
  "97": "a",
  "98": "b",
  "99": "c",
  "100": "d",
  "101": "e",
  "102": "f",
  "103": "g",
  "104": "h",
  "105": "i",
  "106": "j",
  "107": "k",
  "108": "l",
  "109": "m",
  "110": "n",
  "111": "o",
  "112": "p",
  "113": "q",
  "114": "r",
  "115": "s",
  "116": "t",
  "117": "u",
  "118": "v",
  "119": "w",
  "120": "x",
  "121": "y",
  "122": "z",
  "123": "{",
  "124": "|",
  "125": "}",
  "126": "~",
  "127": "",
  "128": "�",
  "129": "�",
  "130": "�",
  "131": "�",
  "132": "�",
  "133": "�",
  "134": "�",
  "135": "�",
  "136": "�",
  "137": "�",
  "138": "�",
  "139": "�",
  "140": "�",
  "141": "�",
  "142": "�",
  "143": "�",
  "144": "�",
  "145": "�",
  "146": "�",
  "147": "�",
  "148": "�",
  "149": "�",
  "150": "�",
  "151": "�",
  "152": "�",
  "153": "�",
  "154": "�",
  "155": "�",
  "156": "�",
  "157": "�",
  "158": "�",
  "159": "�",
  "160": "�",
  "161": "�",
  "162": "�",
  "163": "�",
  "164": "�",
  "165": "�",
  "166": "�",
  "167": "�",
  "168": "�",
  "169": "�",
  "170": "�",
  "171": "�",
  "172": "�",
  "173": "�",
  "174": "�",
  "175": "�",
  "176": "�",
  "177": "�",
  "178": "�",
  "179": "�",
  "180": "�",
  "181": "�",
  "182": "�",
  "183": "�",
  "184": "�",
  "185": "�",
  "186": "�",
  "187": "�",
  "188": "�",
  "189": "�",
  "190": "�",
  "191": "�",
  "192": "�",
  "193": "�",
  "194": "�",
  "195": "�",
  "196": "�",
  "197": "�",
  "198": "�",
  "199": "�",
  "200": "�",
  "201": "�",
  "202": "�",
  "203": "�",
  "204": "�",
  "205": "�",
  "206": "�",
  "207": "�",
  "208": "�",
  "209": "�",
  "210": "�",
  "211": "�",
  "212": "�",
  "213": "�",
  "214": "�",
  "215": "�",
  "216": "�",
  "217": "�",
  "218": "�",
  "219": "�",
  "220": "�",
  "221": "�",
  "222": "�",
  "223": "�",
  "224": "�",
  "225": "�",
  "226": "�",
  "227": "�",
  "228": "�",
  "229": "�",
  "230": "�",
  "231": "�",
  "232": "�",
  "233": "�",
  "234": "�",
  "235": "�",
  "236": "�",
  "237": "�",
  "238": "�",
  "239": "�",
  "240": "�",
  "241": "�",
  "242": "�",
  "243": "�",
  "244": "�",
  "245": "�",
  "246": "�",
  "247": "�",
  "248": "�",
  "249": "�",
  "250": "�",
  "251": "�",
  "252": "�",
  "253": "�",
  "254": "�",
  "255": "�",
  "256": " t",
  "257": "he",
  "258": " a",
  "259": " s",
  "260": "nd",
  "261": " w",
  "262": " the",
  "263": "ed",
  "264": " b",
  "265": " to",
  "266": " and",
  "267": " h",
  "268": " f",
  "269": "in",
  "270": " T",
  "271": " wa",
  "272": "it",
  "273": "re",
  "274": "ou",
  "275": " d",
  "276": " l",
  "277": " p",
  "278": " c",
  "279": "ay",
  "280": " m",
  "281": "er",
  "282": "om",
  "283": " was",
  "284": " The",
  "285": " he",
  "286": "is",
  "287": " n",
  "288": "ar",
  "289": "on",
  "290": "ll",
  "291": " sa",
  "292": "id",
  "293": "im",
  "294": " ha",
  "295": " S",
  "296": "ot",
  "297": "ing",
  "298": " g",
  "299": "at",
  "300": "an",
  "301": "en",
  "302": "le",
  "303": "or",
  "304": "end",
  "305": " it",
  "306": "of",
  "307": "et",
  "308": "am",
  "309": " H",
  "310": "ir",
  "311": " th",
  "312": " They",
  "313": "ig",
  "314": "il",
  "315": " He",
  "316": " pl",
  "317": " in",
  "318": " \"",
  "319": "ri",
  "320": "ut",
  "321": " u",
  "322": "ow",
  "323": " play",
  "324": "ver",
  "325": " r",
  "326": "pp",
  "327": "es",
  "328": "ith",
  "329": " said",
  "330": " with",
  "331": " y",
  "332": " day",
  "333": "On",
  "334": "oo",
  "335": " I",
  "336": "ked",
  "337": " her",
  "338": " st",
  "339": " She",
  "340": "ex",
  "341": " be",
  "342": " his",
  "343": "ld",
  "344": "ce",
  "345": "ke",
  "346": " Tim",
  "347": "ck",
  "348": "nt",
  "349": " you",
  "350": " L",
  "351": "un",
  "352": " big",
  "353": "very",
  "354": " on",
  "355": " happ",
  "356": "ily",
  "357": " do",
  "358": "all",
  "359": " not",
  "360": "ext",
  "361": "riend",
  "362": " friend",
  "363": "her",
  "364": "ve",
  "365": " li",
  "366": " had",
  "367": "oft",
  "368": " up",
  "369": "ad",
  "370": " they",
  "371": " we",
  "372": " want",
  "373": " of",
  "374": "st",
  "375": "<|",
  "376": "|>",
  "377": "endoft",
  "378": "endoftext",
  "379": " B",
  "380": " M",
  "381": "itt",
  "382": "se",
  "383": " mom",
  "384": " e",
  "385": "ent",
  "386": " happy",
  "387": "'s",
  "388": " that",
  "389": "One",
  "390": " saw",
  "391": " sh",
  "392": " very",
  "393": " for",
  "394": "ould",
  "395": "ittle",
  "396": " k",
  "397": " little",
  "398": " Lily",
  "399": ".\"",
  "400": " tim",
  "401": "ound",
  "402": " time",
  "403": "amed",
  "404": "ch",
  "405": " so",
  "406": " sm",
  "407": " she",
  "408": " named",
  "409": " Tom",
  "410": " there",
  "411": " were",
  "412": "!\"",
  "413": "The",
  "414": " It",
  "415": " but",
  "416": "out",
  "417": " ne",
  "418": "ved",
  "419": " bo",
  "420": " wanted",
  "421": " is",
  "422": "el",
  "423": " an",
  "424": "ug",
  "425": " went",
  "426": " friends",
  "427": "ter",
  "428": "ide",
  "429": "al",
  "430": "ht",
  "431": "ome",
  "432": " too",
  "433": "ird",
  "434": "ry",
  "435": " wh",
  "436": "Once",
  "437": " bird",
  "438": " lo",
  "439": " hel",
  "440": "ill",
  "441": "ake",
  "442": " help",
  "443": " loo",
  "444": " did",
  "445": "ue",
  "446": " upon",
  "447": " all",
  "448": "ame",
  "449": " j",
  "450": " fun",
  "451": " toy",
  "452": "get",
  "453": "ore",
  "454": " dog",
  "455": " ba",
  "456": " as",
  "457": " o",
  "458": "ur",
  "459": " at",
  "460": "gether",
  "461": " re",
  "462": " together",
  "463": "ain",
  "464": "ly",
  "465": " A",
  "466": " se",
  "467": "ind",
  "468": " tre",
  "469": " ro",
  "470": " cat",
  "471": "ted",
  "472": "ood",
  "473": " can",
  "474": " fr",
  "475": " are",
  "476": "ec",
  "477": "ic",
  "478": "ax",
  "479": "ra",
  "480": " their",
  "481": " played",
  "482": "ark",
  "483": " him",
  "484": " kn",
  "485": " sad",
  "486": " go",
  "487": " ball",
  "488": " could",
  "489": "'t",
  "490": "hen",
  "491": "way",
  "492": " le",
  "493": " man",
  "494": "ard",
  "495": "hed",
  "496": "um",
  "497": " star",
  "498": " tree",
  "499": " out",
  "500": " boy",
  "501": " them",
  "502": "other",
  "503": " have",
  "504": " loved",
  "505": "?\"",
  "506": " Max",
  "507": "ul",
  "508": " back",
  "509": " found",
  "510": " cl",
  "511": " gir",
  "512": " looked",
  "513": "hing",
  "514": " girl",
  "515": " ca",
  "516": " sc",
  "517": " Sue",
  "518": " But",
  "519": "oug",
  "520": " sp",
  "521": " park",
  "522": "ong",
  "523": "my",
  "524": " like",
  "525": " me",
  "526": " bec",
  "527": "ful",
  "528": "own",
  "529": " say",
  "530": "one",
  "531": " started",
  "532": "side",
  "533": "omet",
  "534": "round",
  "535": " la",
  "536": "elt",
  "537": " ag",
  "538": " car",
  "539": " came",
  "540": " fa",
  "541": "ouse",
  "542": " would",
  "543": " felt",
  "544": " Sam",
  "545": " see",
  "546": "pot",
  "547": " liked",
  "548": "You",
  "549": " new",
  "550": " no",
  "551": "ell",
  "552": " somet",
  "553": " small",
  "554": " mad",
  "555": "ob",
  "556": " One",
  "557": "ight",
  "558": " al",
  "559": " W",
  "560": "ia",
  "561": "ared",
  "562": "iled",
  "563": " Spot",
  "564": " other",
  "565": "op",
  "566": "ice",
  "567": " asked",
  "568": "ried",
  "569": "ings",
  "570": " make",
  "571": "arn",
  "572": " made",
  "573": "ss",
  "574": " put",
  "575": " good",
  "576": "ought",
  "577": "ook",
  "578": " smiled",
  "579": "est",
  "580": "ened",
  "581": " wor",
  "582": " co",
  "583": "ish",
  "584": " from",
  "585": " something",
  "586": "dd",
  "587": " away",
  "588": " playing",
  "589": " down",
  "590": " what",
  "591": " house",
  "592": " again",
  "593": " J",
  "594": "ty",
  "595": " says",
  "596": "us",
  "597": " ran",
  "598": " will",
  "599": " br",
  "600": "ag",
  "601": "uc",
  "602": " toys",
  "603": " home",
  "604": "ick",
  "605": " Ben",
  "606": " thought",
  "607": " sw",
  "608": " find",
  "609": " laug",
  "610": "uck",
  "611": " my",
  "612": " fe",
  "613": "ust",
  "614": " around",
  "615": " F",
  "616": " your",
  "617": " learn",
  "618": "ak",
  "619": " fl",
  "620": "ile",
  "621": " took",
  "622": " some",
  "623": " every",
  "624": " scared",
  "625": "ucy",
  "626": "ff",
  "627": " sun",
  "628": " pr",
  "629": " ex",
  "630": " when",
  "631": " wal",
  "632": " lived",
  "633": " then",
  "634": " You",
  "635": "ie",
  "636": "ump",
  "637": ",\"",
  "638": "ant",
  "639": "ep",
  "640": "oth",
  "641": " pre",
  "642": " look",
  "643": " know",
  "644": " Mia",
  "645": " ab",
  "646": " po",
  "647": "ure",
  "648": "ach",
  "649": " things",
  "650": "ny",
  "651": " lot",
  "652": " got",
  "653": "ap",
  "654": " water",
  "655": "pped",
  "656": "oud",
  "657": " kne",
  "658": " hug",
  "659": " ch",
  "660": " Lucy",
  "661": "uch",
  "662": " Bob",
  "663": " box",
  "664": " tried",
  "665": " any",
  "666": " who",
  "667": "as",
  "668": "qu",
  "669": " get",
  "670": " care",
  "671": "fter",
  "672": "ite",
  "673": " dec",
  "674": " dad",
  "675": " about",
  "676": "Th",
  "677": "nder",
  "678": "ited",
  "679": " pe",
  "680": " more",
  "681": "ally",
  "682": "use",
  "683": "Tim",
  "684": "ara",
  "685": " int",
  "686": " D",
  "687": "ist",
  "688": "Lily",
  "689": " fish",
  "690": "are",
  "691": " many",
  "692": " pret",
  "693": "ble",
  "694": "�",
  "695": " So",
  "696": " room",
  "697": " knew",
  "698": "udd",
  "699": "ink",
  "700": " learned",
  "701": " v",
  "702": " tr",
  "703": " sor",
  "704": " Mom",
  "705": " sl",
  "706": "ave",
  "707": "ause",
  "708": "urp",
  "709": " laughed",
  "710": " E",
  "711": " than",
  "712": " run",
  "713": " feel",
  "714": "ace",
  "715": "ull",
  "716": " bl",
  "717": " gi",
  "718": " became",
  "719": "ous",
  "720": " red",
  "721": " outside",
  "722": " because",
  "723": "og",
  "724": " long",
  "725": "ess",
  "726": " ke",
  "727": " gre",
  "728": "Tom",
  "729": " told",
  "730": " ho",
  "731": "They",
  "732": " jump",
  "733": " rock",
  "734": "ided",
  "735": " un",
  "736": " pic",
  "737": " decided",
  "738": "ise",
  "739": " one",
  "740": " both",
  "741": " best",
  "742": " And",
  "743": " exc",
  "744": "iny",
  "745": " op",
  "746": " into",
  "747": " eat",
  "748": "ers",
  "749": " show",
  "750": " this",
  "751": " sorry",
  "752": " gra",
  "753": "ways",
  "754": " always",
  "755": " ta",
  "756": " mo",
  "757": " inside",
  "758": " under",
  "759": "urpr",
  "760": "Yes",
  "761": "ven",
  "762": "lew",
  "763": " didn",
  "764": " fast",
  "765": " surpr",
  "766": " nice",
  "767": " excited",
  "768": "by",
  "769": " tow",
  "770": "ised",
  "771": " much",
  "772": " need",
  "773": "But",
  "774": " cle",
  "775": " each",
  "776": " old",
  "777": "ged",
  "778": "ank",
  "779": " tur",
  "780": " str",
  "781": " list",
  "782": " happened",
  "783": " am",
  "784": "our",
  "785": "etter",
  "786": " pretty",
  "787": "lor",
  "788": " sk",
  "789": " dan",
  "790": " clo",
  "791": " ide",
  "792": " how",
  "793": " fi",
  "794": " just",
  "795": "ge",
  "796": " gave",
  "797": " us",
  "798": "Wh",
  "799": "ion",
  "800": "here",
  "801": " kind",
  "802": " or",
  "803": "gry",
  "804": "ate",
  "805": " stor",
  "806": " idea",
  "807": "if",
  "808": "ine",
  "809": " We",
  "810": " bug",
  "811": " book",
  "812": "igh",
  "813": " wat",
  "814": " near",
  "815": "ched",
  "816": "na",
  "817": "ving",
  "818": " take",
  "819": " color",
  "820": " clean",
  "821": " en",
  "822": " better",
  "823": "ase",
  "824": " food",
  "825": " if",
  "826": "imal",
  "827": " hand",
  "828": " its",
  "829": " animal",
  "830": " doll",
  "831": " never",
  "832": "uff",
  "833": " Sara",
  "834": " walk",
  "835": "more",
  "836": "rom",
  "837": " fly",
  "838": " flew",
  "839": " walked",
  "840": " anymore",
  "841": " C",
  "842": "eci",
  "843": "em",
  "844": "oll",
  "845": " speci",
  "846": " turn",
  "847": " special",
  "848": " tw",
  "849": " try",
  "850": "Let",
  "851": "fe",
  "852": " mag",
  "853": " His",
  "854": " share",
  "855": " careful",
  "856": " surprised",
  "857": "\n\n",
  "858": "ro",
  "859": "udden",
  "860": " sky",
  "861": " P",
  "862": " heard",
  "863": " shiny",
  "864": " frog",
  "865": " by",
  "866": " Th",
  "867": " di",
  "868": " cake",
  "869": "ople",
  "870": " lots",
  "871": "nna",
  "872": "rm",
  "873": " Her",
  "874": " love",
  "875": "uffy",
  "876": "bb",
  "877": "dy",
  "878": " come",
  "879": " people",
  "880": "uddenly",
  "881": " don",
  "882": " gl",
  "883": " animals",
  "884": " bu",
  "885": " let",
  "886": " door",
  "887": "zz",
  "888": " pa",
  "889": "ort",
  "890": "urt",
  "891": " thanked",
  "892": " end",
  "893": " app",
  "894": " far",
  "895": " still",
  "896": " hugged",
  "897": " Every",
  "898": "pec",
  "899": " high",
  "900": " im",
  "901": " qu",
  "902": "'m",
  "903": " bad",
  "904": " clim",
  "905": "kay",
  "906": "row",
  "907": " after",
  "908": " even",
  "909": " kid",
  "910": " listen",
  "911": " climb",
  "912": "pl",
  "913": " hard",
  "914": " bear",
  "915": " way",
  "916": " Then",
  "917": " rain",
  "918": " sn",
  "919": " fore",
  "920": "ream",
  "921": " flow",
  "922": "Thank",
  "923": "It",
  "924": " loud",
  "925": " magic",
  "926": " kids",
  "927": " safe",
  "928": "illy",
  "929": " stick",
  "930": " ever",
  "931": " read",
  "932": "ger",
  "933": "luffy",
  "934": " From",
  "935": " opened",
  "936": " story",
  "937": " hurt",
  "938": " com",
  "939": " mak",
  "940": " over",
  "941": " proud",
  "942": "Mom",
  "943": "ves",
  "944": " cry",
  "945": " next",
  "946": " slide",
  "947": "lease",
  "948": " tal",
  "949": " happily",
  "950": " off",
  "951": " picked",
  "952": "and",
  "953": "expec",
  "954": " blue",
  "955": " jumped",
  "956": " unexpec",
  "957": " unexpected",
  "958": "No",
  "959": "ack",
  "960": "hes",
  "961": " ground",
  "962": " thre",
  "963": " angry",
  "964": " give",
  "965": "lf",
  "966": " think",
  "967": " In",
  "968": " R",
  "969": "As",
  "970": "irst",
  "971": "ct",
  "972": " bea",
  "973": " should",
  "974": "ning",
  "975": " fam",
  "976": "ough",
  "977": " bro",
  "978": " soft",
  "979": " de",
  "980": "ild",
  "981": "uti",
  "982": " unt",
  "983": "ool",
  "984": " while",
  "985": " work",
  "986": " town",
  "987": "ere",
  "988": "pt",
  "989": "ummy",
  "990": " Fluffy",
  "991": " wind",
  "992": " imp",
  "993": " beauti",
  "994": " beautiful",
  "995": "When",
  "996": " great",
  "997": " forest",
  "998": " pain",
  "999": " call",
  "1000": " met",
  "1001": " Sally",
  "1002": " gard",
  "1003": " smile",
  "1004": "Then",
  "1005": " clos",
  "1006": " watch",
  "1007": " garden",
  "1008": " now",
  "1009": " When",
  "1010": " until",
  "1011": "so",
  "1012": " also",
  "1013": " apple",
  "1014": " family",
  "1015": "ze",
  "1016": " te",
  "1017": " warm",
  "1018": " par",
  "1019": " pus",
  "1020": " mor",
  "1021": " ra",
  "1022": "be",
  "1023": "uit",
  "1024": " pull",
  "1025": "ane",
  "1026": " place",
  "1027": " ask",
  "1028": " showed",
  "1029": " K",
  "1030": "ive",
  "1031": " dra",
  "1032": " has",
  "1033": " hat",
  "1034": " two",
  "1035": " cu",
  "1036": " stay",
  "1037": "dded",
  "1038": "ber",
  "1039": " pu",
  "1040": " Let",
  "1041": " cars",
  "1042": " strong",
  "1043": " kept",
  "1044": "Look",
  "1045": "ies",
  "1046": "ture",
  "1047": " che",
  "1048": "ary",
  "1049": "fore",
  "1050": "ange",
  "1051": "itty",
  "1052": " lost",
  "1053": " pond",
  "1054": " used",
  "1055": " colors",
  "1056": " squ",
  "1057": " first",
  "1058": " sto",
  "1059": "stle",
  "1060": " Anna",
  "1061": " green",
  "1062": " picture",
  "1063": "He",
  "1064": " song",
  "1065": "iss",
  "1066": "ired",
  "1067": " before",
  "1068": " helped",
  "1069": " catch",
  "1070": " agre",
  "1071": " everyone",
  "1072": " dr",
  "1073": " mess",
  "1074": " sho",
  "1075": " jo",
  "1076": " noise",
  "1077": " nodded",
  "1078": " farm",
  "1079": " import",
  "1080": " stopped",
  "1081": " where",
  "1082": " use",
  "1083": "unny",
  "1084": " �",
  "1085": "Now",
  "1086": "oom",
  "1087": " bed",
  "1088": " having",
  "1089": " rem",
  "1090": "After",
  "1091": " bre",
  "1092": " fell",
  "1093": " mon",
  "1094": " hear",
  "1095": " yummy",
  "1096": " lea",
  "1097": " swing",
  "1098": " keep",
  "1099": " diff",
  "1100": " important",
  "1101": "ass",
  "1102": " sing",
  "1103": " okay",
  "1104": "That",
  "1105": " flowers",
  "1106": " called",
  "1107": "day",
  "1108": "led",
  "1109": "man",
  "1110": " game",
  "1111": "ath",
  "1112": " thing",
  "1113": "owl",
  "1114": " right",
  "1115": " yard",
  "1116": " yell",
  "1117": " ate",
  "1118": " fruit",
  "1119": " Wh",
  "1120": " sunny",
  "1121": "ud",
  "1122": " ad",
  "1123": " wr",
  "1124": " mouse",
  "1125": "age",
  "1126": "”",
  "1127": " open",
  "1128": " fix",
  "1129": " z",
  "1130": "Hi",
  "1131": "ft",
  "1132": " wo",
  "1133": " top",
  "1134": " dre",
  "1135": " pi",
  "1136": " being",
  "1137": " boat",
  "1138": " bag",
  "1139": "ced",
  "1140": "oon",
  "1141": "vent",
  "1142": " tired",
  "1143": " sound",
  "1144": " pick",
  "1145": "ished",
  "1146": " Jo",
  "1147": " Do",
  "1148": "olly",
  "1149": " draw",
  "1150": "air",
  "1151": " bra",
  "1152": " sat",
  "1153": "ute",
  "1154": " hole",
  "1155": " talk",
  "1156": "erent",
  "1157": " different",
  "1158": " duck",
  "1159": " cried",
  "1160": "imes",
  "1161": "key",
  "1162": " mean",
  "1163": " face",
  "1164": " worked",
  "1165": " Kitty",
  "1166": " “",
  "1167": " fin",
  "1168": "aybe",
  "1169": " store",
  "1170": " forg",
  "1171": "ught",
  "1172": "Sara",
  "1173": "We",
  "1174": "ip",
  "1175": " tall",
  "1176": " wait",
  "1177": " soon",
  "1178": " real",
  "1179": " flo",
  "1180": " hands",
  "1181": " ri",
  "1182": "ma",
  "1183": "ting",
  "1184": "leep",
  "1185": "cks",
  "1186": " ey",
  "1187": " going",
  "1188": " castle",
  "1189": " Jane",
  "1190": " turned",
  "1191": " head",
  "1192": " sand",
  "1193": " agreed",
  "1194": " bunny",
  "1195": "ount",
  "1196": "ation",
  "1197": " friendly",
  "1198": "ember",
  "1199": " moral",
  "1200": "Hell",
  "1201": "ached",
  "1202": " gr",
  "1203": "orn",
  "1204": " kit",
  "1205": " Amy",
  "1206": "aper",
  "1207": "Hello",
  "1208": " Now",
  "1209": "chen",
  "1210": "ear",
  "1211": "gan",
  "1212": " hot",
  "1213": " race",
  "1214": " stop",
  "1215": " shout",
  "1216": " fav",
  "1217": " others",
  "1218": "What",
  "1219": " closer",
  "1220": " kitchen",
  "1221": "Can",
  "1222": "eet",
  "1223": "ied",
  "1224": "oc",
  "1225": "thing",
  "1226": "ub",
  "1227": " beh",
  "1228": " lion",
  "1229": " another",
  "1230": " birds",
  "1231": " Dad",
  "1232": " vo",
  "1233": " needed",
  "1234": " dance",
  "1235": " curi",
  "1236": " our",
  "1237": "Mia",
  "1238": "kes",
  "1239": "tle",
  "1240": " tri",
  "1241": " does",
  "1242": " mommy",
  "1243": " reached",
  "1244": " trees",
  "1245": " couldn",
  "1246": " cold",
  "1247": " laugh",
  "1248": "’",
  "1249": " party",
  "1250": " floor",
  "1251": " eyes",
  "1252": " curious",
  "1253": " G",
  "1254": "Ben",
  "1255": " hun",
  "1256": "orite",
  "1257": " Le",
  "1258": "icy",
  "1259": "ollow",
  "1260": " remember",
  "1261": " brave",
  "1262": " favorite",
  "1263": "Don",
  "1264": "Sam",
  "1265": "hn",
  "1266": "ix",
  "1267": "iz",
  "1268": "th",
  "1269": " here",
  "1270": " Timmy",
  "1271": " smell",
  "1272": " worry",
  "1273": " truck",
  "1274": "bbit",
  "1275": "Wow",
  "1276": "where",
  "1277": " follow",
  "1278": " shared",
  "1279": "ucky",
  "1280": " fire",
  "1281": "Max",
  "1282": "der",
  "1283": " sleep",
  "1284": "aring",
  "1285": " pretend",
  "1286": " making",
  "1287": " paint",
  "1288": " monkey",
  "1289": " Z",
  "1290": "At",
  "1291": "rel",
  "1292": " dir",
  "1293": " please",
  "1294": " paper",
  "1295": " mix",
  "1296": "ign",
  "1297": " sees",
  "1298": " tail",
  "1299": " tast",
  "1300": " books",
  "1301": " Can",
  "1302": " threw",
  "1303": " rabbit",
  "1304": "She",
  "1305": "ious",
  "1306": "ng",
  "1307": "oy",
  "1308": " night",
  "1309": " All",
  "1310": " fair",
  "1311": " bright",
  "1312": " swim",
  "1313": " build",
  "1314": "joy",
  "1315": " wet",
  "1316": " bus",
  "1317": " full",
  "1318": " began",
  "1319": "self",
  "1320": " As",
  "1321": " move",
  "1322": " walking",
  "1323": " quick",
  "1324": "bo",
  "1325": " tra",
  "1326": " hid",
  "1327": " lad",
  "1328": " stuck",
  "1329": " helping",
  "1330": " baby",
  "1331": " looks",
  "1332": " train",
  "1333": " dress",
  "1334": "Suddenly",
  "1335": "ken",
  "1336": " wood",
  "1337": "eddy",
  "1338": " cre",
  "1339": " gu",
  "1340": " plan",
  "1341": " spl",
  "1342": " sometimes",
  "1343": " Jack",
  "1344": " looking",
  "1345": " feeling",
  "1346": " table",
  "1347": " watched",
  "1348": " This",
  "1349": " climbed",
  "1350": "ton",
  "1351": " hill",
  "1352": " alone",
  "1353": " running",
  "1354": " blo",
  "1355": " giant",
  "1356": " grass",
  "1357": " enjoy",
  "1358": " makes",
  "1359": " broken",
  "1360": " advent",
  "1361": " voice",
  "1362": " own",
  "1363": "Sue",
  "1364": "able",
  "1365": "cle",
  "1366": " tiny",
  "1367": " pow",
  "1368": " cool",
  "1369": " mar",
  "1370": " mus",
  "1371": "irrel",
  "1372": " bigger",
  "1373": " doing",
  "1374": " rob",
  "1375": " sweet",
  "1376": " prom",
  "1377": " close",
  "1378": " That",
  "1379": " glad",
  "1380": " squirrel",
  "1381": " bit",
  "1382": " bot",
  "1383": " din",
  "1384": " pig",
  "1385": " med",
  "1386": " grow",
  "1387": " moment",
  "1388": " ele",
  "1389": " butter",
  "1390": " white",
  "1391": " repl",
  "1392": " roll",
  "1393": "bye",
  "1394": " danced",
  "1395": "Why",
  "1396": " hungry",
  "1397": " air",
  "1398": " wag",
  "1399": " dis",
  "1400": "ather",
  "1401": " ste",
  "1402": " likes",
  "1403": " Mr",
  "1404": " why",
  "1405": " ju",
  "1406": " brother",
  "1407": " listened",
  "1408": " quickly",
  "1409": " adventure",
  "1410": "lie",
  "1411": " tak",
  "1412": " wall",
  "1413": " pen",
  "1414": " cook",
  "1415": "lla",
  "1416": "ater",
  "1417": " expl",
  "1418": " farmer",
  "1419": " Leo",
  "1420": " robot",
  "1421": "Jo",
  "1422": " fis",
  "1423": " less",
  "1424": " per",
  "1425": "ered",
  "1426": " Suddenly",
  "1427": " slow",
  "1428": "bbed",
  "1429": "zzle",
  "1430": " shouted",
  "1431": " butterf",
  "1432": "So",
  "1433": "az",
  "1434": "ol",
  "1435": "up",
  "1436": " hop",
  "1437": " gent",
  "1438": " gone",
  "1439": " wants",
  "1440": " shap",
  "1441": "ect",
  "1442": "ssed",
  "1443": " Momo",
  "1444": " hold",
  "1445": " trying",
  "1446": " snow",
  "1447": " puzzle",
  "1448": "Oh",
  "1449": "pe",
  "1450": "ree",
  "1451": " dark",
  "1452": " cream",
  "1453": " mout",
  "1454": "ord",
  "1455": "pper",
  "1456": " flute",
  "1457": " everywhere",
  "1458": " anything",
  "1459": " coming",
  "1460": " pulled",
  "1461": " yellow",
  "1462": " forgot",
  "1463": " mouth",
  "1464": " ice",
  "1465": "'re",
  "1466": "Anna",
  "1467": "ac",
  "1468": "ner",
  "1469": "red",
  "1470": "ray",
  "1471": " touch",
  "1472": " pat",
  "1473": " nest",
  "1474": "une",
  "1475": " funny",
  "1476": " sea",
  "1477": " cla",
  "1478": " cand",
  "1479": " land",
  "1480": "ash",
  "1481": " thinks",
  "1482": " join",
  "1483": " behind",
  "1484": " dirty",
  "1485": " blocks",
  "1486": " tell",
  "1487": " na",
  "1488": " stand",
  "1489": " only",
  "1490": "herman",
  "1491": " spot",
  "1492": "asure",
  "1493": "uddle",
  "1494": " vis",
  "1495": " surprise",
  "1496": " ready",
  "1497": " pushed",
  "1498": " Joe",
  "1499": " music",
  "1500": " fisherman",
  "1501": " lesson",
  "1502": " owl",
  "1503": "Okay",
  "1504": "lc",
  "1505": "sh",
  "1506": " ant",
  "1507": " whe",
  "1508": "ins",
  "1509": " waited",
  "1510": "ret",
  "1511": " pet",
  "1512": " con",
  "1513": " reach",
  "1514": " left",
  "1515": " goodbye",
  "1516": " word",
  "1517": " rocks",
  "1518": " grand",
  "1519": " underst",
  "1520": " tower",
  "1521": "room",
  "1522": " broke",
  "1523": " leaves",
  "1524": " set",
  "1525": " barn",
  "1526": " blew",
  "1527": " fo",
  "1528": " fall",
  "1529": "oup",
  "1530": " might",
  "1531": " held",
  "1532": "ppy",
  "1533": "pping",
  "1534": "ster",
  "1535": " button",
  "1536": " rest",
  "1537": "oney",
  "1538": " swam",
  "1539": "uddy",
  "1540": " grabbed",
  "1541": " eng",
  "1542": " flying",
  "1543": " three",
  "1544": " replied",
  "1545": " juice",
  "1546": " butterfly",
  "1547": "In",
  "1548": "ee",
  "1549": "ph",
  "1550": " cow",
  "1551": "less",
  "1552": "ila",
  "1553": " plant",
  "1554": " round",
  "1555": " been",
  "1556": " note",
  "1557": " seen",
  "1558": " balloon",
  "1559": " chair",
  "1560": " faster",
  "1561": " amaz",
  "1562": " break",
  "1563": " wonder",
  "1564": " bottle",
  "1565": " dinner",
  "1566": " perf",
  "1567": "que",
  "1568": " fill",
  "1569": " fur",
  "1570": " done",
  "1571": " puddle",
  "1572": " kite",
  "1573": " smar",
  "1574": " rec",
  "1575": " key",
  "1576": " flower",
  "1577": " drink",
  "1578": "Lucy",
  "1579": "rough",
  "1580": " bor",
  "1581": " fan",
  "1582": " del",
  "1583": " pink",
  "1584": " count",
  "1585": " ma",
  "1586": " must",
  "1587": " king",
  "1588": " Tommy",
  "1589": " really",
  "1590": " start",
  "1591": " prin",
  "1592": "ield",
  "1593": "This",
  "1594": " colorful",
  "1595": " Everyone",
  "1596": " remembered",
  "1597": " visit",
  "1598": "Her",
  "1599": "bow",
  "1600": "gle",
  "1601": "vy",
  "1602": " silly",
  "1603": " win",
  "1604": " won",
  "1605": " wise",
  "1606": " dream",
  "1607": " miss",
  "1608": " name",
  "1609": "ance",
  "1610": " through",
  "1611": " happen",
  "1612": " Bl",
  "1613": " Maybe",
  "1614": " After",
  "1615": " rainbow",
  "1616": " push",
  "1617": " creat",
  "1618": " medal",
  "1619": " engine",
  "1620": "ient",
  "1621": "me",
  "1622": "ost",
  "1623": " ar",
  "1624": " bowl",
  "1625": " tooth",
  "1626": " today",
  "1627": " fit",
  "1628": " fight",
  "1629": " There",
  "1630": " same",
  "1631": " hair",
  "1632": "othes",
  "1633": "oop",
  "1634": "unch",
  "1635": " Billy",
  "1636": "eces",
  "1637": " clothes",
  "1638": " Fin",
  "1639": " someone",
  "1640": " Bobo",
  "1641": " Ella",
  "1642": " hopped",
  "1643": " turns",
  "1644": " wrong",
  "1645": " pieces",
  "1646": "ized",
  "1647": " fairy",
  "1648": " lady",
  "1649": " enjoyed",
  "1650": " promised",
  "1651": " O",
  "1652": "lse",
  "1653": " arm",
  "1654": " ban",
  "1655": " free",
  "1656": " dri",
  "1657": " dro",
  "1658": " light",
  "1659": " pie",
  "1660": " cra",
  "1661": " mat",
  "1662": "enny",
  "1663": "ries",
  "1664": " ride",
  "1665": " yog",
  "1666": " else",
  "1667": " smo",
  "1668": "iced",
  "1669": " world",
  "1670": " Soon",
  "1671": " thank",
  "1672": " buy",
  "1673": "zza",
  "1674": " talked",
  "1675": " pictures",
  "1676": "Do",
  "1677": "Spot",
  "1678": "pes",
  "1679": " sign",
  "1680": " hor",
  "1681": " waved",
  "1682": " dry",
  "1683": " lunch",
  "1684": " corn",
  "1685": "ames",
  "1686": " oven",
  "1687": " At",
  "1688": " rope",
  "1689": " brought",
  "1690": " prune",
  "1691": " huge",
  "1692": " Ducky",
  "1693": " strange",
  "1694": " orange",
  "1695": " dolls",
  "1696": " finished",
  "1697": " shapes",
  "1698": " smart",
  "1699": "\".",
  "1700": "iet",
  "1701": "os",
  "1702": "ond",
  "1703": "rot",
  "1704": " tight",
  "1705": " buck",
  "1706": " purp",
  "1707": "ats",
  "1708": " year",
  "1709": " well",
  "1710": "ely",
  "1711": " scre",
  "1712": " scary",
  "1713": " pol",
  "1714": " quiet",
  "1715": " comp",
  "1716": "ctor",
  "1717": " deep",
  "1718": " apples",
  "1719": " leaf",
  "1720": " woods",
  "1721": " eleph",
  "1722": " explore",
  "1723": " clapped",
  "1724": " understand",
  "1725": " elephant",
  "1726": "Bob",
  "1727": "full",
  "1728": "gg",
  "1729": "ike",
  "1730": "ming",
  "1731": " ac",
  "1732": " sis",
  "1733": " sure",
  "1734": " hit",
  "1735": "ined",
  "1736": "isy",
  "1737": " sang",
  "1738": " egg",
  "1739": " swings",
  "1740": " runs",
  "1741": " paw",
  "1742": " crying",
  "1743": " deer",
  "1744": " stayed",
  "1745": " What",
  "1746": " John",
  "1747": " horse",
  "1748": " bucket",
  "1749": "fully",
  "1750": " wished",
  "1751": "ina",
  "1752": " inc",
  "1753": " doctor",
  "1754": " welc",
  "1755": " Buddy",
  "1756": " sharing",
  "1757": " job",
  "1758": " spin",
  "1759": " bran",
  "1760": " shoes",
  "1761": " followed",
  "1762": " power",
  "1763": "aff",
  "1764": "cked",
  "1765": "ible",
  "1766": "mma",
  "1767": " wish",
  "1768": " hide",
  "1769": " To",
  "1770": " min",
  "1771": " mother",
  "1772": " hea",
  "1773": " ru",
  "1774": " yes",
  "1775": " Lila",
  "1776": " noticed",
  "1777": " em",
  "1778": " jar",
  "1779": " jun",
  "1780": " caught",
  "1781": " few",
  "1782": "umpy",
  "1783": " feels",
  "1784": "While",
  "1785": "gerous",
  "1786": " asks",
  "1787": " rolled",
  "1788": "John",
  "1789": " gentle",
  "1790": " perfect",
  "1791": " piece",
  "1792": " sister",
  "1793": " welcome",
  "1794": "Just",
  "1795": "ket",
  "1796": "not",
  "1797": "set",
  "1798": "sket",
  "1799": " suddenly",
  "1800": " bath",
  "1801": " cute",
  "1802": " cray",
  "1803": " mine",
  "1804": " sack",
  "1805": " games",
  "1806": "amond",
  "1807": " throw",
  "1808": "rill",
  "1809": " days",
  "1810": " bell",
  "1811": "itting",
  "1812": " je",
  "1813": " basket",
  "1814": " sec",
  "1815": " cannot",
  "1816": " laughing",
  "1817": " getting",
  "1818": " peace",
  "1819": " gift",
  "1820": " dangerous",
  "1821": " bugs",
  "1822": " diamond",
  "1823": " smiles",
  "1824": " singing",
  "1825": " pizza",
  "1826": " candy",
  "1827": " Blue",
  "1828": " purple",
  "1829": " heavy",
  "1830": " crayon",
  "1831": "\n ",
  "1832": "!”",
  "1833": ".”",
  "1834": "His",
  "1835": "bled",
  "1836": "cy",
  "1837": "ead",
  "1838": "pet",
  "1839": " wings",
  "1840": " bike",
  "1841": " lake",
  "1842": "irr",
  "1843": " Molly",
  "1844": "itter",
  "1845": " shad",
  "1846": "illage",
  "1847": " leave",
  "1848": " carpet",
  "1849": " carefully",
  "1850": " village",
  "1851": " Sarah",
  "1852": " Inside",
  "1853": " closed",
  "1854": "Hey",
  "1855": "ude",
  "1856": " snowman",
  "1857": " delic",
  "1858": " banan",
  "1859": "Maybe",
  "1860": "cing",
  "1861": "sp",
  "1862": " tap",
  "1863": " sitting",
  "1864": " bite",
  "1865": "ining",
  "1866": " des",
  "1867": " pers",
  "1868": "isk",
  "1869": "arp",
  "1870": " gem",
  "1871": "lex",
  "1872": "amp",
  "1873": " without",
  "1874": " stone",
  "1875": " sharp",
  "1876": " sheep",
  "1877": " roar",
  "1878": " himself",
  "1879": " coin",
  "1880": " poin",
  "1881": " Bobby",
  "1882": " daddy",
  "1883": " Emma",
  "1884": " stories",
  "1885": " enough",
  "1886": " twins",
  "1887": " Please",
  "1888": " snee",
  "1889": " window",
  "1890": " morning",
  "1891": " zoom",
  "1892": " sounds",
  "1893": " ducks",
  "1894": "ughty",
  "1895": "ountain",
  "1896": " tasty",
  "1897": " naughty",
  "1898": " grandma",
  "1899": " amazing",
  "1900": " dropped",
  "1901": "From",
  "1902": "azz",
  "1903": "bble",
  "1904": "med",
  "1905": "zy",
  "1906": " teddy",
  "1907": " wra",
  "1908": " hoop",
  "1909": "oun",
  "1910": " pile",
  "1911": " path",
  "1912": " nap",
  "1913": " living",
  "1914": " kiss",
  "1915": " jam",
  "1916": " jour",
  "1917": " cloud",
  "1918": " spicy",
  "1919": " last",
  "1920": "icken",
  "1921": " chicken",
  "1922": "arent",
  "1923": " moved",
  "1924": " woke",
  "1925": " river",
  "1926": " grumpy",
  "1927": "box",
  "1928": " wheel",
  "1929": " secret",
  "1930": " journ",
  "1931": "aisy",
  "1932": "cess",
  "1933": "fish",
  "1934": "ps",
  "1935": "sw",
  "1936": " sit",
  "1937": " side",
  "1938": " hon",
  "1939": " lon",
  "1940": " parent",
  "1941": " cut",
  "1942": " mud",
  "1943": " money",
  "1944": "erri",
  "1945": "irit",
  "1946": "iling",
  "1947": " plate",
  "1948": " stri",
  "1949": "lder",
  "1950": "una",
  "1951": " Be",
  "1952": " shining",
  "1953": " answ",
  "1954": " leg",
  "1955": "ards",
  "1956": " nod",
  "1957": " nose",
  "1958": " able",
  "1959": " Mommy",
  "1960": " slid",
  "1961": " Ch",
  "1962": " magical",
  "1963": " cont",
  "1964": " filled",
  "1965": "iskers",
  "1966": " lonely",
  "1967": "'ll",
  "1968": "Please",
  "1969": "St",
  "1970": "emy",
  "1971": "ipped",
  "1972": " terri",
  "1973": " fil",
  "1974": " cri",
  "1975": " cher",
  "1976": " mum",
  "1977": "irt",
  "1978": " rad",
  "1979": " dogs",
  "1980": " ash",
  "1981": " treasure",
  "1982": " road",
  "1983": " spirit",
  "1984": " carrot",
  "1985": "epend",
  "1986": " hugs",
  "1987": " chas",
  "1988": " past",
  "1989": " finally",
  "1990": " hiding",
  "1991": " landed",
  "1992": " -",
  "1993": " On",
  "1994": "co",
  "1995": "ches",
  "1996": "ey",
  "1997": "iant",
  "1998": "ned",
  "1999": "rat",
  "2000": "udy",
  "2001": " bar",
  "2002": " fake",
  "2003": "itch",
  "2004": " dig",
  "2005": " late",
  "2006": " lucky",
  "2007": " pot",
  "2008": " pool",
  "2009": " map",
  "2010": " mirr",
  "2011": "isa",
  "2012": "llie",
  "2013": "ano",
  "2014": "ench",
  "2015": "orm",
  "2016": " bel",
  "2017": " belie",
  "2018": "vel",
  "2019": " rel",
  "2020": " scar",
  "2021": " puts",
  "2022": "used",
  "2023": "usie",
  "2024": " feed",
  "2025": " child",
  "2026": " careless",
  "2027": " eating",
  "2028": "ross",
  "2029": " Thank",
  "2030": " glass",
  "2031": " pass",
  "2032": " square",
  "2033": " joy",
  "2034": " heart",
  "2035": " Whiskers",
  "2036": " realized",
  "2037": " tries",
  "2038": " wagged",
  "2039": " words",
  "2040": " yoga",
  "2041": " years",
  "2042": " person",
  "2043": " mirror",
  "2044": "Fin",
  "2045": "My",
  "2046": "ast",
  "2047": "eared",
  "2048": "ire",
  "2049": "ove",
  "2050": "pa",
  "2051": "sy",
  "2052": "ued",
  "2053": " such",
  "2054": " sna",
  "2055": " bake",
  "2056": " hig",
  "2057": " field",
  "2058": " mot",
  "2059": "erv",
  "2060": " sal",
  "2061": "atter",
  "2062": "anger",
  "2063": "lem",
  "2064": "ircle",
  "2065": " yarn",
  "2066": " stre",
  "2067": " stream",
  "2068": " beach",
  "2069": "itten",
  "2070": " moms",
  "2071": " shook",
  "2072": " helpful",
  "2073": " res",
  "2074": " cage",
  "2075": " cact",
  "2076": " meat",
  "2077": " meet",
  "2078": "oby",
  "2079": "oblem",
  "2080": " problem",
  "2081": " exp",
  "2082": " turtle",
  "2083": " cleaned",
  "2084": " Polly",
  "2085": " comes",
  "2086": " Remy",
  "2087": " pup",
  "2088": " yelled",
  "2089": " fixed",
  "2090": "ocked",
  "2091": " smelly",
  "2092": " building",
  "2093": " guard",
  "2094": " splas",
  "2095": " creative",
  "2096": " smooth",
  "2097": " branch",
  "2098": " honest",
  "2099": " contin",
  "2100": " terrible",
  "2101": " belong",
  "2102": " scarf",
  "2103": " ent",
  "2104": "ces",
  "2105": "iver",
  "2106": "squ",
  "2107": "unt",
  "2108": "ual",
  "2109": " brill",
  "2110": " bench",
  "2111": "iting",
  "2112": " pop",
  "2113": " cour",
  "2114": "imi",
  "2115": "ence",
  "2116": "les",
  "2117": "ors",
  "2118": "cket",
  "2119": " wear",
  "2120": " shr",
  "2121": " shark",
  "2122": " forget",
  "2123": " shell",
  "2124": "urse",
  "2125": " goes",
  "2126": " class",
  "2127": "umpet",
  "2128": " choc",
  "2129": " trou",
  "2130": " trumpet",
  "2131": " grew",
  "2132": " grapes",
  "2133": " stranger",
  "2134": " snake",
  "2135": " dead",
  "2136": " talking",
  "2137": " march",
  "2138": " takes",
  "2139": "olate",
  "2140": " record",
  "2141": " prince",
  "2142": " film",
  "2143": " believe",
  "2144": " cactus",
  "2145": " brilliant",
  "2146": " course",
  "2147": " chocolate",
  "2148": " '",
  "2149": "Good",
  "2150": "Later",
  "2151": "OK",
  "2152": "br",
  "2153": "ize",
  "2154": "most",
  "2155": "upp",
  "2156": " sour",
  "2157": " supp",
  "2158": "ito",
  "2159": " cou",
  "2160": " mop",
  "2161": " nerv",
  "2162": "let",
  "2163": " rat",
  "2164": " rub",
  "2165": " nothing",
  "2166": " upset",
  "2167": "stead",
  "2168": " shop",
  "2169": " boot",
  "2170": " relie",
  "2171": " knocked",
  "2172": " measure",
  "2173": "ella",
  "2174": " almost",
  "2175": "usual",
  "2176": " poem",
  "2177": " change",
  "2178": " pepper",
  "2179": " true",
  "2180": " unusual",
  "2181": " grab",
  "2182": " most",
  "2183": " mosqu",
  "2184": " dancing",
  "2185": " lovely",
  "2186": " forever",
  "2187": " part",
  "2188": " waiting",
  "2189": " rich",
  "2190": "thy",
  "2191": " Zoom",
  "2192": " busy",
  "2193": "board",
  "2194": " ladder",
  "2195": " wagon",
  "2196": " taking",
  "2197": " missed",
  "2198": " driver",
  "2199": " peaceful",
  "2200": " delicious",
  "2201": " banana",
  "2202": "Finally",
  "2203": " higher",
  "2204": " motor",
  "2205": " street",
  "2206": " continued",
  "2207": " nervous",
  "2208": " mosquito",
  "2209": " ind",
  "2210": "Jack",
  "2211": "Of",
  "2212": "Soon",
  "2213": "aur",
  "2214": "book",
  "2215": "gly",
  "2216": "mor",
  "2217": "nn",
  "2218": "net",
  "2219": "vat",
  "2220": " wis",
  "2221": " bal",
  "2222": " boun",
  "2223": " Tr",
  "2224": " pir",
  "2225": " pill",
  "2226": " mis",
  "2227": " mist",
  "2228": "erable",
  "2229": " Susie",
  "2230": "ilty",
  "2231": " Lisa",
  "2232": " life",
  "2233": " eas",
  "2234": " sol",
  "2235": " shelf",
  "2236": "els",
  "2237": "ugg",
  "2238": " ob",
  "2239": "rand",
  "2240": " gold",
  "2241": " clap",
  "2242": " faces",
  "2243": " With",
  "2244": " worried",
  "2245": " cover",
  "2246": " Jen",
  "2247": " Jake",
  "2248": " brown",
  "2249": " myster",
  "2250": " knee",
  "2251": " decor",
  "2252": " storm",
  "2253": " imag",
  "2254": " tear",
  "2255": " chew",
  "2256": " useful",
  "2257": " breath",
  "2258": " monster",
  "2259": " behave",
  "2260": " mixer",
  "2261": " taste",
  "2262": " guilty",
  "2263": " splash",
  "2264": " powder",
  "2265": " elevat",
  "2266": "Joe",
  "2267": " patient",
  "2268": " notebook",
  "2269": " incred",
  "2270": " shadow",
  "2271": " ashamed",
  "2272": " chased",
  "2273": " pillow",
  "2274": " miserable",
  "2275": " elevator",
  "2276": " ot",
  "2277": "Be",
  "2278": "Dad",
  "2279": "How",
  "2280": "Sally",
  "2281": "cap",
  "2282": "fused",
  "2283": "gy",
  "2284": "gon",
  "2285": "ib",
  "2286": "io",
  "2287": "ling",
  "2288": "mm",
  "2289": "to",
  "2290": " wom",
  "2291": " bur",
  "2292": " bark",
  "2293": " bitter",
  "2294": " har",
  "2295": " honey",
  "2296": " fing",
  "2297": " father",
  "2298": " war",
  "2299": "ity",
  "2300": " dest",
  "2301": " letter",
  "2302": " line",
  "2303": " lamp",
  "2304": " pin",
  "2305": " pun",
  "2306": " ce",
  "2307": "ery",
  "2308": " nation",
  "2309": " half",
  "2310": " Somet",
  "2311": " itch",
  "2312": " ink",
  "2313": " rough",
  "2314": " rude",
  "2315": " stup",
  "2316": " live",
  "2317": " Bella",
  "2318": " Mimi",
  "2319": " shy",
  "2320": " lose",
  "2321": " sear",
  "2322": " cats",
  "2323": "ract",
  "2324": "ume",
  "2325": "ulu",
  "2326": " Jill",
  "2327": " ranch",
  "2328": " flag",
  "2329": " gets",
  "2330": " Don",
  "2331": " Dan",
  "2332": " Daisy",
  "2333": " sort",
  "2334": " longer",
  "2335": " rocket",
  "2336": " mov",
  "2337": " towards",
  "2338": " string",
  "2339": " gloom",
  "2340": "zzy",
  "2341": " Rina",
  "2342": "erest",
  "2343": " dragon",
  "2344": " chees",
  "2345": " songs",
  "2346": " messy",
  "2347": " write",
  "2348": "airs",
  "2349": " forgive",
  "2350": " smelled",
  "2351": " swimming",
  "2352": " adventures",
  "2353": " gently",
  "2354": " wheat",
  "2355": " foot",
  "2356": " bored",
  "2357": " mail",
  "2358": " maze",
  "2359": " Ollie",
  "2360": " corner",
  "2361": " polite",
  "2362": " across",
  "2363": " answer",
  "2364": "Stop",
  "2365": " crib",
  "2366": " radio",
  "2367": " salad",
  "2368": " relieved",
  "2369": " incredible",
  "2370": " otter",
  "2371": " woman",
  "2372": " stupid",
  "2373": " gloomy",
  "2374": " ze",
  "2375": " icy",
  "2376": "?”",
  "2377": "Amy",
  "2378": "ale",
  "2379": "ail",
  "2380": "bra",
  "2381": "den",
  "2382": "gl",
  "2383": "rob",
  "2384": "ually",
  "2385": " sel",
  "2386": " soup",
  "2387": " bir",
  "2388": " tomor",
  "2389": " Teddy",
  "2390": "read",
  "2391": " cel",
  "2392": " net",
  "2393": " sail",
  "2394": "eter",
  "2395": " How",
  "2396": "irp",
  "2397": " inv",
  "2398": " player",
  "2399": " rise",
  "2400": " Liz",
  "2401": " Lulu",
  "2402": " onto",
  "2403": " ear",
  "2404": " shake",
  "2405": " shirt",
  "2406": " kitten",
  "2407": " neigh",
  "2408": "alk",
  "2409": "althy",
  "2410": " loves",
  "2411": " loop",
  "2412": " Alex",
  "2413": " club",
  "2414": " spe",
  "2415": " wouldn",
  "2416": " seek",
  "2417": " makeup",
  "2418": " sungl",
  "2419": " post",
  "2420": " anyone",
  "2421": " whole",
  "2422": " decide",
  "2423": " pear",
  "2424": " interest",
  "2425": "Tommy",
  "2426": " taught",
  "2427": " clear",
  "2428": " clock",
  "2429": "roy",
  "2430": " Penny",
  "2431": " appeared",
  "2432": "pect",
  "2433": " painted",
  "2434": " teach",
  "2435": " cheered",
  "2436": " shoot",
  "2437": " hears",
  "2438": "asses",
  "2439": "assion",
  "2440": " adm",
  "2441": " zip",
  "2442": " picks",
  "2443": " trip",
  "2444": "thday",
  "2445": " bush",
  "2446": " hidden",
  "2447": " owner",
  "2448": " wondered",
  "2449": " wonderful",
  "2450": " arms",
  "2451": " match",
  "2452": " screamed",
  "2453": " compassion",
  "2454": " powerful",
  "2455": " junk",
  "2456": " bathrob",
  "2457": " crayons",
  "2458": " sneeze",
  "2459": " parents",
  "2460": "ependent",
  "2461": " splashed",
  "2462": " independent",
  "2463": " destroy",
  "2464": " cheese",
  "2465": " zebra",
  "2466": " birthday",
  "2467": " tomorrow",
  "2468": " celery",
  "2469": " sunglasses",
  "2470": " ign",
  "2471": "Hel",
  "2472": "ever",
  "2473": "hone",
  "2474": "hip",
  "2475": "host",
  "2476": "ier",
  "2477": "ich",
  "2478": "ipper",
  "2479": "met",
  "2480": " af",
  "2481": " wild",
  "2482": " horn",
  "2483": " fig",
  "2484": " TV",
  "2485": " dust",
  "2486": " dist",
  "2487": " dull",
  "2488": " pan",
  "2489": " circle",
  "2490": "ises",
  "2491": " hamm",
  "2492": " ghost",
  "2493": "ates",
  "2494": " thirst",
  "2495": "igent",
  "2496": "utes",
  "2497": " ugly",
  "2498": " rid",
  "2499": " rag",
  "2500": " rare",
  "2501": " yield",
  "2502": " stir",
  "2503": " stood",
  "2504": " libr",
  "2505": "ade",
  "2506": " Bunny",
  "2507": " friendship",
  "2508": " helmet",
  "2509": "urch",
  "2510": " Ann",
  "2511": " seed",
  "2512": " cane",
  "2513": " stars",
  "2514": " sciss",
  "2515": " scatter",
  "2516": " carry",
  "2517": " carried",
  "2518": " seemed",
  "2519": "elligent",
  "2520": " coat",
  "2521": " cost",
  "2522": " feet",
  "2523": " feather",
  "2524": " Fred",
  "2525": "akes",
  "2526": " everything",
  "2527": " poor",
  "2528": " church",
  "2529": " intelligent",
  "2530": " vase",
  "2531": " trust",
  "2532": " slipped",
  "2533": " black",
  "2534": " nearby",
  "2535": " magnet",
  "2536": " bubble",
  "2537": "Mommy",
  "2538": " working",
  "2539": " watching",
  "2540": " asking",
  "2541": " Why",
  "2542": " Zara",
  "2543": " mixed",
  "2544": " promise",
  "2545": " disco",
  "2546": " stepped",
  "2547": " cookies",
  "2548": " hope",
  "2549": " holding",
  "2550": " spotted",
  "2551": " princess",
  "2552": " Finally",
  "2553": " mint",
  "2554": " minutes",
  "2555": " journey",
  "2556": " snack",
  "2557": " balance",
  "2558": " easy",
  "2559": "cape",
  "2560": " Sometimes",
  "2561": " selfish",
  "2562": "irpy",
  "2563": " neighb",
  "2564": " compassionate",
  "2565": "Help",
  "2566": " hammer",
  "2567": " scissors",
  "2568": " er",
  "2569": " ve",
  "2570": " que",
  "2571": "Kitty",
  "2572": "iff",
  "2573": "ique",
  "2574": "mb",
  "2575": "mon",
  "2576": "ness",
  "2577": "pty",
  "2578": " tig",
  "2579": " ser",
  "2580": " bone",
  "2581": " bull",
  "2582": " fountain",
  "2583": " Toby",
  "2584": " pay",
  "2585": " phone",
  "2586": " mill",
  "2587": " mark",
  "2588": "erce",
  "2589": " wash",
  "2590": " hell",
  "2591": " gear",
  "2592": "any",
  "2593": "eth",
  "2594": " If",
  "2595": " station",
  "2596": " beak",
  "2597": " weep",
  "2598": " Mary",
  "2599": " eag",
  "2600": " ang",
  "2601": "alm",
  "2602": " jog",
  "2603": " att",
  "2604": " lemon",
  "2605": " giraff",
  "2606": " cave",
  "2607": " spo",
  "2608": " spr",
  "2609": "estion",
  "2610": " pressed",
  "2611": "aser",
  "2612": " gives",
  "2613": " hose",
  "2614": " unique",
  "2615": " moving",
  "2616": " fierce",
  "2617": " question",
  "2618": " tea",
  "2619": " teac",
  "2620": " teeth",
  "2621": " bread",
  "2622": " drew",
  "2623": "Sarah",
  "2624": " sandbox",
  "2625": " dirt",
  "2626": " planet",
  "2627": " split",
  "2628": " confused",
  "2629": " plants",
  "2630": " arri",
  "2631": " smoke",
  "2632": " Together",
  "2633": " empty",
  "2634": " jungle",
  "2635": " clouds",
  "2636": " stripes",
  "2637": " legs",
  "2638": " Chirpy",
  "2639": " barked",
  "2640": " respect",
  "2641": " decorate",
  "2642": " movie",
  "2643": " interesting",
  "2644": " bathrobe",
  "2645": " thirsty",
  "2646": " library",
  "2647": " eraser",
  "2648": " queen",
  "2649": " hello",
  "2650": " eager",
  "2651": " giraffe",
  "2652": " teacher",
  "2653": " es",
  "2654": "Every",
  "2655": "Fluffy",
  "2656": "app",
  "2657": "cil",
  "2658": "hin",
  "2659": "iv",
  "2660": "ym",
  "2661": " tied",
  "2662": " act",
  "2663": " sil",
  "2664": " wide",
  "2665": " wore",
  "2666": " touc",
  "2667": " fool",
  "2668": "inal",
  "2669": " Tiny",
  "2670": " waff",
  "2671": "ital",
  "2672": "ren",
  "2673": " dish",
  "2674": " lay",
  "2675": " pump",
  "2676": " cr",
  "2677": " coo",
  "2678": " mountain",
  "2679": "eros",
  "2680": " Their",
  "2681": " saved",
  "2682": " sailed",
  "2683": " Some",
  "2684": " gig",
  "2685": " gun",
  "2686": " guit",
  "2687": "angle",
  "2688": "ena",
  "2689": "iginal",
  "2690": " plane",
  "2691": " plac",
  "2692": " ring",
  "2693": " rhin",
  "2694": "ppers",
  "2695": " herself",
  "2696": " wearing",
  "2697": " Mark",
  "2698": " elder",
  "2699": " kick",
  "2700": " neck",
  "2701": " sell",
  "2702": " treats",
  "2703": "raid",
  "2704": " manag",
  "2705": "umb",
  "2706": "ult",
  "2707": " scream",
  "2708": " become",
  "2709": " lab",
  "2710": "oph",
  "2711": " Jenny",
  "2712": " Jazz",
  "2713": " sword",
  "2714": " poked",
  "2715": " char",
  "2716": " chalk",
  "2717": "essie",
  "2718": " hosp",
  "2719": " mod",
  "2720": " turkey",
  "2721": " original",
  "2722": " raven",
  "2723": " cheer",
  "2724": " shoe",
  "2725": " bedroom",
  "2726": " opens",
  "2727": "ventually",
  "2728": " finish",
  "2729": " gray",
  "2730": "oceros",
  "2731": " pretended",
  "2732": " guess",
  "2733": " pigs",
  "2734": " disapp",
  "2735": " pencil",
  "2736": " cookie",
  "2737": " explain",
  "2738": " slowly",
  "2739": " shape",
  "2740": " ants",
  "2741": " fox",
  "2742": " amazed",
  "2743": " furry",
  "2744": " boring",
  "2745": " creature",
  "2746": " fighting",
  "2747": " thankful",
  "2748": " paws",
  "2749": " ruined",
  "2750": " desk",
  "2751": " pointed",
  "2752": " nods",
  "2753": " cherry",
  "2754": " carrots",
  "2755": "rated",
  "2756": " children",
  "2757": " explor",
  "2758": " couch",
  "2759": "randpa",
  "2760": " ceiling",
  "2761": " afraid",
  "2762": " feathers",
  "2763": " spring",
  "2764": " pumpk",
  "2765": " guitar",
  "2766": " places",
  "2767": " rhinoceros",
  "2768": " elderly",
  "2769": " hospital",
  "2770": " N",
  "2771": "Come",
  "2772": "Mum",
  "2773": "Sor",
  "2774": "Sure",
  "2775": "aver",
  "2776": "bar",
  "2777": "corn",
  "2778": "ek",
  "2779": "ground",
  "2780": "ippy",
  "2781": "lves",
  "2782": "live",
  "2783": "ock",
  "2784": "ose",
  "2785": "weet",
  "2786": "hew",
  "2787": " add",
  "2788": " sick",
  "2789": " size",
  "2790": " bicy",
  "2791": " fest",
  "2792": " dough",
  "2793": " pract",
  "2794": " wasn",
  "2795": " nurse",
  "2796": "etle",
  "2797": "ama",
  "2798": " thin",
  "2799": "ilot",
  "2800": " instead",
  "2801": "owed",
  "2802": " study",
  "2803": " bee",
  "2804": " beetle",
  "2805": " onion",
  "2806": " wealthy",
  "2807": " Bessie",
  "2808": " Mum",
  "2809": " shine",
  "2810": " kic",
  "2811": " sold",
  "2812": "Their",
  "2813": " boss",
  "2814": " jolly",
  "2815": " oats",
  "2816": "urry",
  "2817": " treat",
  "2818": " fright",
  "2819": "rassed",
  "2820": " lean",
  "2821": " lead",
  "2822": " leash",
  "2823": "umbled",
  "2824": "umsy",
  "2825": "ular",
  "2826": " clumsy",
  "2827": " spill",
  "2828": " noises",
  "2829": " smaller",
  "2830": "iable",
  "2831": " coll",
  "2832": " Jim",
  "2833": " bring",
  "2834": " finding",
  "2835": " Fr",
  "2836": " pres",
  "2837": " pole",
  "2838": " pocket",
  "2839": " lotion",
  "2840": "ason",
  "2841": " peppers",
  "2842": " hopping",
  "2843": " order",
  "2844": "ateful",
  "2845": " cleaning",
  "2846": " env",
  "2847": " Come",
  "2848": " dizzy",
  "2849": " pale",
  "2850": " passed",
  "2851": " sticks",
  "2852": " office",
  "2853": " hats",
  "2854": " puppy",
  "2855": " drain",
  "2856": " drop",
  "2857": " rice",
  "2858": " grateful",
  "2859": " volc",
  "2860": " laughs",
  "2861": " hung",
  "2862": " growing",
  "2863": " steel",
  "2864": " steak",
  "2865": " hoped",
  "2866": " folder",
  "2867": " cows",
  "2868": " balloons",
  "2869": " fancy",
  "2870": " crab",
  "2871": " matter",
  "2872": " embar",
  "2873": "cycle",
  "2874": " wrapped",
  "2875": " Beaver",
  "2876": " reliable",
  "2877": " popcorn",
  "2878": " troubled",
  "2879": " motorcycle",
  "2880": " wishes",
  "2881": " pirate",
  "2882": " mistake",
  "2883": " mysterious",
  "2884": " finger",
  "2885": " ignor",
  "2886": " figure",
  "2887": " costume",
  "2888": " touched",
  "2889": " charming",
  "2890": " exploring",
  "2891": "Sorry",
  "2892": " bicycle",
  "2893": " kicked",
  "2894": " volcano",
  "2895": " embarrassed",
  "2896": " 3",
  "2897": "Jane",
  "2898": "Lila",
  "2899": "cc",
  "2900": "dia",
  "2901": "eon",
  "2902": "fted",
  "2903": "fort",
  "2904": "gu",
  "2905": "kn",
  "2906": "lid",
  "2907": "over",
  "2908": "tom",
  "2909": "tur",
  "2910": "ward",
  "2911": "was",
  "2912": "ying",
  "2913": "ydia",
  "2914": "zed",
  "2915": " tag",
  "2916": " tuna",
  "2917": " suc",
  "2918": " sugg",
  "2919": " witch",
  "2920": " bat",
  "2921": " flex",
  "2922": " Tilly",
  "2923": " Tina",
  "2924": " Tweet",
  "2925": " wave",
  "2926": " dug",
  "2927": " lying",
  "2928": " comet",
  "2929": " cord",
  "2930": " coup",
  "2931": " calm",
  "2932": " men",
  "2933": " mil",
  "2934": " mel",
  "2935": "ert",
  "2936": "erry",
  "2937": "erous",
  "2938": " norm",
  "2939": " hang",
  "2940": " Sh",
  "2941": " gen",
  "2942": "endor",
  "2943": " staff",
  "2944": " Lilly",
  "2945": " Luna",
  "2946": " Lena",
  "2947": " notice",
  "2948": "stal",
  "2949": " My",
  "2950": " forth",
  "2951": "chool",
  "2952": "ugh",
  "2953": " lock",
  "2954": " jazz",
  "2955": " band",
  "2956": " bald",
  "2957": " oil",
  "2958": " restle",
  "2959": " retur",
  "2960": " seal",
  "2961": " rod",
  "2962": "ict",
  "2963": "rage",
  "2964": " balls",
  "2965": "umber",
  "2966": " boys",
  "2967": " cloth",
  "2968": " scale",
  "2969": " saying",
  "2970": " lazy",
  "2971": " Jerry",
  "2972": "ush",
  "2973": "ustrated",
  "2974": " chan",
  "2975": " pebble",
  "2976": " vendor",
  "2977": " blank",
  "2978": " holid",
  "2979": " unkn",
  "2980": " exciting",
  "2981": " towel",
  "2982": " skin",
  "2983": "Who",
  "2984": " Puffy",
  "2985": " glitter",
  "2986": "place",
  "2987": " reading",
  "2988": " crystal",
  "2989": " Rover",
  "2990": " shoulder",
  "2991": " raced",
  "2992": " King",
  "2993": " cup",
  "2994": " drum",
  "2995": " drank",
  "2996": " shovel",
  "2997": " zoo",
  "2998": " piano",
  "2999": " drawing",
  "3000": " castles",
  "3001": " group",
  "3002": " stops",
  "3003": " fireplace",
  "3004": " bottom",
  "3005": " dinos",
  "3006": " brothers",
  "3007": " patch",
  "3008": " missile",
  "3009": " arrow",
  "3010": " drive",
  "3011": " screen",
  "3012": " jew",
  "3013": " journal",
  "3014": " cherries",
  "3015": " shrink",
  "3016": " bounce",
  "3017": "ibi",
  "3018": " searched",
  "3019": " mailbox",
  "3020": " distant",
  "3021": " discover",
  "3022": "ival",
  "3023": " foolish",
  "3024": " dishwas",
  "3025": " cooked",
  "3026": " modest",
  "3027": " festival",
  "3028": " bossy",
  "3029": " frightened",
  "3030": " present",
  "3031": " envious",
  "3032": " flexible",
  "3033": " couple",
  "3034": " menu",
  "3035": " milk",
  "3036": " normal",
  "3037": " generous",
  "3038": " restless",
  "3039": " blanket",
  "3040": " holiday",
  "3041": " unknown",
  "3042": " dinosaur",
  "3043": " dishwasher",
  "3044": "Here",
  "3045": "Me",
  "3046": "Mummy",
  "3047": "gen",
  "3048": "gust",
  "3049": "gled",
  "3050": "hus",
  "3051": "ian",
  "3052": "ject",
  "3053": "la",
  "3054": "nger",
  "3055": "old",
  "3056": "ule",
  "3057": "xe",
  "3058": "yfish",
  "3059": "hell",
  "3060": " aunt",
  "3061": " axe",
  "3062": " send",
  "3063": " sink",
  "3064": " sque",
  "3065": " school",
  "3066": " wing",
  "3067": " bought",
  "3068": " hum",
  "3069": " hurry",
  "3070": " fine",
  "3071": " wake",
  "3072": " led",
  "3073": " lid",
  "3074": " later",
  "3075": " pri",
  "3076": " pour",
  "3077": " mama",
  "3078": " mule",
  "3079": "isp",
  "3080": " save",
  "3081": "ident",
  "3082": " hanger",
  "3083": " St",
  "3084": " Soph",
  "3085": " gar",
  "3086": "leas",
  "3087": "etty",
  "3088": " playful",
  "3089": " rot",
  "3090": "ppet",
  "3091": " stret",
  "3092": " stairs",
  "3093": " stumbled",
  "3094": "celet",
  "3095": " Lydia",
  "3096": "stic",
  "3097": " Bibi",
  "3098": " Mic",
  "3099": " Many",
  "3100": "selves",
  "3101": " shiver",
  "3102": " forward",
  "3103": " smiling",
  "3104": " sheet",
  "3105": " body",
  "3106": "tern",
  "3107": "htub",
  "3108": " whisp",
  "3109": " log",
  "3110": " helpless",
  "3111": " jell",
  "3112": " asleep",
  "3113": " ok",
  "3114": " frustrated",
  "3115": "icine",
  "3116": " leather",
  "3117": " case",
  "3118": " scrat",
  "3119": " spark",
  "3120": " spoon",
  "3121": " along",
  "3122": "iastic",
  "3123": " Just",
  "3124": "ages",
  "3125": " fear",
  "3126": "aking",
  "3127": " sunsh",
  "3128": " sunset",
  "3129": " pro",
  "3130": " popped",
  "3131": " val",
  "3132": " jumping",
  "3133": " Andy",
  "3134": " five",
  "3135": " organ",
  "3136": " Cat",
  "3137": " Chew",
  "3138": " Pe",
  "3139": "bbon",
  "3140": " bury",
  "3141": " ending",
  "3142": " ways",
  "3143": " Rex",
  "3144": " parrot",
  "3145": " cube",
  "3146": " puppet",
  "3147": " stronger",
  "3148": " agree",
  "3149": " writing",
  "3150": " wolf",
  "3151": " bracelet",
  "3152": " ribbon",
  "3153": "oco",
  "3154": " triangle",
  "3155": " Go",
  "3156": " sleepy",
  "3157": " track",
  "3158": " medicine",
  "3159": " disgust",
  "3160": " taken",
  "3161": " wallet",
  "3162": " pattern",
  "3163": " candle",
  "3164": " lands",
  "3165": " joined",
  "3166": " tells",
  "3167": " standing",
  "3168": " understood",
  "3169": " hairy",
  "3170": " lights",
  "3171": " yogurt",
  "3172": " police",
  "3173": " acc",
  "3174": " spinning",
  "3175": " branches",
  "3176": " jeep",
  "3177": " shade",
  "3178": " design",
  "3179": " point",
  "3180": " kissed",
  "3181": " chickens",
  "3182": "cessful",
  "3183": " pasta",
  "3184": " enthus",
  "3185": " classroom",
  "3186": " support",
  "3187": " True",
  "3188": " solve",
  "3189": " punished",
  "3190": " riding",
  "3191": " seeds",
  "3192": " tiger",
  "3193": " market",
  "3194": " arrived",
  "3195": " escape",
  "3196": " waffle",
  "3197": " managed",
  "3198": " collar",
  "3199": " successful",
  "3200": " bathtub",
  "3201": " Sharing",
  "3202": "helle",
  "3203": " Michelle",
  "3204": " jellyfish",
  "3205": " sunshine",
  "3206": " enthusiastic",
  "3207": " No",
  "3208": "Fr",
  "3209": "Molly",
  "3210": "See",
  "3211": "Where",
  "3212": "af",
  "3213": "case",
  "3214": "ging",
  "3215": "ha",
  "3216": "low",
  "3217": "light",
  "3218": "nic",
  "3219": "par",
  "3220": "ple",
  "3221": "port",
  "3222": "ser",
  "3223": "uce",
  "3224": "ube",
  "3225": "yard",
  "3226": "zard",
  "3227": " tie",
  "3228": " tem",
  "3229": " tire",
  "3230": " tube",
  "3231": "head",
  "3232": " ber",
  "3233": " bow",
  "3234": " hook",
  "3235": " fre",
  "3236": " fat",
  "3237": "ines",
  "3238": "inted",
  "3239": " lumber",
  "3240": " purse",
  "3241": " cries",
  "3242": " melt",
  "3243": " maybe",
  "3244": " muddy",
  "3245": "omes",
  "3246": "ont",
  "3247": " saf",
  "3248": "iron",
  "3249": "ighed",
  "3250": " umb",
  "3251": "esday",
  "3252": "cean",
  "3253": " young",
  "3254": "ung",
  "3255": "unk",
  "3256": " licks",
  "3257": " lifted",
  "3258": " lizard",
  "3259": " weird",
  "3260": " weak",
  "3261": " Bird",
  "3262": " Bill",
  "3263": "There",
  "3264": "alous",
  "3265": " jet",
  "3266": " jail",
  "3267": " baa",
  "3268": " ocean",
  "3269": "uring",
  "3270": " reg",
  "3271": " separ",
  "3272": " frame",
  "3273": " front",
  "3274": " themselves",
  "3275": " backyard",
  "3276": " cliff",
  "3277": " spent",
  "3278": " cart",
  "3279": " alread",
  "3280": " cozy",
  "3281": " switch",
  "3282": "uckie",
  "3283": " yourself",
  "3284": "iew",
  "3285": " prevent",
  "3286": " knowing",
  "3287": " chub",
  "3288": " view",
  "3289": " trade",
  "3290": " Even",
  "3291": " giving",
  "3292": "ogn",
  "3293": " jumps",
  "3294": " unl",
  "3295": " picnic",
  "3296": " showing",
  "3297": " needs",
  "3298": " kindness",
  "3299": " bookcase",
  "3300": " Coco",
  "3301": " glow",
  "3302": " glove",
  "3303": " pack",
  "3304": " harder",
  "3305": " offered",
  "3306": " thinking",
  "3307": " deaf",
  "3308": " painting",
  "3309": " pushes",
  "3310": " shocked",
  "3311": " joke",
  "3312": " remind",
  "3313": " zipper",
  "3314": " drawings",
  "3315": " trick",
  "3316": " Gia",
  "3317": " smells",
  "3318": " sleeping",
  "3319": " Zippy",
  "3320": " tasted",
  "3321": " Ally",
  "3322": " trash",
  "3323": " block",
  "3324": " marble",
  "3325": " mush",
  "3326": " pigeon",
  "3327": " replace",
  "3328": " juicy",
  "3329": " pengu",
  "3330": " holds",
  "3331": "aches",
  "3332": " navy",
  "3333": " musician",
  "3334": " grandpa",
  "3335": " mighty",
  "3336": " recogn",
  "3337": " borrow",
  "3338": " starts",
  "3339": " Bloom",
  "3340": " drove",
  "3341": "Bobby",
  "3342": " Today",
  "3343": " jealous",
  "3344": "eady",
  "3345": " delicate",
  "3346": " bananas",
  "3347": " relax",
  "3348": " trouble",
  "3349": " Truckie",
  "3350": "elsie",
  "3351": " imagine",
  "3352": " harsh",
  "3353": " letters",
  "3354": " lively",
  "3355": " neighbor",
  "3356": " weeping",
  "3357": " angel",
  "3358": " giggle",
  "3359": " pumpkin",
  "3360": "fortable",
  "3361": " rode",
  "3362": " jewel",
  "3363": " squee",
  "3364": " organized",
  "3365": " disgusting",
  "3366": " accident",
  "3367": " berries",
  "3368": " fresh",
  "3369": " umbre",
  "3370": " separate",
  "3371": " already",
  "3372": " chubby",
  "3373": " penguin",
  "3374": " ed",
  "3375": "..",
  "3376": "If",
  "3377": "Mr",
  "3378": "aw",
  "3379": "bin",
  "3380": "eater",
  "3381": "iel",
  "3382": "ium",
  "3383": "king",
  "3384": "lour",
  "3385": "ment",
  "3386": "oppy",
  "3387": "ointed",
  "3388": "pst",
  "3389": "ten",
  "3390": "under",
  "3391": "we",
  "3392": " ten",
  "3393": " text",
  "3394": " added",
  "3395": " sent",
  "3396": " sur",
  "3397": " sight",
  "3398": " sup",
  "3399": " sighed",
  "3400": " wip",
  "3401": " these",
  "3402": " tough",
  "3403": " hay",
  "3404": " hour",
  "3405": " homes",
  "3406": "inked",
  "3407": "iness",
  "3408": " depend",
  "3409": " dict",
  "3410": " lar",
  "3411": " pilot",
  "3412": " card",
  "3413": " crow",
  "3414": " camp",
  "3415": " muse",
  "3416": " mummy",
  "3417": "erher",
  "3418": " heal",
  "3419": "arlie",
  "3420": " Sand",
  "3421": "ote",
  "3422": " grill",
  "3423": " gym",
  "3424": "ork",
  "3425": "ete",
  "3426": " though",
  "3427": " thunder",
  "3428": "iggy",
  "3429": "riage",
  "3430": "uts",
  "3431": " stuff",
  "3432": " ones",
  "3433": " happiness",
  "3434": " lives",
  "3435": " lipst",
  "3436": " week",
  "3437": "stairs",
  "3438": " Bear",
  "3439": " Mill",
  "3440": " east",
  "3441": " eventually",
  "3442": " times",
  "3443": "chor",
  "3444": " soap",
  "3445": " board",
  "3446": " anchor",
  "3447": "ugged",
  "3448": "htray",
  "3449": " helps",
  "3450": "getable",
  "3451": " ashtray",
  "3452": " trem",
  "3453": " roof",
  "3454": " sadly",
  "3455": " cabin",
  "3456": " scare",
  "3457": " spid",
  "3458": " spun",
  "3459": " spread",
  "3460": " Sammy",
  "3461": " seem",
  "3462": " newsp",
  "3463": " noisy",
  "3464": " Would",
  "3465": " coins",
  "3466": " colour",
  "3467": " Benny",
  "3468": " yours",
  "3469": " fluffy",
  "3470": " pray",
  "3471": " knees",
  "3472": " boxes",
  "3473": "Timmy",
  "3474": " vroom",
  "3475": " trunk",
  "3476": " unite",
  "3477": " uncle",
  "3478": " shows",
  "3479": " grape",
  "3480": " moves",
  "3481": " nicely",
  "3482": " towers",
  "3483": " needle",
  "3484": " clever",
  "3485": " skirt",
  "3486": " using",
  "3487": "ionary",
  "3488": " enc",
  "3489": " Poppy",
  "3490": " doors",
  "3491": " appla",
  "3492": " snap",
  "3493": " hurts",
  "3494": " Instead",
  "3495": " Rude",
  "3496": " Rudy",
  "3497": " Rich",
  "3498": " impre",
  "3499": " remove",
  "3500": " fruits",
  "3501": " While",
  "3502": "udge",
  "3503": " wrote",
  "3504": " dreamed",
  "3505": " float",
  "3506": " sandw",
  "3507": "ations",
  "3508": " shouting",
  "3509": " Daddy",
  "3510": " Give",
  "3511": " Grandpa",
  "3512": " Zip",
  "3513": " trap",
  "3514": " marriage",
  "3515": " telling",
  "3516": " falls",
  "3517": " fallen",
  "3518": " counted",
  "3519": " happens",
  "3520": "ooped",
  "3521": " Olive",
  "3522": " craw",
  "3523": " complet",
  "3524": " incre",
  "3525": " wrap",
  "3526": " strike",
  "3527": " answered",
  "3528": " Charlie",
  "3529": " belongs",
  "3530": " shells",
  "3531": " poems",
  "3532": " covered",
  "3533": " punish",
  "3534": " Daniel",
  "3535": " speed",
  "3536": " speak",
  "3537": " admired",
  "3538": " vegetable",
  "3539": " serious",
  "3540": " spoiled",
  "3541": " silence",
  "3542": " crown",
  "3543": " disappointed",
  "3544": " soldier",
  "3545": " ignorant",
  "3546": " melon",
  "3547": " changed",
  "3548": " prize",
  "3549": " garage",
  "3550": " scratch",
  "3551": " value",
  "3552": " Pepper",
  "3553": " temple",
  "3554": " Birdy",
  "3555": " mushroom",
  "3556": " umbrella",
  "3557": " edge",
  "3558": " texture",
  "3559": " superher",
  "3560": " dependable",
  "3561": " dictionary",
  "3562": " large",
  "3563": " museum",
  "3564": " Sandy",
  "3565": " lipstick",
  "3566": " newspaper",
  "3567": " applaud",
  "3568": " superhero",
  "3569": " \n ",
  "3570": " iron",
  "3571": "By",
  "3572": "Go",
  "3573": "Give",
  "3574": "Le",
  "3575": "Ouch",
  "3576": "Polly",
  "3577": "To",
  "3578": "Well",
  "3579": "ball",
  "3580": "bul",
  "3581": "bby",
  "3582": "come",
  "3583": "din",
  "3584": "fant",
  "3585": "flow",
  "3586": "ipping",
  "3587": "izza",
  "3588": "ience",
  "3589": "ls",
  "3590": "ler",
  "3591": "land",
  "3592": "lies",
  "3593": "lton",
  "3594": "mend",
  "3595": "mand",
  "3596": "mless",
  "3597": "pair",
  "3598": "pol",
  "3599": "sis",
  "3600": "ses",
  "3601": "ux",
  "3602": "ury",
  "3603": "ubb",
  "3604": " tid",
  "3605": " tas",
  "3606": " av",
  "3607": " aw",
  "3608": " ahead",
  "3609": " apol",
  "3610": " sle",
  "3611": " sug",
  "3612": " wink",
  "3613": "edient",
  "3614": " bet",
  "3615": " bump",
  "3616": " todd",
  "3617": " toile",
  "3618": " toast",
  "3619": " hunt",
  "3620": " fed",
  "3621": " four",
  "3622": " lit",
  "3623": " lux",
  "3624": " cell",
  "3625": " city",
  "3626": " mall",
  "3627": " mind",
  "3628": "ommend",
  "3629": "arrel",
  "3630": "arlton",
  "3631": " saving",
  "3632": " sauce",
  "3633": "idge",
  "3634": " gather",
  "3635": "atch",
  "3636": "atient",
  "3637": " itself",
  "3638": " Hop",
  "3639": " thumb",
  "3640": "ilt",
  "3641": " plates",
  "3642": " inse",
  "3643": " infant",
  "3644": " insis",
  "3645": " playground",
  "3646": "verse",
  "3647": "ested",
  "3648": " Is",
  "3649": " hers",
  "3650": " step",
  "3651": " stack",
  "3652": " stud",
  "3653": " stair",
  "3654": "unn",
  "3655": " once",
  "3656": " dove",
  "3657": " lips",
  "3658": " upstairs",
  "3659": " weigh",
  "3660": " Boun",
  "3661": " Betty",
  "3662": " Mo",
  "3663": " Milly",
  "3664": " shined",
  "3665": " kay",
  "3666": " island",
  "3667": "elcome",
  "3668": "ugsy",
  "3669": "als",
  "3670": " judge",
  "3671": " baked",
  "3672": " oak",
  "3673": "ured",
  "3674": " repair",
  "3675": " seat",
  "3676": " roared",
  "3677": "icult",
  "3678": "race",
  "3679": " sport",
  "3680": " meal",
  "3681": " meant",
  "3682": " laid",
  "3683": " noon",
  "3684": " coal",
  "3685": " coco",
  "3686": " June",
  "3687": " Jason",
  "3688": " brush",
  "3689": " swung",
  "3690": " learning",
  "3691": " flies",
  "3692": " knows",
  "3693": " poke",
  "3694": " chase",
  "3695": " chance",
  "3696": " anywhere",
  "3697": " van",
  "3698": " vine",
  "3699": " tray",
  "3700": " sorting",
  "3701": " slipper",
  "3702": " End",
  "3703": " bloom",
  "3704": " blinked",
  "3705": " univer",
  "3706": " excite",
  "3707": " moder",
  "3708": " ambul",
  "3709": " ideas",
  "3710": " ordin",
  "3711": "ighter",
  "3712": " walks",
  "3713": " Circle",
  "3714": " Carlton",
  "3715": " Peter",
  "3716": " Pete",
  "3717": " glue",
  "3718": " built",
  "3719": " paid",
  "3720": " packed",
  "3721": " Everywhere",
  "3722": " quit",
  "3723": " quarrel",
  "3724": " thread",
  "3725": " Rob",
  "3726": " famous",
  "3727": " brocc",
  "3728": " softly",
  "3729": " impatient",
  "3730": " painter",
  "3731": " calls",
  "3732": " tele",
  "3733": " cups",
  "3734": " —",
  "3735": " breat",
  "3736": " difficult",
  "3737": " drawer",
  "3738": " eye",
  "3739": " heads",
  "3740": " hotel",
  "3741": " lions",
  "3742": " Lee",
  "3743": " trucks",
  "3744": " following",
  "3745": " pretending",
  "3746": " Ziggy",
  "3747": " rabbits",
  "3748": " tracks",
  "3749": " travel",
  "3750": " create",
  "3751": " enjoying",
  "3752": " married",
  "3753": " walls",
  "3754": " butterflies",
  "3755": "oli",
  "3756": "reeze",
  "3757": " clapping",
  "3758": " nail",
  "3759": " restaur",
  "3760": " breaks",
  "3761": " drinking",
  "3762": " counting",
  "3763": " dreaming",
  "3764": " happening",
  "3765": " screw",
  "3766": " rules",
  "3767": " gifts",
  "3768": " sneezed",
  "3769": " cricket",
  "3770": " radish",
  "3771": " resist",
  "3772": " belonged",
  "3773": " courage",
  "3774": " grabs",
  "3775": " bounced",
  "3776": " pirates",
  "3777": " mistakes",
  "3778": " object",
  "3779": " obedient",
  "3780": " mystery",
  "3781": " harmless",
  "3782": " warn",
  "3783": " warned",
  "3784": " pinch",
  "3785": " search",
  "3786": " invited",
  "3787": " admire",
  "3788": " stirred",
  "3789": " bubbles",
  "3790": " veil",
  "3791": " spoke",
  "3792": " label",
  "3793": " cheerful",
  "3794": " explained",
  "3795": " spilled",
  "3796": " returned",
  "3797": " discovered",
  "3798": " humble",
  "3799": " Star",
  "3800": " Sophie",
  "3801": " stretch",
  "3802": " prov",
  "3803": "happy",
  "3804": " jewelry",
  "3805": " cardboard",
  "3806": " spider",
  "3807": " complete",
  "3808": "Bye",
  "3809": "manda",
  "3810": " tidy",
  "3811": " task",
  "3812": " apolog",
  "3813": " slept",
  "3814": " sugar",
  "3815": " bumped",
  "3816": " toddler",
  "3817": " toilet",
  "3818": " luxury",
  "3819": " insect",
  "3820": " insisted",
  "3821": " Bounce",
  "3822": " cocoa",
  "3823": " slippery",
  "3824": " modern",
  "3825": " ambulance",
  "3826": " ordinary",
  "3827": " broccoli",
  "3828": " restaurant",
  "3829": "And",
  "3830": "Billy",
  "3831": "Bugsy",
  "3832": "Ella",
  "3833": "Grandpa",
  "3834": "Jill",
  "3835": "Mary",
  "3836": "Ready",
  "3837": "Teddy",
  "3838": "Will",
  "3839": "Yuck",
  "3840": "ait",
  "3841": "astle",
  "3842": "castle",
  "3843": "dle",
  "3844": "ges",
  "3845": "gue",
  "3846": "gest",
  "3847": "ives",
  "3848": "mother",
  "3849": "mined",
  "3850": "night",
  "3851": "noon",
  "3852": "ox",
  "3853": "rn",
  "3854": "sc",
  "3855": "uby",
  "3856": "ws",
  "3857": "xy",
  "3858": "yal",
  "3859": " tent",
  "3860": " tick",
  "3861": " tub",
  "3862": "helf",
  "3863": " sof",
  "3864": " suff",
  "3865": " sudden",
  "3866": " sym",
  "3867": " wig",
  "3868": " theater",
  "3869": " bend",
  "3870": " bill",
  "3871": " bul",
  "3872": " torn",
  "3873": " hous",
  "3874": " fence",
  "3875": " fleas",
  "3876": "ince",
  "3877": "ination",
  "3878": "ither",
  "3879": "rect",
  "3880": " dess",
  "3881": " dem",
  "3882": " deter",
  "3883": " low",
  "3884": " lugg",
  "3885": " pages",
  "3886": " cro",
  "3887": " mid",
  "3888": " mass",
  "3889": "ero",
  "3890": " washed",
  "3891": "ari",
  "3892": "arry",
  "3893": "onic",
  "3894": "imed",
  "3895": " Squ",
  "3896": " See",
  "3897": " gor",
  "3898": " gust",
  "3899": " gas",
  "3900": "enry",
  "3901": "ory",
  "3902": " Harry",
  "3903": " Henry",
  "3904": "uth",
  "3905": " ur",
  "3906": " rug",
  "3907": " rings",
  "3908": "oose",
  "3909": " hero",
  "3910": " stirr",
  "3911": "ceful",
  "3912": "keep",
  "3913": " youth",
  "3914": " biggest",
  "3915": " shut",
  "3916": " shone",
  "3917": " short",
  "3918": " fork",
  "3919": " Its",
  "3920": " whale",
  "3921": " which",
  "3922": " loyal",
  "3923": "illa",
  "3924": " helper",
  "3925": " loops",
  "3926": " allowed",
  "3927": " oct",
  "3928": " oxy",
  "3929": " ref",
  "3930": " Amanda",
  "3931": "inda",
  "3932": " tremb",
  "3933": " frown",
  "3934": " frag",
  "3935": "icers",
  "3936": "iches",
  "3937": " knock",
  "3938": " leak",
  "3939": " stared",
  "3940": " scold",
  "3941": " lap",
  "3942": " law",
  "3943": " fash",
  "3944": " novel",
  "3945": " alert",
  "3946": "opus",
  "3947": "ssive",
  "3948": " putting",
  "3949": " worm",
  "3950": " worse",
  "3951": "ushed",
  "3952": " sweater",
  "3953": " Fox",
  "3954": " flood",
  "3955": " flash",
  "3956": " sunflow",
  "3957": " prot",
  "3958": " Your",
  "3959": " press",
  "3960": " anyway",
  "3961": " peaches",
  "3962": " rooms",
  "3963": " vi",
  "3964": " truth",
  "3965": " feelings",
  "3966": " blow",
  "3967": " unhappy",
  "3968": " graceful",
  "3969": " moat",
  "3970": " excitedly",
  "3971": " kinds",
  "3972": " ener",
  "3973": "emember",
  "3974": " twist",
  "3975": " afternoon",
  "3976": " listening",
  "3977": " sniff",
  "3978": " loudly",
  "3979": "Momo",
  "3980": " officers",
  "3981": " dear",
  "3982": " team",
  "3983": " tease",
  "3984": " pushing",
  "3985": " Kelsie",
  "3986": " chest",
  "3987": " cheap",
  "3988": " squash",
  "3989": " leaving",
  "3990": " writ",
  "3991": " zipping",
  "3992": " zero",
  "3993": " picking",
  "3994": " holes",
  "3995": " forgave",
  "3996": " sandcastle",
  "3997": " doesn",
  "3998": " Good",
  "3999": " Gary",
  "4000": " Leave",
  "4001": "izes",
  "4002": " paintings",
  "4003": " monkeys",
  "4004": " bookshelf",
  "4005": " bushes",
  "4006": "body",
  "4007": "bols",
  "4008": " trail",
  "4009": " marched",
  "4010": " closely",
  "4011": " wags",
  "4012": " steal",
  "4013": " penny",
  "4014": " perm",
  "4015": " hoping",
  "4016": " claws",
  "4017": " candles",
  "4018": " visited",
  "4019": " petals",
  "4020": " grandmother",
  "4021": " setting",
  "4022": " swamp",
  "4023": "Inside",
  "4024": " puddles",
  "4025": " smarter",
  "4026": " recommend",
  "4027": " delight",
  "4028": " dreams",
  "4029": " art",
  "4030": " argue",
  "4031": " bang",
  "4032": " crack",
  "4033": " thanks",
  "4034": " eggs",
  "4035": " incl",
  "4036": "affle",
  "4037": " tape",
  "4038": " sliding",
  "4039": " passport",
  "4040": " meeting",
  "4041": " pupil",
  "4042": " popular",
  "4043": " shrugged",
  "4044": "Goodbye",
  "4045": " solved",
  "4046": "randma",
  "4047": " Without",
  "4048": " tears",
  "4049": "Daddy",
  "4050": " burn",
  "4051": " burned",
  "4052": " fingers",
  "4053": "ractive",
  "4054": "ailable",
  "4055": " invite",
  "4056": " early",
  "4057": " trusted",
  "4058": " attractive",
  "4059": " questions",
  "4060": " disappeared",
  "4061": " Next",
  "4062": " practice",
  "4063": " practiced",
  "4064": " leaned",
  "4065": " Freddy",
  "4066": " suggest",
  "4067": " suggested",
  "4068": " whispered",
  "4069": " fearful",
  "4070": " landscape",
  "4071": " safari",
  "4072": " regular",
  "4073": " unlock",
  "4074": " accidentally",
  "4075": " hours",
  "4076": " tremble",
  "4077": " encou",
  "4078": " impressive",
  "4079": " sandwiches",
  "4080": " increase",
  "4081": "Leo",
  "4082": " available",
  "4083": " studied",
  "4084": " kayak",
  "4085": " breathe",
  "4086": " sofa",
  "4087": " suffer",
  "4088": " symbols",
  "4089": " billboard",
  "4090": " bulb",
  "4091": " houses",
  "4092": " dessert",
  "4093": " demand",
  "4094": " determined",
  "4095": " luggage",
  "4096": " middle",
  "4097": "onica",
  "4098": " Square",
  "4099": " gorilla",
  "4100": " stirring",
  "4101": "keeper",
  "4102": " octopus",
  "4103": " oxygen",
  "4104": " trembling",
  "4105": " fragile",
  "4106": " scolded",
  "4107": " fashion",
  "4108": " flashlight",
  "4109": " sunflowers",
  "4110": " ext",
  "4111": "'.",
  "4112": "'d",
  "4113": ",”",
  "4114": "Ba",
  "4115": "Dan",
  "4116": "Daisy",
  "4117": "Lilly",
  "4118": "Lisa",
  "4119": "Linda",
  "4120": "Mor",
  "4121": "Mark",
  "4122": "Not",
  "4123": "Penny",
  "4124": "Peter",
  "4125": "Susie",
  "4126": "Welcome",
  "4127": "Wait",
  "4128": "Yog",
  "4129": "av",
  "4130": "aul",
  "4131": "com",
  "4132": "dom",
  "4133": "dge",
  "4134": "eor",
  "4135": "fied",
  "4136": "freeze",
  "4137": "iest",
  "4138": "ky",
  "4139": "lter",
  "4140": "look",
  "4141": "lph",
  "4142": "men",
  "4143": "mare",
  "4144": "nie",
  "4145": "nesday",
  "4146": "ped",
  "4147": "pack",
  "4148": "rr",
  "4149": "sit",
  "4150": "sive",
  "4151": "sity",
  "4152": "uppy",
  "4153": "uzzy",
  "4154": "uesday",
  "4155": "vice",
  "4156": "wards",
  "4157": "xious",
  "4158": "zer",
  "4159": "zes",
  "4160": " tug",
  "4161": " tide",
  "4162": " son",
  "4163": " sir",
  "4164": " ske",
  "4165": " sub",
  "4166": " since",
  "4167": " wool",
  "4168": "ednesday",
  "4169": " batter",
  "4170": " bunn",
  "4171": " toes",
  "4172": " tong",
  "4173": " hive",
  "4174": " fet",
  "4175": " fara",
  "4176": " Tuesday",
  "4177": " wand",
  "4178": " waving",
  "4179": " da",
  "4180": " dare",
  "4181": " ped",
  "4182": " por",
  "4183": " pad",
  "4184": " pist",
  "4185": " cur",
  "4186": " cob",
  "4187": " cuddle",
  "4188": " cross",
  "4189": " cork",
  "4190": " may",
  "4191": " mic",
  "4192": " mach",
  "4193": " math",
  "4194": "eration",
  "4195": "ergen",
  "4196": "erience",
  "4197": " healthy",
  "4198": " hesit",
  "4199": "ison",
  "4200": "ising",
  "4201": "isty",
  "4202": " none",
  "4203": " names",
  "4204": " numb",
  "4205": " nuts",
  "4206": "ony",
  "4207": "onnie",
  "4208": " Sky",
  "4209": " gum",
  "4210": "ata",
  "4211": "ato",
  "4212": "ating",
  "4213": "atue",
  "4214": "ensive",
  "4215": "leton",
  "4216": " Here",
  "4217": "uter",
  "4218": " rushed",
  "4219": " stom",
  "4220": " stall",
  "4221": " stare",
  "4222": " stubb",
  "4223": " statue",
  "4224": " beamed",
  "4225": " Look",
  "4226": " happier",
  "4227": " dolph",
  "4228": "alley",
  "4229": "veled",
  "4230": " lie",
  "4231": " lift",
  "4232": " licked",
  "4233": "adow",
  "4234": " Miss",
  "4235": " Monica",
  "4236": " either",
  "4237": " shakes",
  "4238": " shaking",
  "4239": "choo",
  "4240": " soar",
  "4241": " shelter",
  "4242": " anxious",
  "4243": " resp",
  "4244": " reverse",
  "4245": " Are",
  "4246": " Aunt",
  "4247": " Abby",
  "4248": " known",
  "4249": "ulie",
  "4250": " clown",
  "4251": " girls",
  "4252": " scooped",
  "4253": " spend",
  "4254": " spell",
  "4255": " spray",
  "4256": " meas",
  "4257": " meadow",
  "4258": " laser",
  "4259": " cared",
  "4260": " caring",
  "4261": " carries",
  "4262": "Your",
  "4263": " Will",
  "4264": " Waffle",
  "4265": " Wednesday",
  "4266": "ope",
  "4267": "ops",
  "4268": " against",
  "4269": " Julie",
  "4270": " bridge",
  "4271": " brighter",
  "4272": " For",
  "4273": " flap",
  "4274": "ffic",
  "4275": " exam",
  "4276": " above",
  "4277": " pose",
  "4278": " poison",
  "4279": " cho",
  "4280": " choose",
  "4281": " pean",
  "4282": " Dav",
  "4283": "istent",
  "4284": "inky",
  "4285": " valley",
  "4286": " sorted",
  "4287": " Momma",
  "4288": " slip",
  "4289": " uncom",
  "4290": " operation",
  "4291": " underground",
  "4292": " fastest",
  "4293": " struck",
  "4294": " skipped",
  "4295": "iona",
  "4296": "ions",
  "4297": "ife",
  "4298": " enorm",
  "4299": " twisty",
  "4300": " magaz",
  "4301": "rosc",
  "4302": " Pizza",
  "4303": " Puppy",
  "4304": " Pinky",
  "4305": " direct",
  "4306": "bbing",
  "4307": " buried",
  "4308": " lets",
  "4309": " letting",
  "4310": " pair",
  "4311": " Everything",
  "4312": " evening",
  "4313": " climbing",
  "4314": " comfortable",
  "4315": " blueber",
  "4316": "acky",
  "4317": " Ruby",
  "4318": " Remember",
  "4319": " shouldn",
  "4320": " metal",
  "4321": " nowhere",
  "4322": " racing",
  "4323": " pulls",
  "4324": " pulling",
  "4325": " check",
  "4326": " checked",
  "4327": " agrees",
  "4328": " shopping",
  "4329": " jokes",
  "4330": " swinging",
  "4331": " boats",
  "4332": " realised",
  "4333": " tripped",
  "4334": " Grace",
  "4335": " firemen",
  "4336": " nightmare",
  "4337": " traveled",
  "4338": " traffic",
  "4339": " trains",
  "4340": " planes",
  "4341": " planted",
  "4342": " marry",
  "4343": " medium",
  "4344": " rolling",
  "4345": " robots",
  "4346": " fishing",
  "4347": "ola",
  "4348": "olin",
  "4349": " forgotten",
  "4350": "ache",
  "4351": "acked",
  "4352": " falling",
  "4353": " chairs",
  "4354": " perform",
  "4355": " perfume",
  "4356": " counter",
  "4357": " mustache",
  "4358": " freeze",
  "4359": " freezer",
  "4360": " crazy",
  "4361": "osed",
  "4362": " computer",
  "4363": "Bobo",
  "4364": " Johnny",
  "4365": " emergen",
  "4366": " bathroom",
  "4367": " persistent",
  "4368": " sneezes",
  "4369": " naps",
  "4370": " wheels",
  "4371": " cuts",
  "4372": " slides",
  "4373": " chases",
  "4374": " pastry",
  "4375": " barber",
  "4376": "astic",
  "4377": " experience",
  "4378": " expensive",
  "4379": " splashing",
  "4380": " recording",
  "4381": " supply",
  "4382": " supposed",
  "4383": " boots",
  "4384": " obser",
  "4385": " golden",
  "4386": " barks",
  "4387": " barking",
  "4388": " warning",
  "4389": " pinched",
  "4390": " pinata",
  "4391": " cele",
  "4392": " postman",
  "4393": " destroyed",
  "4394": " circles",
  "4395": " blackboard",
  "4396": " discovery",
  "4397": " neighbour",
  "4398": " tigers",
  "4399": " gears",
  "4400": " angels",
  "4401": " respectful",
  "4402": "Everyone",
  "4403": " giggled",
  "4404": " pumpkins",
  "4405": " comets",
  "4406": " shrinking",
  "4407": " poured",
  "4408": " shivering",
  "4409": " whisper",
  "4410": "Frank",
  "4411": " squeeze",
  "4412": "awk",
  "4413": "web",
  "4414": " surf",
  "4415": " wiped",
  "4416": " cabinet",
  "4417": " colourful",
  "4418": " crawled",
  "4419": " hunter",
  "4420": " gathered",
  "4421": " university",
  "4422": " excitement",
  "4423": " Robo",
  "4424": " provide",
  "4425": " crossed",
  "4426": " lawn",
  "4427": " protect",
  "4428": " violin",
  "4429": " energy",
  "4430": " sniffed",
  "4431": " writes",
  "4432": " permit",
  "4433": " delighted",
  "4434": " pupils",
  "4435": " encourage",
  "4436": " extra",
  "4437": "Baa",
  "4438": "Moral",
  "4439": "Yoga",
  "4440": "eorge",
  "4441": " skeleton",
  "4442": " subway",
  "4443": " bunnies",
  "4444": " tongue",
  "4445": " faraway",
  "4446": " porch",
  "4447": " pistol",
  "4448": " cobweb",
  "4449": " microsc",
  "4450": " numbers",
  "4451": " stubborn",
  "4452": " dolphin",
  "4453": " respon",
  "4454": " Auntie",
  "4455": " David",
  "4456": " uncomfortable",
  "4457": " enormous",
  "4458": " magazine",
  "4459": " nightmares",
  "4460": " emergency",
  "4461": " observe",
  "4462": " microscope",
  "4463": " U",
  "4464": " x",
  "4465": " ing",
  "4466": " oft",
  "4467": "!'",
  "4468": "?!\"",
  "4469": "Ah",
  "4470": "Are",
  "4471": "Ann",
  "4472": "Bad",
  "4473": "Betty",
  "4474": "Did",
  "4475": "During",
  "4476": "Emma",
  "4477": "Eventually",
  "4478": "Fine",
  "4479": "Gary",
  "4480": "Grandma",
  "4481": "Ha",
  "4482": "Hold",
  "4483": "Is",
  "4484": "Jason",
  "4485": "Kelsie",
  "4486": "Little",
  "4487": "Luna",
  "4488": "Mill",
  "4489": "Mimi",
  "4490": "Next",
  "4491": "Never",
  "4492": "Oops",
  "4493": "Paul",
  "4494": "Qu",
  "4495": "Sh",
  "4496": "Soph",
  "4497": "Tilly",
  "4498": "Toby",
  "4499": "Yay",
  "4500": "Zoom",
  "4501": "apping",
  "4502": "band",
  "4503": "cu",
  "4504": "cer",
  "4505": "cuse",
  "4506": "cage",
  "4507": "cious",
  "4508": "cakes",
  "4509": "da",
  "4510": "gers",
  "4511": "give",
  "4512": "hood",
  "4513": "house",
  "4514": "hurt",
  "4515": "iving",
  "4516": "lp",
  "4517": "lives",
  "4518": "mel",
  "4519": "ne",
  "4520": "ns",
  "4521": "nit",
  "4522": "ney",
  "4523": "oof",
  "4524": "ocks",
  "4525": "pill",
  "4526": "pted",
  "4527": "rown",
  "4528": "rune",
  "4529": "ts",
  "4530": "vi",
  "4531": "vis",
  "4532": "walk",
  "4533": "work",
  "4534": "yle",
  "4535": "year",
  "4536": "hear",
  "4537": " aut",
  "4538": " aimed",
  "4539": " sigh",
  "4540": " sizes",
  "4541": " wob",
  "4542": " bent",
  "4543": " bother",
  "4544": " bumpy",
  "4545": " hi",
  "4546": " hus",
  "4547": " fog",
  "4548": " waves",
  "4549": "itched",
  "4550": "rely",
  "4551": "ouch",
  "4552": " dared",
  "4553": " daisy",
  "4554": " during",
  "4555": " limes",
  "4556": " lined",
  "4557": " pur",
  "4558": " pies",
  "4559": " page",
  "4560": " palm",
  "4561": " cust",
  "4562": " cards",
  "4563": " mice",
  "4564": " mild",
  "4565": "erc",
  "4566": "erpill",
  "4567": "omed",
  "4568": "omer",
  "4569": "omob",
  "4570": "omas",
  "4571": " washing",
  "4572": " heat",
  "4573": " height",
  "4574": " hedge",
  "4575": "arnt",
  "4576": "lly",
  "4577": "ides",
  "4578": "imney",
  "4579": " hall",
  "4580": " Sn",
  "4581": " Soup",
  "4582": " gate",
  "4583": "ated",
  "4584": "ately",
  "4585": "anes",
  "4586": "engers",
  "4587": "ormed",
  "4588": " thick",
  "4589": " those",
  "4590": " Help",
  "4591": " plastic",
  "4592": " inter",
  "4593": "rian",
  "4594": " row",
  "4595": " rul",
  "4596": " stad",
  "4597": " style",
  "4598": "cepted",
  "4599": "cky",
  "4600": " Later",
  "4601": "unes",
  "4602": " upside",
  "4603": " Buzzy",
  "4604": " Brown",
  "4605": " Brian",
  "4606": " Mitten",
  "4607": " Moby",
  "4608": "ention",
  "4609": " shot",
  "4610": " shore",
  "4611": " ship",
  "4612": " timer",
  "4613": " soil",
  "4614": " sock",
  "4615": " soak",
  "4616": " socc",
  "4617": " soda",
  "4618": " neat",
  "4619": " whist",
  "4620": " birdie",
  "4621": " birdcage",
  "4622": " load",
  "4623": " loose",
  "4624": "ores",
  "4625": " doggy",
  "4626": " barely",
  "4627": " oat",
  "4628": " obe",
  "4629": " olives",
  "4630": "urous",
  "4631": " requ",
  "4632": " refused",
  "4633": " reaches",
  "4634": " roaring",
  "4635": " caterpill",
  "4636": " canes",
  "4637": " area",
  "4638": "ecause",
  "4639": " knot",
  "4640": " knocks",
  "4641": " learnt",
  "4642": " manage",
  "4643": "umes",
  "4644": " starting",
  "4645": "?\",",
  "4646": " clay",
  "4647": " cause",
  "4648": " caused",
  "4649": " scr",
  "4650": " spear",
  "4651": " nosy",
  "4652": " nobody",
  "4653": " Where",
  "4654": " copper",
  "4655": " rang",
  "4656": "uct",
  "4657": " thoughtful",
  "4658": " swooped",
  "4659": " switched",
  "4660": " Fair",
  "4661": "aky",
  "4662": " sunlight",
  "4663": " pride",
  "4664": " prunes",
  "4665": " exit",
  "4666": " exerc",
  "4667": " whenever",
  "4668": "ieve",
  "4669": "antly",
  "4670": " precious",
  "4671": " poss",
  "4672": " poking",
  "4673": " poses",
  "4674": " watered",
  "4675": " chos",
  "4676": " chose",
  "4677": " chimney",
  "4678": "ased",
  "4679": " intro",
  "4680": "“",
  "4681": "uddled",
  "4682": " vict",
  "4683": " slap",
  "4684": " Ellie",
  "4685": " blink",
  "4686": " rocking",
  "4687": " unpack",
  "4688": " grabbing",
  "4689": " older",
  "4690": "ourite",
  "4691": " skull",
  "4692": " skip",
  "4693": " watches",
  "4694": " handed",
  "4695": " dollhouse",
  "4696": " Cl",
  "4697": "ement",
  "4698": " twir",
  "4699": " Pilot",
  "4700": " Prune",
  "4701": " Thomas",
  "4702": " dive",
  "4703": " ended",
  "4704": " appear",
  "4705": " image",
  "4706": " quite",
  "4707": "play",
  "4708": "plash",
  "4709": " rainy",
  "4710": " rained",
  "4711": " sne",
  "4712": " snug",
  "4713": " sticky",
  "4714": " proudly",
  "4715": " Ready",
  "4716": " Ronnie",
  "4717": " beast",
  "4718": " untie",
  "4719": " worker",
  "4720": " Whenever",
  "4721": " raise",
  "4722": " raising",
  "4723": " stays",
  "4724": " message",
  "4725": " importance",
  "4726": " adult",
  "4727": " advice",
  "4728": " fixing",
  "4729": " bags",
  "4730": " sounded",
  "4731": " means",
  "4732": " storekeeper",
  "4733": "ipes",
  "4734": " waits",
  "4735": " headed",
  "4736": " shouts",
  "4737": " favourite",
  "4738": " Gina",
  "4739": " George",
  "4740": " bravely",
  "4741": "izing",
  "4742": " mixing",
  "4743": " buses",
  "4744": " trapped",
  "4745": " dressed",
  "4746": " dresses",
  "4747": " creation",
  "4748": " creations",
  "4749": " hills",
  "4750": " adventurous",
  "4751": " powers",
  "4752": " cooler",
  "4753": " robin",
  "4754": " sweeties",
  "4755": " sweethear",
  "4756": " bites",
  "4757": " growled",
  "4758": " moments",
  "4759": " rolls",
  "4760": " airport",
  "4761": " disag",
  "4762": " dishes",
  "4763": " discu",
  "4764": " display",
  "4765": " steam",
  "4766": " Mrs",
  "4767": " cooking",
  "4768": " slower",
  "4769": " snowball",
  "4770": " puzzles",
  "4771": " mouths",
  "4772": "redient",
  "4773": " patted",
  "4774": "retend",
  "4775": " buttons",
  "4776": "phone",
  "4777": " furnit",
  "4778": " delay",
  "4779": " country",
  "4780": " master",
  "4781": " winter",
  "4782": " winning",
  "4783": " cras",
  "4784": " matches",
  "4785": " yoghurt",
  "4786": " signs",
  "4787": " purpose",
  "4788": " company",
  "4789": " accepted",
  "4790": " buckets",
  "4791": " Tooth",
  "4792": " ruby",
  "4793": " rubbed",
  "4794": " perfectly",
  "4795": " throwing",
  "4796": " belly",
  "4797": " second",
  "4798": " pointing",
  "4799": " zooming",
  "4800": " wrapping",
  "4801": " kisses",
  "4802": " sidewalk",
  "4803": " strikes",
  "4804": " Becky",
  "4805": " filthy",
  "4806": " digging",
  "4807": " feeding",
  "4808": " passengers",
  "4809": " snapped",
  "4810": " snacks",
  "4811": " salt",
  "4812": " entr",
  "4813": " enter",
  "4814": " entered",
  "4815": " recorded",
  "4816": " films",
  "4817": " balan",
  "4818": " decorations",
  "4819": " imagined",
  "4820": " imagination",
  "4821": "ibil",
  "4822": " burning",
  "4823": " halfway",
  "4824": " movies",
  "4825": " football",
  "4826": " ears",
  "4827": " figured",
  "4828": " distance",
  "4829": " rides",
  "4830": " scattering",
  "4831": " carrying",
  "4832": " costumes",
  "4833": " serve",
  "4834": " served",
  "4835": " attached",
  "4836": " acting",
  "4837": " silver",
  "4838": " waffles",
  "4839": " ringing",
  "4840": " managing",
  "4841": " screams",
  "4842": " pencils",
  "4843": " creatures",
  "4844": " Not",
  "4845": " leads",
  "4846": " spills",
  "4847": " Frog",
  "4848": " Frank",
  "4849": " drops",
  "4850": " ignored",
  "4851": " Tweetie",
  "4852": " hanging",
  "4853": "ughter",
  "4854": " bandage",
  "4855": " return",
  "4856": " cupboard",
  "4857": " arrows",
  "4858": " Sophia",
  "4859": " stretched",
  "4860": " sparkled",
  "4861": " sparkling",
  "4862": " project",
  "4863": " puppets",
  "4864": " points",
  "4865": " regret",
  "4866": " glowing",
  "4867": " reminded",
  "4868": " reminder",
  "4869": " blocking",
  "4870": " recognized",
  "4871": " recognize",
  "4872": " squeezed",
  "4873": "...",
  "4874": "Mrs",
  "4875": " floated",
  "4876": " superheroes",
  "4877": "Together",
  "4878": " winking",
  "4879": " televis",
  "4880": " telephone",
  "4881": " apologize",
  "4882": " wiggled",
  "4883": " massage",
  "4884": " refuse",
  "4885": " frowned",
  "4886": " includ",
  "4887": " demanded",
  "4888": "looking",
  "4889": " fetch",
  "4890": " daughter",
  "4891": " padd",
  "4892": " machine",
  "4893": " stomped",
  "4894": " flaps",
  "4895": " examine",
  "4896": " choice",
  "4897": " blueberries",
  "4898": " surface",
  "4899": " respons",
  "4900": " ingredient",
  "4901": " often",
  "4902": "Sophia",
  "4903": "melia",
  "4904": " automob",
  "4905": " husband",
  "4906": " customer",
  "4907": " internet",
  "4908": " ruler",
  "4909": " stadium",
  "4910": " Mittens",
  "4911": " soccer",
  "4912": " whistle",
  "4913": " obey",
  "4914": " caterpillar",
  "4915": " Fairy",
  "4916": " chosen",
  "4917": " introd",
  "4918": " victory",
  "4919": " Pruney",
  "4920": " adults",
  "4921": " sweetheart",
  "4922": " furniture",
  "4923": " television",
  "4924": " ingredients",
  "4925": " automobile",
  "4926": " \n",
  "4927": "  ",
  "4928": " ow",
  "4929": " ouch",
  "4930": "\",",
  "4931": ",'",
  "4932": ".'",
  "4933": "Aw",
  "4934": "Abby",
  "4935": "Achoo",
  "4936": "Amelia",
  "4937": "Bl",
  "4938": "Buddy",
  "4939": "Bella",
  "4940": "Brr",
  "4941": "Because",
  "4942": "Cat",
  "4943": "Chew",
  "4944": "Ducky",
  "4945": "Ex",
  "4946": "First",
  "4947": "Freeze",
  "4948": "Fiona",
  "4949": "Get",
  "4950": "Grace",
  "4951": "Jen",
  "4952": "Jump",
  "4953": "Jenny",
  "4954": "Jazz",
  "4955": "Kate",
  "4956": "Lena",
  "4957": "Lola",
  "4958": "Miss",
  "4959": "Near",
  "4960": "Ok",
  "4961": "Or",
  "4962": "Ow",
  "4963": "Ollie",
  "4964": "Olive",
  "4965": "Pizza",
  "4966": "Ri",
  "4967": "Rec",
  "4968": "Remy",
  "4969": "Rudy",
  "4970": "Some",
  "4971": "Surpr",
  "4972": "Silly",
  "4973": "Splash",
  "4974": "Tr",
  "4975": "Tony",
  "4976": "With",
  "4977": "Watch",
  "4978": "Woof",
  "4979": "Zippy",
  "4980": "aid",
  "4981": "aked",
  "4982": "aved",
  "4983": "apped",
  "4984": "aze",
  "4985": "aced",
  "4986": "aster",
  "4987": "bu",
  "4988": "ban",
  "4989": "bage",
  "4990": "bling",
  "4991": "brated",
  "4992": "ci",
  "4993": "cient",
  "4994": "ded",
  "4995": "dged",
  "4996": "eed",
  "4997": "eer",
  "4998": "eked",
  "4999": "eel",
  "5000": "eal",
  "5001": "eally",
  "5002": "eze",
  "5003": "eating",
  "5004": "fire",
  "5005": "gged",
  "5006": "hot",
  "5007": "hind",
  "5008": "hile",
  "5009": "iately",
  "5010": "kin",
  "5011": "lings",
  "5012": "liver",
  "5013": "lanes",
  "5014": "mas",
  "5015": "mies",
  "5016": "mato",
  "5017": "nk",
  "5018": "njoy",
  "5019": "oe",
  "5020": "oed",
  "5021": "oke",
  "5022": "pie",
  "5023": "pare",
  "5024": "rist",
  "5025": "te",
  "5026": "ther",
  "5027": "tled",
  "5028": "tory",
  "5029": "ues",
  "5030": "uation",
  "5031": "uable",
  "5032": "val",
  "5033": "wra",
  "5034": "ware",
  "5035": "water",
  "5036": "you",
  "5037": " tar",
  "5038": " tummy",
  "5039": " tugged",
  "5040": " tunn",
  "5041": "hest",
  "5042": " ach",
  "5043": " sim",
  "5044": " sings",
  "5045": " suit",
  "5046": " six",
  "5047": " sib",
  "5048": " somed",
  "5049": " wine",
  "5050": " wins",
  "5051": " wife",
  "5052": " therm",
  "5053": "edy",
  "5054": "eding",
  "5055": "edic",
  "5056": " ble",
  "5057": " bri",
  "5058": " bes",
  "5059": " tore",
  "5060": " tour",
  "5061": " tomato",
  "5062": " fer",
  "5063": " fut",
  "5064": " file",
  "5065": " Tony",
  "5066": " wander",
  "5067": "itation",
  "5068": "reed",
  "5069": "reverse",
  "5070": "reci",
  "5071": "ouis",
  "5072": " dried",
  "5073": " lan",
  "5074": " lec",
  "5075": " luck",
  "5076": " lighter",
  "5077": " pap",
  "5078": " poop",
  "5079": " pitch",
  "5080": " pleas",
  "5081": " cot",
  "5082": " cof",
  "5083": " cam",
  "5084": " cal",
  "5085": " coug",
  "5086": " cone",
  "5087": " cous",
  "5088": " cuddled",
  "5089": " mug",
  "5090": "era",
  "5091": " wasting",
  "5092": "ishing",
  "5093": " nine",
  "5094": " number",
  "5095": "ones",
  "5096": "onest",
  "5097": " sailing",
  "5098": " sank",
  "5099": "ime",
  "5100": " Sm",
  "5101": " Sp",
  "5102": " Sat",
  "5103": " Sque",
  "5104": " gle",
  "5105": " gain",
  "5106": " gro",
  "5107": " gaz",
  "5108": " gaze",
  "5109": "atched",
  "5110": "ana",
  "5111": "anation",
  "5112": "anana",
  "5113": "ening",
  "5114": "ored",
  "5115": "orted",
  "5116": "order",
  "5117": "orable",
  "5118": "ets",
  "5119": "ety",
  "5120": "amber",
  "5121": "ammed",
  "5122": " thro",
  "5123": " thorn",
  "5124": "igate",
  "5125": "igeon",
  "5126": " insp",
  "5127": "rike",
  "5128": "ution",
  "5129": "ows",
  "5130": "owman",
  "5131": " plays",
  "5132": " rust",
  "5133": " rats",
  "5134": " risk",
  "5135": " rowed",
  "5136": " rush",
  "5137": "pples",
  "5138": " yet",
  "5139": " yucky",
  "5140": " yaw",
  "5141": " stung",
  "5142": " stacked",
  "5143": " stones",
  "5144": " beep",
  "5145": " begged",
  "5146": " history",
  "5147": " Time",
  "5148": " Little",
  "5149": " Like",
  "5150": " Lola",
  "5151": " Louis",
  "5152": " happiest",
  "5153": " dock",
  "5154": " dodged",
  "5155": "allen",
  "5156": "veal",
  "5157": " hadn",
  "5158": "ades",
  "5159": " weight",
  "5160": " wanting",
  "5161": "str",
  "5162": " By",
  "5163": " Big",
  "5164": " Book",
  "5165": " Banana",
  "5166": " momma",
  "5167": " ech",
  "5168": " eight",
  "5169": " eff",
  "5170": "ently",
  "5171": " shield",
  "5172": " kings",
  "5173": " soaring",
  "5174": " shelves",
  "5175": "These",
  "5176": " ancient",
  "5177": "ugs",
  "5178": "terday",
  "5179": " tool",
  "5180": " whip",
  "5181": " locked",
  "5182": " locket",
  "5183": " baking",
  "5184": " odd",
  "5185": " olive",
  "5186": "urday",
  "5187": " reind",
  "5188": " release",
  "5189": " repe",
  "5190": " reveal",
  "5191": "ainer",
  "5192": " seven",
  "5193": " seats",
  "5194": " rose",
  "5195": " catches",
  "5196": " fridge",
  "5197": "ected",
  "5198": "razy",
  "5199": " knelt",
  "5200": " sadder",
  "5201": " sadness",
  "5202": " lever",
  "5203": " mane",
  "5204": "?\".",
  "5205": "ulpt",
  "5206": " backs",
  "5207": " backwards",
  "5208": " click",
  "5209": " clues",
  "5210": " cap",
  "5211": " cakes",
  "5212": " cape",
  "5213": " sculpt",
  "5214": " spat",
  "5215": " spook",
  "5216": " space",
  "5217": " spade",
  "5218": " spades",
  "5219": " memor",
  "5220": " meowed",
  "5221": "ometer",
  "5222": " factor",
  "5223": " fault",
  "5224": " seeing",
  "5225": " alive",
  "5226": " Water",
  "5227": " Welcome",
  "5228": " Wacky",
  "5229": " goodnight",
  "5230": "estigate",
  "5231": " worth",
  "5232": " whatever",
  "5233": "ushes",
  "5234": " brings",
  "5235": " brushes",
  "5236": " swap",
  "5237": " sweating",
  "5238": " finds",
  "5239": "uckled",
  "5240": " myself",
  "5241": "usted",
  "5242": " First",
  "5243": " Fiona",
  "5244": " flame",
  "5245": " flour",
  "5246": " flip",
  "5247": " flapping",
  "5248": " somewhere",
  "5249": " expect",
  "5250": " exha",
  "5251": " prepare",
  "5252": " gotten",
  "5253": " waters",
  "5254": " kneel",
  "5255": " chamber",
  "5256": " challen",
  "5257": " chuckled",
  "5258": " decides",
  "5259": " peel",
  "5260": " peach",
  "5261": " peek",
  "5262": " peeked",
  "5263": " Did",
  "5264": "inkled",
  "5265": "inkling",
  "5266": " vet",
  "5267": " vines",
  "5268": " slammed",
  "5269": " Eventually",
  "5270": " Elly",
  "5271": " Enjoy",
  "5272": " blush",
  "5273": "ously",
  "5274": " greedy",
  "5275": " united",
  "5276": " unif",
  "5277": " unwra",
  "5278": " excla",
  "5279": " eats",
  "5280": " eaten",
  "5281": " tapping",
  "5282": " moon",
  "5283": " moats",
  "5284": " underne",
  "5285": " underwater",
  "5286": " strings",
  "5287": "Whiskers",
  "5288": " colored",
  "5289": " enem",
  "5290": " handle",
  "5291": "fee",
  "5292": "rove",
  "5293": " Pretend",
  "5294": " Planes",
  "5295": " Pigeon",
  "5296": " frogs",
  "5297": " bye",
  "5298": " dips",
  "5299": "zzled",
  "5300": " ends",
  "5301": " appreci",
  "5302": " Everyday",
  "5303": " immed",
  "5304": " quack",
  "5305": " listens",
  "5306": " climbs",
  "5307": "plain",
  "5308": " bears",
  "5309": " raining",
  "5310": " snatched",
  "5311": " louder",
  "5312": " sticker",
  "5313": " hurting",
  "5314": " comb",
  "5315": " comfort",
  "5316": " complain",
  "5317": "Momma",
  "5318": "utiously",
  "5319": " windy",
  "5320": " improve",
  "5321": " calling",
  "5322": " closet",
  "5323": " warmer",
  "5324": " Kate",
  "5325": " hate",
  "5326": " chess",
  "5327": " cheers",
  "5328": " squawk",
  "5329": " catching",
  "5330": " agreement",
  "5331": " joked",
  "5332": " joking",
  "5333": " –",
  "5334": " breeze",
  "5335": " hearing",
  "5336": " keeps",
  "5337": " Who",
  "5338": " adorable",
  "5339": "”.",
  "5340": " zipped",
  "5341": " tops",
  "5342": "oons",
  "5343": " drawn",
  "5344": " differently",
  "5345": " forgives",
  "5346": " forgiving",
  "5347": " grin",
  "5348": " grant",
  "5349": " behaved",
  "5350": " ours",
  "5351": " trips",
  "5352": " curiously",
  "5353": " Get",
  "5354": " Giant",
  "5355": " Grandma",
  "5356": " Levi",
  "5357": "Sammy",
  "5358": " follows",
  "5359": " pretends",
  "5360": " paints",
  "5361": " Zoe",
  "5362": " tastes",
  "5363": " tastiest",
  "5364": "ngth",
  "5365": " fairies",
  "5366": " brightly",
  "5367": " buildings",
  "5368": " hides",
  "5369": " guest",
  "5370": " sweetie",
  "5371": " squirrels",
  "5372": " biting",
  "5373": " steer",
  "5374": " explanation",
  "5375": " hopes",
  "5376": " joining",
  "5377": " spots",
  "5378": " reaching",
  "5379": " settle",
  "5380": " resting",
  "5381": " engines",
  "5382": " breaking",
  "5383": " performed",
  "5384": " recipes",
  "5385": " recorder",
  "5386": " fans",
  "5387": " deliver",
  "5388": " kingdom",
  "5389": " visiting",
  "5390": " winner",
  "5391": " dreamt",
  "5392": " missing",
  "5393": "unchy",
  "5394": " OK",
  "5395": " Our",
  "5396": " Oliver",
  "5397": " drives",
  "5398": " crash",
  "5399": " matched",
  "5400": " tightly",
  "5401": " polish",
  "5402": " understanding",
  "5403": " sisters",
  "5404": " throws",
  "5405": " roars",
  "5406": " windows",
  "5407": " zoomed",
  "5408": " wraps",
  "5409": " piles",
  "5410": " paths",
  "5411": " napkin",
  "5412": " situation",
  "5413": " honk",
  "5414": " Before",
  "5415": " Christ",
  "5416": " container",
  "5417": " terrified",
  "5418": " pastel",
  "5419": " pots",
  "5420": " potato",
  "5421": " believed",
  "5422": " reluct",
  "5423": " glasses",
  "5424": " highest",
  "5425": " strength",
  "5426": " problems",
  "5427": " continue",
  "5428": " wears",
  "5429": " shrank",
  "5430": "brate",
  "5431": " rubs",
  "5432": " rubble",
  "5433": " shopkeeper",
  "5434": " relief",
  "5435": " parts",
  "5436": " parties",
  "5437": " drivers",
  "5438": " indeed",
  "5439": " wishing",
  "5440": " wisely",
  "5441": " wisdom",
  "5442": " easily",
  "5443": " solving",
  "5444": "uggled",
  "5445": " claps",
  "5446": " chewing",
  "5447": " patiently",
  "5448": " shadows",
  "5449": "Beware",
  "5450": "caped",
  "5451": " burst",
  "5452": " Something",
  "5453": " sorts",
  "5454": " sailor",
  "5455": " invitation",
  "5456": " investigate",
  "5457": " Lizard",
  "5458": " interested",
  "5459": " teaching",
  "5460": " shooting",
  "5461": " admir",
  "5462": " bathrobes",
  "5463": " zebras",
  "5464": " ignore",
  "5465": " afar",
  "5466": " pans",
  "5467": " panic",
  "5468": " pancakes",
  "5469": " neighbors",
  "5470": " markers",
  "5471": " jogged",
  "5472": " attention",
  "5473": " lemonade",
  "5474": " planets",
  "5475": " arrive",
  "5476": " escaped",
  "5477": " actually",
  "5478": " fooled",
  "5479": " dishonest",
  "5480": " crumb",
  "5481": " crunchy",
  "5482": " cooed",
  "5483": " kicking",
  "5484": " model",
  "5485": " None",
  "5486": " adding",
  "5487": " studying",
  "5488": " bringing",
  "5489": " pockets",
  "5490": " ordered",
  "5491": " melted",
  "5492": " changes",
  "5493": " pebbles",
  "5494": " glittery",
  "5495": " drums",
  "5496": " groups",
  "5497": " jewels",
  "5498": " discoveries",
  "5499": " holidays",
  "5500": " dinosaurs",
  "5501": " auntie",
  "5502": " human",
  "5503": " Stay",
  "5504": " garbage",
  "5505": " shivers",
  "5506": " logs",
  "5507": " sparkly",
  "5508": " valuable",
  "5509": " People",
  "5510": " burying",
  "5511": " patterns",
  "5512": " designs",
  "5513": "Freddy",
  "5514": " safety",
  "5515": " cartoons",
  "5516": " unlocked",
  "5517": " package",
  "5518": " tricky",
  "5519": " recognizing",
  "5520": "ween",
  "5521": " surround",
  "5522": " wipe",
  "5523": " campfire",
  "5524": " trembled",
  "5525": " colours",
  "5526": " prayed",
  "5527": " encount",
  "5528": " impressed",
  "5529": " sandwich",
  "5530": " crawl",
  "5531": " increased",
  "5532": " vegetables",
  "5533": " scratching",
  "5534": " ironed",
  "5535": "Today",
  "5536": "ubbing",
  "5537": " awhile",
  "5538": " between",
  "5539": " Isn",
  "5540": " steps",
  "5541": " universe",
  "5542": " Robe",
  "5543": " warnings",
  "5544": " stretching",
  "5545": " provided",
  "5546": " apologized",
  "5547": " tickled",
  "5548": " wiggly",
  "5549": " massages",
  "5550": " urged",
  "5551": " urge",
  "5552": " frowns",
  "5553": " worms",
  "5554": " pressing",
  "5555": " dears",
  "5556": " teamwork",
  "5557": " Goodbye",
  "5558": " recommendation",
  "5559": " include",
  "5560": "Nothing",
  "5561": " battery",
  "5562": " pedal",
  "5563": " curly",
  "5564": " curled",
  "5565": " sprayed",
  "5566": " measuring",
  "5567": " measured",
  "5568": " Forg",
  "5569": " peanut",
  "5570": " peanuts",
  "5571": " direction",
  "5572": " directions",
  "5573": " celebrated",
  "5574": " celebrate",
  "5575": " cobwebs",
  "5576": " Up",
  "5577": "Quacky",
  "5578": " wobbling",
  "5579": " purr",
  "5580": " Snowman",
  "5581": " loaded",
  "5582": " request",
  "5583": " scrubbing",
  "5584": " exercise",
  "5585": " Club",
  "5586": " twirled",
  "5587": " disagreed",
  "5588": " discuss",
  "5589": " snowballs",
  "5590": " masterpie",
  "5591": " crashed",
  "5592": " entrance",
  "5593": " balancing",
  "5594": "ibility",
  "5595": " Froggy",
  "5596": " included",
  "5597": " paddled",
  "5598": " responsibility",
  "5599": " introduce",
  "5600": "Blue",
  "5601": "Brrr",
  "5602": "Excuse",
  "5603": "Ribbit",
  "5604": "Someone",
  "5605": "build",
  "5606": "bang",
  "5607": " target",
  "5608": " tunnel",
  "5609": " achieve",
  "5610": " siblings",
  "5611": " someday",
  "5612": " thermometer",
  "5613": " bleeding",
  "5614": " bricks",
  "5615": " beside",
  "5616": " future",
  "5617": " langu",
  "5618": " lecture",
  "5619": " papers",
  "5620": " coffee",
  "5621": " camera",
  "5622": " calmed",
  "5623": " coughed",
  "5624": " cousin",
  "5625": " Saturday",
  "5626": " Squeaky",
  "5627": " glee",
  "5628": " gazed",
  "5629": " throat",
  "5630": " inspired",
  "5631": " risks",
  "5632": " Books",
  "5633": " echoed",
  "5634": " effort",
  "5635": " reindeer",
  "5636": " sculpture",
  "5637": " spooky",
  "5638": " memory",
  "5639": " factory",
  "5640": " exhausted",
  "5641": " uniform",
  "5642": " exclaimed",
  "5643": " underneath",
  "5644": " enemies",
  "5645": " immediately",
  "5646": " Christmas",
  "5647": " reluctantly",
  "5648": " crumbs",
  "5649": " masterpiece",
  "5650": " 1",
  "5651": " 8",
  "5652": " 9",
  "5653": " X",
  "5654": " Y",
  "5655": " ome",
  "5656": " Yes",
  "5657": " Okay",
  "5658": " Quacky",
  "5659": "!?\",",
  "5660": "'ve",
  "5661": "'.\"",
  "5662": "'?\"",
  "5663": "?'",
  "5664": "An",
  "5665": "All",
  "5666": "Act",
  "5667": "Amanda",
  "5668": "Ally",
  "5669": "Apples",
  "5670": "Big",
  "5671": "Ball",
  "5672": "Bird",
  "5673": "Bill",
  "5674": "Back",
  "5675": "Boom",
  "5676": "Bessie",
  "5677": "Bibi",
  "5678": "Buzzy",
  "5679": "Ca",
  "5680": "Ch",
  "5681": "Che",
  "5682": "Car",
  "5683": "Cost",
  "5684": "Coco",
  "5685": "Catch",
  "5686": "Crazy",
  "5687": "Dream",
  "5688": "Danger",
  "5689": "Deal",
  "5690": "Ew",
  "5691": "For",
  "5692": "Friend",
  "5693": "Fish",
  "5694": "Follow",
  "5695": "Fred",
  "5696": "Gre",
  "5697": "George",
  "5698": "HE",
  "5699": "Hop",
  "5700": "Hmm",
  "5701": "Hurry",
  "5702": "Jim",
  "5703": "Jake",
  "5704": "June",
  "5705": "King",
  "5706": "Lulu",
  "5707": "Lydia",
  "5708": "Mo",
  "5709": "Move",
  "5710": "Moby",
  "5711": "Mmm",
  "5712": "Many",
  "5713": "Mama",
  "5714": "Monica",
  "5715": "Out",
  "5716": "Pe",
  "5717": "Put",
  "5718": "Pret",
  "5719": "Pilot",
  "5720": "Pete",
  "5721": "Pretend",
  "5722": "Rex",
  "5723": "Rain",
  "5724": "Rude",
  "5725": "Ruby",
  "5726": "Remember",
  "5727": "Ronnie",
  "5728": "Really",
  "5729": "Sp",
  "5730": "Sw",
  "5731": "Sun",
  "5732": "Sad",
  "5733": "Somet",
  "5734": "Soup",
  "5735": "Slow",
  "5736": "Tiny",
  "5737": "Tree",
  "5738": "Tweet",
  "5739": "THE",
  "5740": "Ug",
  "5741": "Uh",
  "5742": "Up",
  "5743": "Use",
  "5744": "Under",
  "5745": "Whe",
  "5746": "Wake",
  "5747": "Wild",
  "5748": "Waffle",
  "5749": "Ye",
  "5750": "Yum",
  "5751": "Yummy",
  "5752": "Zara",
  "5753": "Zip",
  "5754": "Ziggy",
  "5755": "ah",
  "5756": "auts",
  "5757": "bs",
  "5758": "bit",
  "5759": "bor",
  "5760": "boo",
  "5761": "bel",
  "5762": "bers",
  "5763": "bour",
  "5764": "bies",
  "5765": "cl",
  "5766": "cher",
  "5767": "cter",
  "5768": "cal",
  "5769": "cause",
  "5770": "cream",
  "5771": "ckey",
  "5772": "col",
  "5773": "cery",
  "5774": "do",
  "5775": "ds",
  "5776": "dile",
  "5777": "date",
  "5778": "dies",
  "5779": "ef",
  "5780": "eat",
  "5781": "eep",
  "5782": "fun",
  "5783": "friend",
  "5784": "found",
  "5785": "fair",
  "5786": "free",
  "5787": "fless",
  "5788": "form",
  "5789": "fast",
  "5790": "formed",
  "5791": "forted",
  "5792": "gic",
  "5793": "hi",
  "5794": "hy",
  "5795": "har",
  "5796": "iar",
  "5797": "iven",
  "5798": "ikes",
  "5799": "izzled",
  "5800": "jected",
  "5801": "lo",
  "5802": "len",
  "5803": "lig",
  "5804": "lause",
  "5805": "lace",
  "5806": "lth",
  "5807": "lier",
  "5808": "mer",
  "5809": "mun",
  "5810": "mell",
  "5811": "mate",
  "5812": "mbled",
  "5813": "mates",
  "5814": "match",
  "5815": "nc",
  "5816": "no",
  "5817": "nother",
  "5818": "nap",
  "5819": "nif",
  "5820": "noun",
  "5821": "oh",
  "5822": "ok",
  "5823": "oid",
  "5824": "oved",
  "5825": "oves",
  "5826": "okes",
  "5827": "oken",
  "5828": "oded",
  "5829": "odies",
  "5830": "pr",
  "5831": "pher",
  "5832": "ply",
  "5833": "pite",
  "5834": "peci",
  "5835": "parent",
  "5836": "packed",
  "5837": "ris",
  "5838": "ran",
  "5839": "ror",
  "5840": "rig",
  "5841": "rily",
  "5842": "right",
  "5843": "rop",
  "5844": "rus",
  "5845": "rink",
  "5846": "rumpy",
  "5847": "she",
  "5848": "sed",
  "5849": "sher",
  "5850": "shing",
  "5851": "serv",
  "5852": "saur",
  "5853": "sformed",
  "5854": "smell",
  "5855": "snap",
  "5856": "tally",
  "5857": "tage",
  "5858": "terest",
  "5859": "time",
  "5860": "und",
  "5861": "uly",
  "5862": "ubbed",
  "5863": "uzzle",
  "5864": "vroom",
  "5865": "vast",
  "5866": "whe",
  "5867": "wed",
  "5868": "why",
  "5869": "xop",
  "5870": "ync",
  "5871": "zing",
  "5872": "zag",
  "5873": "zip",
  "5874": " tan",
  "5875": " tend",
  "5876": " tam",
  "5877": " tut",
  "5878": " tum",
  "5879": " test",
  "5880": " tuc",
  "5881": " tip",
  "5882": " tipped",
  "5883": " tippy",
  "5884": " tumbled",
  "5885": " tinkling",
  "5886": " ais",
  "5887": " arom",
  "5888": " awe",
  "5889": " astr",
  "5890": " sid",
  "5891": " sen",
  "5892": " sill",
  "5893": " sly",
  "5894": " sum",
  "5895": " sip",
  "5896": " sire",
  "5897": " serv",
  "5898": " sides",
  "5899": " sizzled",
  "5900": " sync",
  "5901": " wre",
  "5902": " wid",
  "5903": " wow",
  "5904": " west",
  "5905": " bou",
  "5906": " boo",
  "5907": " bound",
  "5908": " bank",
  "5909": " bitten",
  "5910": " bikes",
  "5911": " topp",
  "5912": " tossed",
  "5913": " tonight",
  "5914": " tone",
  "5915": " toaster",
  "5916": " totally",
  "5917": " hood",
  "5918": " hike",
  "5919": " hitting",
  "5920": " huddled",
  "5921": " fle",
  "5922": " fame",
  "5923": " fum",
  "5924": " fant",
  "5925": " furt",
  "5926": "inat",
  "5927": "inet",
  "5928": "inse",
  "5929": "inion",
  "5930": "ints",
  "5931": "inated",
  "5932": "interest",
  "5933": " Tri",
  "5934": " Take",
  "5935": " Tur",
  "5936": " Tell",
  "5937": " Tag",
  "5938": " Turt",
  "5939": " Terri",
  "5940": " Tail",
  "5941": " Taking",
  "5942": " wailed",
  "5943": " waist",
  "5944": " wanna",
  "5945": " wakes",
  "5946": " waded",
  "5947": "itam",
  "5948": "ition",
  "5949": "itive",
  "5950": "ities",
  "5951": "itely",
  "5952": "render",
  "5953": "reshing",
  "5954": " dot",
  "5955": " det",
  "5956": " dam",
  "5957": " dun",
  "5958": " ditch",
  "5959": " dates",
  "5960": " dedic",
  "5961": " lily",
  "5962": " litt",
  "5963": " lines",
  "5964": " linked",
  "5965": " lime",
  "5966": " ple",
  "5967": " pound",
  "5968": " pra",
  "5969": " pul",
  "5970": " pant",
  "5971": " phot",
  "5972": " cm",
  "5973": " cor",
  "5974": " cop",
  "5975": " cough",
  "5976": " coop",
  "5977": " cores",
  "5978": " moo",
  "5979": " mun",
  "5980": " mitt",
  "5981": " mate",
  "5982": " mention",
  "5983": "ern",
  "5984": "erked",
  "5985": "erve",
  "5986": "erly",
  "5987": "erced",
  "5988": "erfully",
  "5989": "ergic",
  "5990": "oming",
  "5991": "ompl",
  "5992": " waste",
  "5993": " These",
  "5994": " hen",
  "5995": " heel",
  "5996": " hens",
  "5997": "ishes",
  "5998": "isies",
  "5999": "isfied",
  "6000": " nat",
  "6001": " nur",
  "6002": " nic",
  "6003": " nuzzle",
  "6004": "arty",
  "6005": "arian",
  "6006": "arinet",
  "6007": "onauts",
  "6008": "llas",
  "6009": " sale",
  "6010": " sacks",
  "6011": " saxop",
  "6012": "iding",
  "6013": "iders",
  "6014": "imming",
  "6015": " hated",
  "6016": " habit",
  "6017": " halo",
  "6018": " Sil",
  "6019": " Sleep",
  "6020": " Six",
  "6021": " Slow",
  "6022": " Since",
  "6023": " Splash",
  "6024": " Seat",
  "6025": " Sund",
  "6026": " goo",
  "6027": " gall",
  "6028": " gross",
  "6029": " gawk",
  "6030": "atted",
  "6031": "atform",
  "6032": "aned",
  "6033": "anted",
  "6034": "anced",
  "6035": "anges",
  "6036": "ansformed",
  "6037": "ene",
  "6038": "ences",
  "6039": "lect",
  "6040": "ended",
  "6041": " itches",
  "6042": "eted",
  "6043": "etch",
  "6044": "etitive",
  "6045": " Have",
  "6046": " third",
  "6047": " thus",
  "6048": " thrill",
  "6049": " thugs",
  "6050": "igs",
  "6051": "ighing",
  "6052": "igning",
  "6053": "iggled",
  "6054": "igzag",
  "6055": "ilway",
  "6056": "iliar",
  "6057": " Head",
  "6058": " plot",
  "6059": " plain",
  "6060": " placed",
  "6061": " platform",
  "6062": " inch",
  "6063": " invent",
  "6064": " instr",
  "6065": "rible",
  "6066": "riately",
  "6067": "uty",
  "6068": "utter",
  "6069": " playdate",
  "6070": " playmates",
  "6071": " playtime",
  "6072": "vering",
  "6073": "verance",
  "6074": " rather",
  "6075": " rises",
  "6076": " rinse",
  "6077": "esome",
  "6078": "Only",
  "6079": " sting",
  "6080": " stum",
  "6081": " stash",
  "6082": " stamp",
  "6083": " stench",
  "6084": " stern",
  "6085": "excuse",
  "6086": " beat",
  "6087": " bees",
  "6088": " hissed",
  "6089": "ceed",
  "6090": "ceive",
  "6091": "cking",
  "6092": "ckly",
  "6093": "ckled",
  "6094": " List",
  "6095": " Linda",
  "6096": " Life",
  "6097": " onwards",
  "6098": "alling",
  "6099": " lied",
  "6100": " licking",
  "6101": " wept",
  "6102": " weather",
  "6103": " weighed",
  "6104": " webs",
  "6105": " weighing",
  "6106": "sters",
  "6107": "stand",
  "6108": "strike",
  "6109": " Both",
  "6110": " Batter",
  "6111": " Bugsy",
  "6112": " Because",
  "6113": " Mouse",
  "6114": " Mama",
  "6115": " Match",
  "6116": "sequ",
  "6117": "seek",
  "6118": "sembled",
  "6119": "severance",
  "6120": "entured",
  "6121": " shown",
  "6122": " shak",
  "6123": " shudd",
  "6124": " fort",
  "6125": " forming",
  "6126": " kill",
  "6127": " ketch",
  "6128": "child",
  "6129": " sore",
  "6130": " soared",
  "6131": " socks",
  "6132": " sobbed",
  "6133": " sobbing",
  "6134": " soaked",
  "6135": " shed",
  "6136": "outs",
  "6137": " neare",
  "6138": " bobbed",
  "6139": " isn",
  "6140": "elines",
  "6141": " announ",
  "6142": "uggle",
  "6143": " whine",
  "6144": " whiz",
  "6145": " whipped",
  "6146": " loving",
  "6147": " loses",
  "6148": " local",
  "6149": " allow",
  "6150": " allows",
  "6151": " allergic",
  "6152": " jack",
  "6153": " jumbled",
  "6154": " jerked",
  "6155": " jiggled",
  "6156": "getic",
  "6157": " bait",
  "6158": " bakes",
  "6159": " backed",
  "6160": " babies",
  "6161": " assembled",
  "6162": " oh",
  "6163": " oink",
  "6164": "urb",
  "6165": " rely",
  "6166": " reason",
  "6167": " reward",
  "6168": " releas",
  "6169": " rebuild",
  "6170": " reef",
  "6171": " rejected",
  "6172": " receive",
  "6173": "ained",
  "6174": " Around",
  "6175": " Acc",
  "6176": " Amelia",
  "6177": " Alth",
  "6178": " Another",
  "6179": " season",
  "6180": " sewed",
  "6181": " root",
  "6182": " rocked",
  "6183": " catcher",
  "6184": " frost",
  "6185": "ecting",
  "6186": "icing",
  "6187": "icent",
  "6188": "icip",
  "6189": "raging",
  "6190": "rapher",
  "6191": " theirs",
  "6192": " knob",
  "6193": " knight",
  "6194": " knife",
  "6195": " leap",
  "6196": " leaking",
  "6197": "ument",
  "6198": " outdo",
  "6199": "ulf",
  "6200": " backpack",
  "6201": " clarinet",
  "6202": " girly",
  "6203": " caution",
  "6204": " cautiously",
  "6205": " score",
  "6206": " scamp",
  "6207": " scurry",
  "6208": " science",
  "6209": " scores",
  "6210": " scored",
  "6211": " scene",
  "6212": " spect",
  "6213": " spins",
  "6214": " spatter",
  "6215": "myard",
  "6216": " meows",
  "6217": " becomes",
  "6218": " becoming",
  "6219": "omets",
  "6220": " ago",
  "6221": " ages",
  "6222": " failed",
  "6223": " fauc",
  "6224": " fact",
  "6225": " faced",
  "6226": " faire",
  "6227": " fasc",
  "6228": " newfound",
  "6229": " noses",
  "6230": "ighting",
  "6231": " alright",
  "6232": " Well",
  "6233": " Wish",
  "6234": " Watch",
  "6235": " Wait",
  "6236": " Woof",
  "6237": "oped",
  "6238": "opes",
  "6239": " goodness",
  "6240": " worn",
  "6241": " coord",
  "6242": " coats",
  "6243": " coaster",
  "6244": "ishment",
  "6245": " downstairs",
  "6246": " ranger",
  "6247": "uced",
  "6248": " swip",
  "6249": " swapping",
  "6250": " swipes",
  "6251": " Fun",
  "6252": " Fish",
  "6253": " Follow",
  "6254": " Fleas",
  "6255": " Fighting",
  "6256": " yourselves",
  "6257": " flat",
  "6258": " flas",
  "6259": " flames",
  "6260": " flapped",
  "6261": " flutter",
  "6262": " everyday",
  "6263": " everybody",
  "6264": " props",
  "6265": " predic",
  "6266": " walrus",
  "6267": "epy",
  "6268": " knowled",
  "6269": " popping",
  "6270": " watering",
  "6271": " kneels",
  "6272": " chat",
  "6273": " chop",
  "6274": " chara",
  "6275": " chats",
  "6276": " chirp",
  "6277": " chores",
  "6278": " anybody",
  "6279": "asing",
  "6280": "ases",
  "6281": "ashed",
  "6282": "quet",
  "6283": "quered",
  "6284": "Three",
  "6285": " peak",
  "6286": " peas",
  "6287": " peered",
  "6288": "usement",
  "6289": " intrig",
  "6290": " intended",
  "6291": " Deal",
  "6292": "inkles",
  "6293": " vain",
  "6294": " vowed",
  "6295": " vitam",
  "6296": " ventured",
  "6297": " vases",
  "6298": " trud",
  "6299": " truly",
  "6300": " transformed",
  "6301": " slice",
  "6302": " sludge",
  "6303": " slither",
  "6304": " slapped",
  "6305": " slopes",
  "6306": " Eat",
  "6307": " runner",
  "6308": " blast",
  "6309": " blade",
  "6310": " blushed",
  "6311": " given",
  "6312": " gifted",
  "6313": "ographer",
  "6314": "ession",
  "6315": " grey",
  "6316": " greeted",
  "6317": " hockey",
  "6318": " hovering",
  "6319": " jumper",
  "6320": " rocky",
  "6321": " unable",
  "6322": " unfair",
  "6323": " unhar",
  "6324": " unpacked",
  "6325": " unzip",
  "6326": " ope",
  "6327": " opinion",
  "6328": " tackled",
  "6329": " mopping",
  "6330": " moaned",
  "6331": " surprises",
  "6332": " towered",
  "6333": " needles",
  "6334": " clearing",
  "6335": " stroll",
  "6336": " stroke",
  "6337": " struggled",
  "6338": " strokes",
  "6339": " struggle",
  "6340": " amount",
  "6341": " amused",
  "6342": " amusement",
  "6343": "oured",
  "6344": " skipping",
  "6345": " dances",
  "6346": " dancer",
  "6347": " howled",
  "6348": " fiber",
  "6349": " fizzy",
  "6350": " usual",
  "6351": " kinder",
  "6352": " oranges",
  "6353": " cleaner",
  "6354": " handful",
  "6355": " handled",
  "6356": "romise",
  "6357": " Crazy",
  "6358": " Comets",
  "6359": "embers",
  "6360": " turning",
  "6361": " twin",
  "6362": " twice",
  "6363": " tweet",
  "6364": " twinkled",
  "6365": " twinkling",
  "6366": " twigs",
  "6367": "feat",
  "6368": " magnif",
  "6369": "rossed",
  "6370": " Paper",
  "6371": " Pray",
  "6372": " Pond",
  "6373": " Paul",
  "6374": " Party",
  "6375": " Those",
  "6376": " dip",
  "6377": " dipped",
  "6378": "bber",
  "6379": " glued",
  "6380": " glowed",
  "6381": " gloves",
  "6382": " gliding",
  "6383": " budge",
  "6384": " paused",
  "6385": " applause",
  "6386": " approp",
  "6387": " farther",
  "6388": " farmyard",
  "6389": " quench",
  "6390": " quacked",
  "6391": " badly",
  "6392": " badge",
  "6393": " badges",
  "6394": " climax",
  "6395": " afterwards",
  "6396": " climber",
  "6397": "planes",
  "6398": " snuck",
  "6399": " snort",
  "6400": " snakes",
  "6401": " snuggled",
  "6402": " forehead",
  "6403": "Thankfully",
  "6404": " sticking",
  "6405": " stickers",
  "6406": " reads",
  "6407": " comforted",
  "6408": " commun",
  "6409": " overjoy",
  "6410": " overhead",
  "6411": " overflow",
  "6412": " offer",
  "6413": " threat",
  "6414": " Run",
  "6415": " Rect",
  "6416": " Really",
  "6417": " beauty",
  "6418": " familiar",
  "6419": " broom",
  "6420": " softened",
  "6421": " device",
  "6422": " devast",
  "6423": " defeat",
  "6424": " untied",
  "6425": " untangle",
  "6426": " works",
  "6427": "pting",
  "6428": " smiley",
  "6429": " closing",
  "6430": " closes",
  "6431": " teased",
  "6432": " teasing",
  "6433": " warmth",
  "6434": " parked",
  "6435": " parade",
  "6436": " raised",
  "6437": " railway",
  "6438": " Keep",
  "6439": " hates",
  "6440": " staying",
  "6441": " puzzled",
  "6442": " cheek",
  "6443": " squinted",
  "6444": " squaw",
  "6445": " squatted",
  "6446": " squashed",
  "6447": " stole",
  "6448": " stolen",
  "6449": " greens",
  "6450": "ission",
  "6451": " messes",
  "6452": " shock",
  "6453": " wherever",
  "6454": " removed",
  "6455": " remained",
  "6456": " remembers",
  "6457": " month",
  "6458": " monsters",
  "6459": " monument",
  "6460": " keeper",
  "6461": " keeping",
  "6462": " yells",
  "6463": " yelling",
  "6464": " written",
  "6465": " wrinkled",
  "6466": " opening",
  "6467": " zone",
  "6468": " zigzag",
  "6469": " woof",
  "6470": " pierced",
  "6471": " Does",
  "6472": " draws",
  "6473": " brand",
  "6474": " bravery",
  "6475": " satisfied",
  "6476": " meaning",
  "6477": " finishing",
  "6478": " finishes",
  "6479": "ipe",
  "6480": " taller",
  "6481": " tallest",
  "6482": " sooner",
  "6483": " realizes",
  "6484": " realizing",
  "6485": " rip",
  "6486": " ripped",
  "6487": " ribbit",
  "6488": " ripples",
  "6489": " grown",
  "6490": " granted",
  "6491": " kites",
  "6492": " hotter",
  "6493": "ocious",
  "6494": " curios",
  "6495": " tricked",
  "6496": " colder",
  "6497": " laughter",
  "6498": " floors",
  "6499": " Gently",
  "6500": " Grumpy",
  "6501": "Benny",
  "6502": "thank",
  "6503": "through",
  "6504": " fires",
  "6505": " fireman",
  "6506": " tails",
  "6507": " tasting",
  "6508": " swims",
  "6509": " creak",
  "6510": " crept",
  "6511": " creaking",
  "6512": " creepy",
  "6513": " planned",
  "6514": " splitting",
  "6515": " tables",
  "6516": " owned",
  "6517": " sweetest",
  "6518": " promises",
  "6519": " growling",
  "6520": " replies",
  "6521": " roller",
  "6522": " airplanes",
  "6523": " wagging",
  "6524": " steep",
  "6525": " pens",
  "6526": " exploded",
  "6527": " perched",
  "6528": " perseverance",
  "6529": "acular",
  "6530": " touching",
  "6531": " patience",
  "6532": " candies",
  "6533": " napped",
  "6534": " napping",
  "6535": " lessons",
  "6536": " anticip",
  "6537": " concer",
  "6538": " conserv",
  "6539": " consequ",
  "6540": " conquered",
  "6541": " grandparent",
  "6542": " grandchild",
  "6543": " settled",
  "6544": " rested",
  "6545": " restored",
  "6546": " engulf",
  "6547": " engrossed",
  "6548": " amazement",
  "6549": " breakfast",
  "6550": " wondering",
  "6551": " bottles",
  "6552": " fills",
  "6553": " filling",
  "6554": " recipe",
  "6555": " keys",
  "6556": " drinks",
  "6557": " counts",
  "6558": " mailed",
  "6559": " mustn",
  "6560": " print",
  "6561": " printed",
  "6562": " prints",
  "6563": " visitors",
  "6564": "gles",
  "6565": " throughout",
  "6566": " created",
  "6567": " creating",
  "6568": " creativ",
  "6569": " arran",
  "6570": " Or",
  "6571": " Off",
  "6572": " Other",
  "6573": " Oval",
  "6574": " banged",
  "6575": " banner",
  "6576": " drip",
  "6577": " drift",
  "6578": " drifted",
  "6579": " lightning",
  "6580": " cracked",
  "6581": " buys",
  "6582": " buying",
  "6583": " horror",
  "6584": " horrible",
  "6585": " lunchbox",
  "6586": "oses",
  "6587": " buckle",
  "6588": " purposes",
  "6589": " polar",
  "6590": " polished",
  "6591": " polishing",
  "6592": " politely",
  "6593": " quieter",
  "6594": " competitive",
  "6595": " compromise",
  "6596": " elephants",
  "6597": " ache",
  "6598": " acted",
  "6599": " doctors",
  "6600": " welcomed",
  "6601": " heaven",
  "6602": " ruin",
  "6603": " rule",
  "6604": " ruining",
  "6605": " rubber",
  "6606": " yesterday",
  "6607": " baths",
  "6608": " peacefully",
  "6609": " taps",
  "6610": " desire",
  "6611": " despite",
  "6612": " deserve",
  "6613": " designing",
  "6614": " pointy",
  "6615": " wrappers",
  "6616": " hoops",
  "6617": " jams",
  "6618": " cloudy",
  "6619": " secrets",
  "6620": " sits",
  "6621": " honked",
  "6622": "irits",
  "6623": " Being",
  "6624": " Behind",
  "6625": " Choose",
  "6626": " content",
  "6627": "Star",
  "6628": "Still",
  "6629": "Stand",
  "6630": "Study",
  "6631": "Steel",
  "6632": "Strike",
  "6633": " mummies",
  "6634": " treasures",
  "6635": " chasing",
  "6636": " pastels",
  "6637": " Only",
  "6638": "codile",
  "6639": " belts",
  "6640": " scarves",
  "6641": " childhood",
  "6642": " Thanks",
  "6643": " passing",
  "6644": " fields",
  "6645": " motion",
  "6646": " motiv",
  "6647": " salty",
  "6648": " streaming",
  "6649": " streamers",
  "6650": " result",
  "6651": " cacti",
  "6652": " splashes",
  "6653": " smoothly",
  "6654": " belongings",
  "6655": " entire",
  "6656": "squawk",
  "6657": " shrunk",
  "6658": " shrugs",
  "6659": " forgetting",
  "6660": " classmate",
  "6661": " marching",
  "6662": "Goodnight",
  "6663": "brown",
  "6664": "brations",
  "6665": " supported",
  "6666": "lette",
  "6667": " shops",
  "6668": " peacefulness",
  "6669": " streets",
  "6670": " nervously",
  "6671": " bouncing",
  "6672": " lifeless",
  "6673": " easier",
  "6674": " solution",
  "6675": " oblig",
  "6676": " covers",
  "6677": " decorating",
  "6678": " images",
  "6679": " imagining",
  "6680": " imaginat",
  "6681": " chewed",
  "6682": " notebooks",
  "6683": " incredib",
  "6684": "Behind",
  "6685": "However",
  "6686": "toes",
  "6687": " burnt",
  "6688": " harbor",
  "6689": " harsher",
  "6690": " destination",
  "6691": " itchy",
  "6692": " dragons",
  "6693": " cheesy",
  "6694": " footpr",
  "6695": " salads",
  "6696": " selfless",
  "6697": " sailors",
  "6698": " However",
  "6699": " earth",
  "6700": " earlier",
  "6701": " shirts",
  "6702": " speaking",
  "6703": " bushy",
  "6704": " destroying",
  "6705": " ignition",
  "6706": " dusty",
  "6707": " disturb",
  "6708": " ghosts",
  "6709": " rider",
  "6710": " yielded",
  "6711": " librarian",
  "6712": " friendships",
  "6713": " helmets",
  "6714": " scattered",
  "6715": " trusts",
  "6716": " hopeful",
  "6717": " princesses",
  "6718": " journeys",
  "6719": " paying",
  "6720": " angrily",
  "6721": " jogging",
  "6722": " attic",
  "6723": " attach",
  "6724": " attack",
  "6725": " sprinkles",
  "6726": " questioned",
  "6727": " arriving",
  "6728": " arrival",
  "6729": " queens",
  "6730": " eagerly",
  "6731": " especi",
  "6732": " silk",
  "6733": " silently",
  "6734": " touches",
  "6735": " crouch",
  "6736": " Someone",
  "6737": " necklace",
  "6738": " selling",
  "6739": " charity",
  "6740": " thankfulness",
  "6741": " explored",
  "6742": " Never",
  "6743": " festive",
  "6744": " practicing",
  "6745": " treated",
  "6746": " frightening",
  "6747": " leaning",
  "6748": " leader",
  "6749": " leading",
  "6750": " collect",
  "6751": " collected",
  "6752": " preschool",
  "6753": " environ",
  "6754": " ignoring",
  "6755": " figures",
  "6756": " succeed",
  "6757": " bathe",
  "6758": " melodies",
  "6759": " Show",
  "6760": " returning",
  "6761": " changing",
  "6762": " cupcakes",
  "6763": " shovels",
  "6764": " screens",
  "6765": " shrinks",
  "6766": " presents",
  "6767": " presentation",
  "6768": "Meal",
  "6769": " squeal",
  "6770": " humming",
  "6771": " prized",
  "6772": " prickly",
  "6773": " pouring",
  "6774": "idents",
  "6775": " Steel",
  "6776": " rotting",
  "6777": " rotten",
  "6778": " shivered",
  "6779": " scratched",
  "6780": " scratches",
  "6781": " sparkle",
  "6782": " spoons",
  "6783": " fears",
  "6784": " organize",
  "6785": " Catch",
  "6786": " ribbons",
  "6787": " triangles",
  "6788": " disgusted",
  "6789": " accompl",
  "6790": " designed",
  "6791": " collars",
  "6792": " enthusiastically",
  "6793": "Frog",
  "6794": "Frustrated",
  "6795": " tempting",
  "6796": " bows",
  "6797": " safely",
  "6798": " cartwhe",
  "6799": " preventing",
  "6800": " unlike",
  "6801": " packing",
  "6802": " packages",
  "6803": " mushy",
  "6804": " neighborhood",
  "6805": " giggles",
  "6806": " squeezing",
  "6807": " umbrellas",
  "6808": "...\"",
  "6809": " surrender",
  "6810": " wiping",
  "6811": " crowds",
  "6812": " campground",
  "6813": " healed",
  "6814": " stuffed",
  "6815": " spiders",
  "6816": " skirts",
  "6817": " snaps",
  "6818": " floating",
  "6819": " crawling",
  "6820": " completely",
  "6821": " mushrooms",
  "6822": " applauded",
  "6823": " ironing",
  "6824": "Levi",
  "6825": " avoid",
  "6826": " awake",
  "6827": " awoke",
  "6828": " awoken",
  "6829": " awesome",
  "6830": " hunters",
  "6831": " gathering",
  "6832": " playgrounds",
  "6833": " student",
  "6834": " weighs",
  "6835": " kayaking",
  "6836": " vanish",
  "6837": " blooms",
  "6838": " blooming",
  "6839": " breathing",
  "6840": " travels",
  "6841": " nails",
  "6842": " resists",
  "6843": " searching",
  "6844": " Startled",
  "6845": " tasks",
  "6846": " apologizes",
  "6847": " tickle",
  "6848": " tickles",
  "6849": " tickets",
  "6850": " bending",
  "6851": "rectly",
  "6852": " crocodile",
  "6853": " Seeing",
  "6854": " gasped",
  "6855": " urges",
  "6856": " heroes",
  "6857": " refreshing",
  "6858": " reflect",
  "6859": " protecting",
  "6860": " vibrations",
  "6861": " blows",
  "6862": " blowing",
  "6863": " energetic",
  "6864": " twists",
  "6865": " twisting",
  "6866": " sniffs",
  "6867": " writer",
  "6868": " sandcastles",
  "6869": " Goodnight",
  "6870": " permission",
  "6871": " recommending",
  "6872": " artwork",
  "6873": " suggests",
  "6874": " encouraging",
  "6875": " desserts",
  "6876": " demands",
  "6877": " demanding",
  "6878": "Dangerous",
  "6879": " sincere",
  "6880": " batteries",
  "6881": " fetches",
  "6882": " Tuesdays",
  "6883": " daisies",
  "6884": " pedals",
  "6885": " pedalling",
  "6886": " pads",
  "6887": " cuddles",
  "6888": " machines",
  "6889": " hesitant",
  "6890": " hesitation",
  "6891": " hesitated",
  "6892": " hesitantly",
  "6893": " stomp",
  "6894": " spending",
  "6895": " sprays",
  "6896": " meadows",
  "6897": " examined",
  "6898": " chopped",
  "6899": " blueberry",
  "6900": " neighbourhood",
  "6901": " surfaced",
  "6902": " response",
  "6903": " Under",
  "6904": "Ahoy",
  "6905": "Isn",
  "6906": "Quick",
  "6907": "Should",
  "6908": "Shrink",
  "6909": "Shouts",
  "6910": "ceries",
  "6911": " sighs",
  "6912": " wobbled",
  "6913": " bothered",
  "6914": " purred",
  "6915": " Snake",
  "6916": " Helping",
  "6917": " loads",
  "6918": " requested",
  "6919": " scrubbed",
  "6920": "uctions",
  "6921": " exercising",
  "6922": " possible",
  "6923": " possibil",
  "6924": " possession",
  "6925": " Close",
  "6926": " twirls",
  "6927": " appears",
  "6928": " sneak",
  "6929": " sneaky",
  "6930": " sneaked",
  "6931": " snugly",
  "6932": " snuggles",
  "6933": " disagree",
  "6934": " discussed",
  "6935": " delayed",
  "6936": " delaying",
  "6937": " countryside",
  "6938": " crashes",
  "6939": " entranced",
  "6940": " balanced",
  "6941": " Nothing",
  "6942": " including",
  "6943": " paddling",
  "6944": " responsible",
  "6945": " introduced",
  "6946": "Aww",
  "6947": "Nearby",
  "6948": "Record",
  "6949": "Recommend",
  "6950": "Surprise",
  "6951": "Surprised",
  "6952": "True",
  "6953": "Trust",
  "6954": " simple",
  "6955": " simply",
  "6956": " tomatoes",
  "6957": " ferris",
  "6958": " ferocious",
  "6959": " wandered",
  "6960": " pleased",
  "6961": " cotton",
  "6962": " cottage",
  "6963": " Small",
  "6964": " Smile",
  "6965": " Spicy",
  "6966": " Spiders",
  "6967": " gained",
  "6968": " grocery",
  "6969": " groceries",
  "6970": " rusty",
  "6971": " rustling",
  "6972": " yawn",
  "6973": " yawned",
  "6974": " beeped",
  "6975": " repeat",
  "6976": " repeating",
  "6977": " revealed",
  "6978": " levers",
  "6979": " clicks",
  "6980": " flips",
  "6981": " kneeled",
  "6982": " kneeling",
  "6983": " challenge",
  "6984": " challenging",
  "6985": " unwrap",
  "6986": " unwrapping",
  "6987": " Pretending",
  "6988": " appreciate",
  "6989": " appreciation",
  "6990": " combed",
  "6991": " grinned",
  "6992": " guests",
  "6993": " honks",
  "6994": " admiring",
  "6995": " admiration",
  "6996": " surrounded",
  "6997": " surrounding",
  "6998": " encounter",
  "6999": " encountered",
  "7000": " Forgiving",
  "7001": " Forgiven",
  "7002": " Upon",
  "7003": " purrs",
  "7004": "building",
  "7005": " language",
  "7006": " languages",
  "7007": " gleefully",
  "7008": " uniforms",
  "7009": " 10",
  "7010": " Yet",
  "7011": " omelette",
  "7012": " Yesterday",
  "7013": "Actually",
  "7014": "Cautiously",
  "7015": "Chirpy",
  "7016": "Cheerfully",
  "7017": "Costume",
  "7018": "Dreams",
  "7019": "Friends",
  "7020": "Great",
  "7021": "Pepper",
  "7022": "Pretty",
  "7023": "Spirits",
  "7024": "Swimming",
  "7025": "Sometimes",
  "7026": "Ugh",
  "7027": "Understand",
  "7028": "Whee",
  "7029": "Yeah",
  "7030": "believe",
  "7031": "bourines",
  "7032": "clock",
  "7033": "cters",
  "7034": "coloured",
  "7035": "smelling",
  "7036": " tangled",
  "7037": " tenderly",
  "7038": " tambourines",
  "7039": " tutor",
  "7040": " tummies",
  "7041": " tucked",
  "7042": " aisle",
  "7043": " aroma",
  "7044": " astronauts",
  "7045": " sidelines",
  "7046": " sense",
  "7047": " sillier",
  "7048": " slyly",
  "7049": " summer",
  "7050": " sirens",
  "7051": " service",
  "7052": " wreck",
  "7053": " widening",
  "7054": " bouquet",
  "7055": " toppings",
  "7056": " hooded",
  "7057": " flea",
  "7058": " fuming",
  "7059": " fantastic",
  "7060": " further",
  "7061": "interesting",
  "7062": " Triangle",
  "7063": " Turns",
  "7064": " Turtle",
  "7065": " Terrified",
  "7066": " Tails",
  "7067": " dots",
  "7068": " detail",
  "7069": " damage",
  "7070": " dunked",
  "7071": " dedication",
  "7072": " littered",
  "7073": " pleasure",
  "7074": " pounds",
  "7075": " praised",
  "7076": " pulp",
  "7077": " pants",
  "7078": " photographer",
  "7079": " correctly",
  "7080": " copy",
  "7081": " mooed",
  "7082": " munches",
  "7083": " matey",
  "7084": " mentioned",
  "7085": " nature",
  "7086": " nurses",
  "7087": " nicer",
  "7088": " nuzzles",
  "7089": " saxophone",
  "7090": " Silence",
  "7091": " Slowly",
  "7092": " Sunday",
  "7093": " googly",
  "7094": " galloped",
  "7095": " thrilled",
  "7096": " Heads",
  "7097": " inventions",
  "7098": " instructions",
  "7099": " stumble",
  "7100": " stamped",
  "7101": " Listen",
  "7102": " Batteries",
  "7103": " shaken",
  "7104": " shuddered",
  "7105": " ketchup",
  "7106": " nearest",
  "7107": " announced",
  "7108": " jackets",
  "7109": " released",
  "7110": " Accidents",
  "7111": " Although",
  "7112": " frosting",
  "7113": " outdoors",
  "7114": " scampered",
  "7115": " scurrying",
  "7116": " spectacular",
  "7117": " spattered",
  "7118": " faucet",
  "7119": " fairer",
  "7120": " fascinated",
  "7121": " coordination",
  "7122": " swiped",
  "7123": " flashing",
  "7124": " fluttered",
  "7125": " predicted",
  "7126": " knowledge",
  "7127": " characters",
  "7128": " chirped",
  "7129": " intrigued",
  "7130": " vitamins",
  "7131": " trudged",
  "7132": " slithered",
  "7133": " unharmed",
  "7134": " strolled",
  "7135": " magnificent",
  "7136": " Praying",
  "7137": " appropriately",
  "7138": " community",
  "7139": " overjoyed",
  "7140": " Rectangle",
  "7141": " devastated",
  "7142": " untangles",
  "7143": " cheeks",
  "7144": " squawked",
  "7145": " months",
  "7146": " curiosity",
  "7147": " anticipation",
  "7148": " concerned",
  "7149": " conservation",
  "7150": " consequences",
  "7151": " grandparents",
  "7152": " creativity",
  "7153": " arranged",
  "7154": " lunchboxes",
  "7155": "Studying",
  "7156": " motivation",
  "7157": " oblige",
  "7158": " imaginative",
  "7159": " incredibly",
  "7160": " footprints",
  "7161": " especially",
  "7162": " environment",
  "7163": " accomplishment",
  "7164": " cartwheels",
  "7165": " reflection",
  "7166": " possibilities",
  "7167": " Forgiveness",
  "7168": "Understanding",
  "31999": "<|endoftext|>"
}